#version: 0.2
Ġ t
h e
Ġ a
Ġ s
Ġ w
n d
Ġt he
e d
Ġ b
Ġt o
Ġa nd
Ġ h
Ġ f
i n
Ġ T
Ġw a
r e
i t
o u
Ġ l
Ġ d
Ġ c
Ġ p
a y
Ġ m
e r
Ġwa s
o m
ĠT he
Ġ he
i s
a r
Ġ n
i m
o n
Ġs a
i d
l l
Ġh a
Ġ g
a t
Ġ S
in g
o t
e n
a n
l e
o r
i r
a m
e t
Ġ H
Ġ it
Ġt h
i g
ĠThe y
Ġ in
i l
Ġp l
ĠH e
Ġ "
o w
v er
r i
u t
Ġb e
Ġ u
Ġsa id
Ġpl ay
it h
Ġd ay
Ġw ith
p p
O n
Ġ o
Ġ y
o o
k ed
Ġ r
Ġhe r
c e
Ġ I
ĠS he
l d
ĠT im
Ġh is
Ġs t
k e
Ġ e
Ġb ig
n t
c k
Ġy ou
ver y
s t
v e
e nd
Ġ on
u n
Ġha pp
ri end
Ġf riend
a ll
il y
Ġ L
Ġthe y
Ġw e
Ġha d
Ġn ot
Ġl i
Ġu p
he r
Ġwa nt
Ġo f
a d
it t
s e
Ġ B
Ġd o
Ġhapp y
en t
Ġ very
Ġ M
e s
Ġth at
Ġsa w
On e
' s
ou ld
Ġm om
Ġf or
Ġs h
itt le
Ġl ittle
Ġs o
Ġs he
c h
im e
Ġn e
Ġn am
. "
Ġt ime
Ġ k
ou nd
Ġthe re
Ġnam ed
Ġs m
Ġb o
Ġwe re
ĠL ily
Ġwant ed
Ġb ut
ou t
T he
Ġfriend s
v ed
! "
h t
ĠT om
ir d
e l
Ġb ird
a l
Ġa n
a ke
Ġto o
om e
ĠI t
u g
id e
Ġw ent
Ġw h
Ġhe l
On ce
Ġ is
Ġa ll
Ġhel p
u e
Ġl oo
Ġl o
t er
Ġ A
Ġup on
r y
o re
i nd
Ġf un
g et
Ġto y
i ll
am e
Ġa s
Ġa t
r a
Ġ j
Ġd id
get her
Ġ re
u r
Ġs e
Ġto gether
a ck
Ġc at
l y
Ġt re
oo d
i c
t ed
Ġdo g
Ġc ould
Ġc an
Ġthe ir
ar d
e c
ar k
Ġg ir
Ġplay ed
Ġh im
Ġb all
? "
Ġgir l
w ay
Ġr o
Ġg o
he d
m y
Ġa re
Ġ out
Ġl e
Ġf r
a in
Ġk n
he n
Ġthe m
u m
' t
a x
Ġsa d
u l
Ġbo y
Ġtre e
ot her
Ġha ve
Ġm an
Ġc l
Ġlo ved
Ġloo ked
ou g
Ġf ound
Ġs p
Ġst ar
ĠS ue
on e
h ing
Ġs c
Ġb ack
ow n
ĠM ax
a re
Ġli ke
f ul
s ide
Ġm e
Ġbe c
Ġp ark
ig ht
on g
Ġc ar
o p
el t
Ġ One
Ġli ked
Ġw ould
Ġm ake
r ound
Ġl a
Ġf a
Ġf elt
Y ou
Ġ W
e ll
Ġse e
ĠB ut
om et
Ġas ked
a g
Ġne w
Ġn o
i ce
ĠS am
ou se
Ġstar ted
ar ed
Ġc ame
ĠB en
Ġa l
Ġ other
oug ht
il ed
Ġs omet
Ġa g
Ġg ood
Ġsm all
s s
Ġb r
Ġsm iled
Ġs ay
ri ed
ad e
ing s
Ġ Ċ
o b
p ot
Ġw or
Ġf ind
Ġe x
i a
Ġa way
t y
Ġp ut
Ġwh at
Ġsomet hing
Ġc o
Ġfr om
Ġm ade
Ġth ought
en ed
Ġh ome
Ġplay ing
oo k
Ġe very
Ġwa l
Ġm u
u c
a ch
ar n
ĠS pot
Ġr an
i le
Ġ F
i e
Ġ J
a ve
Ġag ain
Ġs ome
Ġla ug
d d
Ġh ouse
Ġd own
Ġf l
k ing
Ġtoo k
Ġsc ared
Ġp r
n y
u re
Ġtoy s
Ġle arn
Ġ You
i f
Ġw ill
Ġbo x
i ck
re t
a b
e p
Ġm y
Ġa round
Ġth ings
Ġyou r
ou d
Ġb l
u ck
Ġw hen
is h
Ġli ved
Ġf e
Ġthe n
Ġs un
a s
Ġs w
, "
Ġc h
u s
pp ed
Ġa b
ĠM ia
an k
Ġg et
uc y
T im
um p
T h
Ġl ot
is t
ot h
Ġt ried
a p
Ġkn ow
Ġsay s
Ġg ot
it ed
Ġwh o
Ġkn e
u st
Ġman y
nd er
Ġin t
Ġab out
L ily
Ġp ret
Ġd ec
Ġan y
Ġr ed
Ġ D
i ve
Ġkne w
a ce
ou s
Ġm ore
is e
Ġc are
all y
Ġp ic
a u
q u
Ġh ug
ĠL ucy
Ġlearn ed
Ġp o
Ġwa ter
f ter
Ġ v
Ġbec ame
Ġbe st
au se
Ġo p
Ġg re
Ġex c
ur p
way s
â Ģ
Ġout side
Ġlaug hed
Ġloo k
Ġal ways
Ġdec id
Ġsh ow
Ġu n
an t
ĠB ob
Ġro om
f e
Ġdecid ed
Ġh o
Ġbec ause
ĠS o
Ġint o
Ġe at
it e
Ġj ump
ĠA nd
Ġp e
Ġb oth
er s
ĠM om
Ġd ad
The y
u dd
Ġ ke
Ġon e
n n
Ġth is
Ġexc ited
Ġfa st
Ġn ice
Ġ E
Ġfe el
T om
Y es
Ġr un
Ġl ong
Ġto ld
Ġs k
Ġa m
urp r
ou r
Ġin side
u ll
Ġt r
Ġs urpr
Ġm o
in k
Ġpret ty
in y
Ġs or
W h
Ġt ake
o g
Ġs l
Ġe ach
Ġg ave
Ġmu ch
Ġg ra
le w
nn a
Ġro ck
Ġh ow
Ġst r
ar a
im al
Ġan imal
g ed
Ġne ed
Ġth an
B ut
v en
et ter
Ġto w
Ġ or
Ġ C
Ġu nder
es s
Ġo ld
Ġsor ry
g e
is ed
r o
ur t
Ġc le
Ġf ish
Ġwal ked
Ġcl o
a nd
Ġbe ar
f t
a se
a st
Ġha nd
ur n
ĠW e
Ġk ind
ĠH is
Ġt e
he re
Ġhapp ened
Ġj ust
Ġfl ow
Ġf ood
Ġl ist
Ġdid n
Ġanimal s
Ġh ig
p l
Ġne ar
Ġwa t
Ġ ide
Ġt ry
c hed
Ġsk y
in e
Ġs n
v ing
Ġf i
r om
Ġu s
Ġide a
Ġb etter
ĠA my
Ġb ug
Ġhe ard
g ry
Ġit s
Ġt w
Ġl et
p ec
at e
ab le
f f
Ġ en
Ġcare ful
Ġsh are
e x
Ġ if
Th ank
M om
Ġf ly
Ġst or
i al
Ġf lew
m ore
Ġany more
ĠT h
Ġsp ec
Ġspec ial
i on
Ġc om
Ġlot s
Ġne ver
Ġb y
l f
re am
Ġd an
Ġb u
Ġf o
Ġw ind
Ġd on
Ġt al
Ġcle an
or t
Ġg r
Ġlo ve
r m
b er
Ġe nd
ĠThe n
op le
Ġe ven
Ġm ag
Ġh ard
Ġsh iny
udd en
Ġf ore
Ġo ver
Ġc ake
a k
Ġb ook
Ġco l
Ġt urn
Ġf am
Ġb ad
Ġsa fe
Ġa fter
ad y
ĠA nna
udden ly
Ġpe ople
Ġpr oud
ĠE very
Ġsurpr ised
pec ted
L et
Ġhig h
Ġc u
Ġh urt
Ġc ome
im b
ard en
Ġdo or
Ġg arden
b b
Ġg round
Ġop ened
Ġpic ked
Ġl oud
Ġcl imb
ex pected
Ġun expected
Ġg l
Ġc he
il d
Ġ im
A s
Ġg ive
Ġwa y
a il
' m
Ġthan ked
Ġcol or
Ġbl ue
Ġst ill
Ġe ver
Ġhug ged
ĠF rom
Ġc all
Ġf ar
i p
ĠH er
ĠS ara
ĠW hen
N o
Ġof f
Ġmag ic
i z
oug h
ag e
um my
Ġ K
Ġjump ed
Ġsh ould
Ġfam ily
Ġp ar
oo l
Ġk id
Ġsm ile
he s
u ff
Ġpl ace
k ay
Ġwal k
Ġn ow
c t
ĠI n
Ġgre at
e m
t ure
Ġ qu
le s
Ġstr ong
Ġst ay
Ġu nt
Ġst o
a ut
Ġfore st
an e
Ġb ra
itt y
Ġ P
Ġfr og
Ġbr o
Ġunt il
o on
Ġbe aut
d y
Ġs qu
Ġst ick
x t
Ġne xt
Ġbo at
le ase
n ing
Ġhapp ily
Ġlist en
a king
Ġkid s
Ġt ra
i es
i ful
Ġbeaut iful
Ġa pp
t h
Ġhelp ed
Ġd ra
Ġshow ed
Ġclo s
b e
Ġim p
Ġstor y
un ny
o y
Ġwh ile
Ġtow n
re l
p t
Ġr ain
re ss
Ġpic ture
Ġbe ing
Ġre m
Ġevery one
I t
ar y
re e
Ġm or
Ġha t
Ġcall ed
Ġm et
Ġsto pped
Ġa d
Ġg ame
N ow
H e
C an
Ġan gry
g er
uff y
Ġop en
Ġw o
Ġtr uck
Ġke ep
Ġso ft
W hen
Ġc ry
Ġy ummy
Ġlo st
Ġb ed
ĠL et
ĠS ally
Ġwa rm
b y
v ent
Ġbra ve
Ġm ouse
ĠW h
Ġat e
ĠK itty
is hed
Ġd e
f ore
Ġdo ll
s o
Ġcould n
Ġwat ch
Ġle ave
Ġal so
dd ed
Ġf ell
Ġgre en
Ġfa ce
Ġtw o
g an
is s
Ġflow ers
b it
Wh at
Ġ R
b le
Ġno ise
ab bit
ir st
ow l
Ġw here
a z
o ck
Ġso on
se lf
Ġsl ide
Ġr abbit
Ġho le
l uffy
Ġbe fore
ir rel
Ġp us
ir ed
Ġsa t
ill y
Ġhe ar
Ġu se
âĢ Ŀ
H i
Ġp a
Ġke pt
âĢ ľ
Th at
Ġsqu irrel
e ar
The n
m a
Ġno dded
Ġex pl
Ġst ore
Ġc ook
Ġhand s
L ook
Ġbird s
Ġp ain
Ġgo ing
Ġfun ny
Ġha ving
d ay
Ġs ing
ay be
u ch
Ġe y
a ug
Ġcat ch
aug ht
ĠC an
ĠF luffy
u it
Ġy ell
Ġth ink
le ep
Ġc ra
Ġf in
B en
Ġb re
Ġfi x
Ġt ired
Ġb unny
Ġus ed
Ġloo king
Ġb us
an ge
a ir
Ġwor k
Ġw r
Ġ our
Ġp ull
W e
Ġth r
t hing
Ġ Now
Ġwa it
Ġk it
Ġs ound
t ing
Ġj o
Ġha s
Ġ G
Ġme an
Ġpo nd
em ber
Ġbe h
Ġd r
Ġsun ny
l ed
Ġother s
Ġas k
n g
c hen
Ġkit chen
Ġtal k
Ġfl o
Ġd if
re w
Ġp ie
ĠJ o
Ġhe ad
Ġre al
Ġf irst
Ġt ri
Ġmom my
Ġey es
ell o
Ġimp ort
H ello
Ġfa v
at h
j oy
Ġ z
Ġrem ember
Ġr ight
Ġflow er
Ġc on
Ġm ess
Ġpar ty
Ġco ld
ĠD o
Ġv o
Ġsw e
i ous
Ġsa nd
Ġ âĢľ
a c
or n
Ġr ace
Ġcu ri
im es
Ġimport ant
Ġd uck
Ġmor al
Ġsh ared
z y
ou nt
ĠJ ack
Ġ ice
Ġo kay
Ġad vent
Ġwor ked
ll ow
A t
Ġen joy
Ġd ress
Ġbr ight
Ġm aking
Ġcuri ous
Ġ own
Ġt all
Ġd ir
Ġh op
re ed
Ġh id
Ġfav or
Ġ ri
h n
Ġs leep
Ġd is
W ow
Ġfavor ite
Ġth ing
Ġbe gan
Ġm on
Ġb ag
Ġh ill
D on
Ġcl a
Ġdra w
Ġre st
Ġhe re
Ġy ard
Ġt ell
ĠF in
st er
Ġwat ched
q ue
Ġfo llow
Ġmo ve
Ġbe l
ec t
Ġc ut
Ġn ight
Ġag reed
Ġp ick
c o
Ġbl ock
Ġh un
ap er
ll y
Ġst op
Ġbeh ind
ĠTh is
Ġsurpr ise
i ed
Ġsh o
Ġh ot
A fter
Ġt able
Ġgra ss
Ġwor ry
Ġd ark
Ġtre es
Ġvo ice
Ġwal king
fe re
Ġflo or
Ġfar m
Ġli on
Ġto p
Ġdif fere
Ġp lease
Ġr u
Ġs ong
Ġbut ter
Ġt ail
Ġswe et
M ax
Ġsh out
Ġcolor s
Ġre ad
ĠD ad
Ġl ady
Ġfor g
is y
Ġleave s
Ġclos er
ig n
Ġcar s
Ġturn ed
Ġneed ed
Ġt ast
Wh y
ar ing
Ġw ood
Ġc ried
Ġdiffere nt
Ġlaug h
Ġd el
Ġpie ce
âĢ Ļ
er ed
ĠM r
Ġro ll
Ġadvent ure
Ġfi re
Ġdo es
i ke
Ġc r
Ġhun gry
Ġha ir
ĠS uddenly
Ġp aper
Ġfeel ing
Ġyell ow
Ġf ull
b o
Ġpr in
S ue
Ġto uch
ĠA s
A nna
S am
Ġw et
Ġfriend ly
Ġp er
o om
k en
c ked
a ched
Ġsw ing
Ġfr uit
i ent
Ġbro ken
Ġre ady
by e
pp y
Ġpr om
ĠTh at
Ġan other
Ġl ight
Ġpret end
Ġdan ce
at er
Ġclimb ed
w here
Ġlist ened
ĠBob o
Ġdan c
Ġrun ning
Ġon ly
Ġpl an
Ġg one
Ġsw im
bb ed
S uddenly
s h
Ġtra in
il a
nd ma
S ara
ĠJ ane
Ġclo se
a v
S he
Ġsm ell
S o
ab y
Ġam az
Ġho ld
Ġblock s
Ġwo nder
ĠTim my
Ġre pl
ĠA ll
Ġbutter f
Ġse es
Ġre ached
Ġwa ll
Ġp u
one y
r ed
Ġsl ow
Ġhelp ing
Ġd ri
Ġc ream
Ġc ool
Ġgl ad
a f
Ġa nt
Ġl ess
Ġbe en
Ġgood bye
Ġa c
Ġf ight
at her
M ia
Ġpus hed
ic ed
Ġfa ir
Ġmu st
Ġh ide
Ġmom ent
Ġwind ow
Ġ O
Ġs it
Ġball oon
Ġsn ow
Ġch ild
Ġexpl ore
ĠEvery one
Ġa r
Ġw ished
Ġb aby
Ġd one
Ġwa g
Ġst e
Ġbu y
Ġst uck
Ġper f
Ġth ank
Ġm ight
ic y
Ġnam e
iz ed
Ġtry ing
Ġb it
Ġcom ing
Ġb ar
Ġqu ick
Ġf all
Ġapp le
as h
Ġsc ary
Ġlook s
Ġbu ild
Ġdo ing
Ġw in
Ġunder st
a isy
Ġd in
Ġd ream
Ġdir ty
Ġhe ld
am es
Ġbook s
Ġm ar
I n
Ġbutterf ly
Ġle ft
Ġshout ed
Ġc ount
Ġrepl ied
av y
Ġre ach
Ġt iny
Ġthr ough
ot t
Ġd ro
Ġwh y
Ġa ir
Ġbr an
Ġla nd
ke y
Ġth ree
Ġpull ed
Ġsp l
Ġgr ow
Ġtre at
Ġbr other
Ġw ise
Ġwood s
Ġs ure
' re
Ġch air
i x
Ġm at
in s
Ġse en
Ġp ink
Ġcla pped
Ġpl ant
el y
Ġ owl
Ġcu p
ie ld
Ġsomet imes
and y
Ġf ill
Ġcl oud
as k
Ġsw am
out h
Ġj ob
Ġcolor ful
Ġremember ed
Ġbig ger
Ġne st
Ġm outh
p e
O kay
Ġless on
Ġjo in
Ġc re
p h
ĠThe re
ou p
ro om
ar t
Ġwa ved
udd y
Ġgra bbed
Ġstay ed
O h
Ġpain t
Th is
Ġcl ot
Ġcon t
Ġclot hes
Ġ ve
ow er
ĠA fter
Ġwa ited
Ġquick ly
c le
Ġwor d
Ġbro ke
uck y
Ġg ames
Ġc ast
Ġb lew
Ġg ent
ĠMom my
Ġenjoy ed
Ġnot iced
J o
ri es
at ion
Ġs et
Ġlike s
Ġpicture s
t on
d e
Ġse a
Ġhe avy
Ġmu s
Ġal one
Ġg if
as ure
Ġany thing
Ġsp ot
Ġm iss
Ġho pped
Ġwor ld
Ġturn s
or m
Ġy ear
d er
Ġb ott
Ġp at
Ġp ot
Ġp en
l c
H er
Ġm ix
Ġa rm
Ġb ike
Ġt ight
Ġevery where
Ġw on
L ucy
Ġtow er
Ġth rew
Ġhim self
Ġfollow ed
ĠB uddy
Ġr ide
m an
le ss
Ġj u
Ġj e
am p
B ob
ap e
Ġcom p
Ġke y
r ow
" .
Ġwh ite
ct or
Ġwr ong
ĠD aisy
Ġmake s
ĠWh at
Ġbre ak
Ġbl ack
are nt
e e
n er
S pot
D o
Ġde ep
th y
Ġmus ic
Ġpo l
Ġdel ic
ce ss
u ed
Ġforg ot
Ġbe e
Ġp arent
Ġcast le
ve s
o lly
Ġe m
i et
Ġwe ar
Ġh it
is ter
ou n
Ġqu iet
Ġr ound
an ce
Ġst u
Ġdanc ed
Ġv is
ull y
Ġwant s
Ġle af
Ġmon ster
Ġn ap
ĠJo hn
Ġunderst and
an g
Ġb owl
o s
r ot
re n
Ġb or
Ġtal ked
itt en
Ġd ry
Ġfast er
Ġcook ies
Ġbr ought
f ully
Ġle g
ro ss
Ġm um
z z
Ġs ide
t s
F rom
Ġs ign
ĠIn side
Ġsm art
c y
Ġrock s
Ġsome one
H is
Ġpo in
Ġse c
Ġsh aring
Ġfo x
Ġwe ll
Ġre s
Ġre l
Ġhapp en
Ġbut ton
Ġbran ch
ĠL ila
Ġre ally
Ġfin ished
en ce
ard s
Ġdin ner
Ġs ister
Ġfly ing
ed dy
Ġcont in
Ġwor ried
Ġe le
ĠT o
Ġvis it
ĠM aybe
Ġbe ach
Ġ que
Ġsec ret
Ġe l
ĠSara h
Ġk ing
Jo hn
g y
Ġto day
Ġperf ect
Ġri ver
Ġevery thing
Ġs illy
Ġsh in
ĠJo e
Ġdan ger
i pp
Ġchild ren
Ġg u
ĠSo on
Ġf ield
Ġfill ed
Ġf ur
Ġel se
Ġsmile s
Ġwe lc
ĠA t
Ġw ish
ĠE m
Wh ile
Ġsa ng
Ġg i
z e
Ġp udd
Ġsn ack
Ġeat ing
Ġreal ized
Ġpiece s
Ġprom ised
or d
Ġsp r
Ġp ig
Ġf ree
Ġcontin ued
Ġb ite
e ad
Ġparent s
Ġcare fully
at ed
Ġe ar
itt ing
J ust
Ġj ar
M aybe
Ġc ow
A my
Ġbl ank
Ġdra g
st ead
Ġor ange
Ġmu d
Ġcry ing
Ġblank et
Ġen ough
Ġroll ed
ck et
Ġs oup
Ġsa il
Ġp urp
im i
Ġy es
a le
Ġdr ink
Ġsn ake
se s
Ġb oun
Ġp et
Ġcra b
Ġlaug hing
Ġthr ow
Ġfair y
Ġword s
Ġamaz ing
Ġb ath
i ch
Ġpurp le
Ġ Z
Ġwith out
i re
Ġbott le
ĠB illy
Ġgif t
Ġgra ndma
F in
us ed
on s
Ġp ast
Ġm oney
i ver
f ort
Ġm ail
ĠG ra
Ġbar ked
Ġwag ged
Ġat t
ch ool
Ġmon key
Ġdo ctor
un ch
Ġbr own
Ġmo ved
is es
Ġask s
Ġget ting
Ġclos ed
Ġw he
Ġwelc ome
Ġs u
Ġc andy
Ġs chool
Ġmor ning
Ġown er
g g
Ġl on
Ġm other
Ġhig her
Ġs itting
Ġtre asure
. âĢĿ
Ġsm o
! âĢĿ
Ġdanger ous
Ġlon ely
ĠC h
Ġli ving
Ġapp les
us h
Ġsh op
as ed
Ġstr ange
ve l
Ġshin ing
Ġro ad
e re
ĠTom my
Ġcre at
un a
Ġpa w
Ġr a
e y
Ġsho es
Ġp re
Ġ -
i ble
Ġst re
Ġtal king
al thy
Ġc aught
Ġe gg
o l
Ġpa ss
m e
Ġl ake
Ġrun s
Ġb uck
Ġl etter
Ġw ings
Ġche e
f ish
Ġm ad
Ġf an
ask et
Ġb asket
a ss
Ġdrag on
a pp
Mom my
s et
ck s
Ġst one
Ġthink s
Ġst and
Ġdelic ious
Ġno se
Ġpudd le
Ġto m
ĠB l
ĠM imi
Ġbel ie
Ġfarm er
Ġsa me
Ġyear s
bo ard
Ġt eddy
Ġb at
is k
it ch
Ġm ine
Ġse ar
Ġco at
c hes
ig h
Ġday s
Ġbr ing
Ġgent le
Ġf it
Ġstar t
Ġfin ally
Ġwh ist
Ġcr ay
ig g
Ġsc ream
Ġk ite
Ġp ill
ph ant
ar m
Ġv ill
Ġch o
Ġsing ing
ell a
s w
in ed
Ġtast y
Ġp h
Ġb en
Ġtr ou
Ġshe ll
Ġher self
Ġhop ed
Ġan sw
Ġw ore
Ġsw ings
s y
Ġh or
Ġbel ong
P lease
Ġpus h
Ġbus h
isk ers
Ġcar rot
Ġar ri
aught y
Ġte ach
b ow
ra ct
Ġn aughty
Ġele phant
Ġdro pped
Ġsh ap
i er
Ġco ll
s c
Ġte ac
e my
Ġwo ke
b all
Ġp ile
Ġhid ing
Ġc our
is a
er ry
Ġto uc
Ġm in
Ġpu ppy
' ll
Ġsee m
ll ie
Ġtw ins
am a
Ġl unch
Ġb ow
Ġsa ck
Ġp ers
Ġcour se
Ġche ered
Ġshap es
ĠJ en
Ġgre w
f used
Ġro pe
Ġvill age
ir th
irth day
Ġju ice
i pped
Ġrain bow
Ġsp in
O K
Ġsh ook
J ack
Ġsp oon
Ġben ch
Ġstre et
Ġf ence
Ġcut e
ĠF red
Ġro b
Ġn ut
Ġchee se
Ġpr ob
Ġtouc hed
id ge
co l
Ġj oy
ĠWh iskers
Ġarri ved
Ġse ed
Ġwa r
Ġteac her
Ġc orn
G ood
Ġab le
Ġfore ver
Ġbe ll
Ġfe w
Ġcar ry
Ġmo st
Ġpl ane
ĠBl ue
le m
Ġe as
Ġsound s
ll a
Ġd es
Ġsp o
Ġprob lem
Ġb irthday
Ġin c
Ġp ower
um b
b r
Ġbug s
il k
Ġwonder ful
Ġdoll s
Ġbus y
at o
ir p
e b
Ġw ra
Ġprom ise
ĠTh ank
Ġfeel s
i an
ĠEm ma
et er
Ġbre ad
Ġne ck
Fin ally
Ġm ilk
Ġrob ot
Ġre c
Ġsh y
ount ain
Ġk iss
ir t
Ġhear t
Ġb and
Ġc ave
Ġpo cket
u b
Ġhelp ful
g ly
Ġslow ly
Ġbelie ve
Ġsh ake
ump y
e ared
Ġpat ient
Ġp op
Ġo b
ar p
Ġli ve
Ġstor m
Ġhold ing
Ġu gly
Ġtow ards
Ġup set
Ġt urt
Ġsh r
ad ow
Ġco ver
Ġk itten
o st
ĠR emy
Ġsh arp
Ġdis app
Ġstor ies
Ġs uc
Ġh oney
o ve
ĠB ella
re ad
Ġno ises
ĠL e
Ġc ir
Ġball s
Ġsp ark
Ġgr ay
Ġd ist
Ġdir t
og gy
Ġl ate
Ġdri ver
Ġse at
Ġbuck et
Ġme et
Ġyou ng
Ġamaz ed
Ġturt le
al m
Ġsp id
Ġtreat s
Ġmagic al
u nt
at or
Ġgl ow
Ġsee k
Ġz oom
Ġle m
Ġsand w
fort able
um ber
Ġtri p
Ġm ist
our n
Ġspl as
Ġm ark
Ġj ourn
Ġfo ld
Ġm ach
Ġpu zz
Ġpar t
l ing
Ġhor se
Ġor gan
Ġw ild
Ġprin cess
pp ing
oo se
Ġcook ie
S ure
en s
Ġhug s
ĠM ark
Ġt aking
un g
Ġwhe el
ep end
Ġcl oth
ĠL isa
Ġs ug
Ġin stead
Ġbu bb
Ġstr ing
Ġn et
Ġdro ve
il ing
Ġru de
Ġhug e
ĠJ im
Ġco in
Ġstar s
Ġfight ing
B e
Ġsp icy
Ġl ucky
O f
Ġcra w
He y
Ġb one
Ġin v
ĠGra ndma
or s
n ot
Ġc a
pp er
Ġfor get
u p
Ġd i
a ur
Ġsa l
ĠFin ally
Ġcan not
Ġwhist le
Ġc ard
Ġs ick
Ġp ath
Ġc ou
Ġspid er
Ġw ide
L ila
Ġfo ot
Ġsnow man
Ġli fe
Ġsong s
Ġpill ow
iz e
ul ar
ĠJ ust
L ater
e st
ĠA nn
er t
Ġfix ed
Ġgi ant
op h
ri ll
Ġno d
Ġbo ss
Ġla st
Ġcom es
Ġjo ke
Ġmo on
Ġtast e
d en
Ġmach ine
Ġgr umpy
Ġwa ve
Ġth in
Ġdri ve
Ġcar t
Ġas h
Ġs er
Ġgra b
Ġpe ace
l ower
Ġdad dy
Ġ On
ĠLe o
er y
Ġs el
Ġshe lf
Ġhid den
ere st
Ġs uddenly
Ġwas n
Ġwr ite
Ġland ed
Ġcon fused
Ġr ing
Ġch ange
Ġwor m
Ġint erest
Ġch ased
oo p
Ġfruit s
Ġs our
it y
Ġmy ster
Ġb ark
Ġr ad
Ġsmo oth
ĠC ome
Ġadventure s
Ġv al
Ġste pped
Ġf le
op e
Ġo ven
Ġtake s
Ġmiss ed
Ġsel fish
k in
Ġshe ep
Ġmess y
T o
Ġac ross
Ġ ent
Ġex p
t o
Ġc e
Ġl ater
ell y
Ġ N
if e
Ġstick s
Ġt ie
S t
e ver
ĠL una
Ġb ought
Ġst ep
Ġd rew
Ġte a
pec t
Ġb an
irp y
bo x
? âĢĿ
Ġwas h
Ġl ay
Ġp our
Ġbe ak
o se
Ġj og
Ġgr ate
Ġduck s
Ġsp e
Ġleg s
ug g
Ġf il
ĠB u
Ġem p
m er
Ġhop e
Ġemp ty
Ġsl id
Ġfe ather
Ġsleep y
Ġdr um
am ed
ar s
et h
Ġz oo
Ġp an
Ġph one
Ġgrate ful
Ġf ing
ion s
Ġlem on
le t
ĠC at
Ġcle ver
ĠM olly
Ġsmell y
Ġim ag
Ġspl ash
Ġinterest ing
ĠJ ill
Ġsa ve
Ġch ick
Ġc alm
Ġm ed
Ġwatch ing
S oon
iz zy
iz z
Ġpl ate
Ġ ign
y ard
Ġcloud s
Ġban an
Ġl ine
Ġface s
Ġb a
Ġa ct
Ġli ft
Ġth ough
Ġwo lf
Ġback yard
w el
Ġseem ed
Ġdog s
Ġspr ay
C ome
Ġpr ot
Ġwho le
Ġm ot
Ġfan cy
ĠDad dy
Ġque st
Ġarm s
Ġpuzz le
Ġhe althy
Ġsu pp
w ard
Ġfin ish
er ly
Ġal ong
ll o
Ġrock et
Ġexpl ain
d ge
Ġeas y
Ġje wel
on t
Ġp ract
Ġj elly
ĠCh irpy
Ġt id
Ġf ake
Ġcray ons
Ġwonder ed
Ġm aybe
Ġsc ar
Ġsh ip
Ġnot hing
one st
Ġem b
ig er
Ġp ool
Ġlong er
Ġany one
ĠB e
ĠJ erry
u ally
Ġfr ont
Ġwor king
Ġgive s
ir r
Ġp ack
Ġs uch
ĠB unny
o cked
m ent
Ġboss y
ĠD oggy
Ġtrou ble
Ġsmell ed
Ġsa ved
Ġp in
ra ss
Ġne igh
ar rass
it ing
Ġh onest
Ġa v
ar ge
Ġemb arrass
Ġv an
Ġforg ive
Ġtid y
Ġwe ak
ur se
Ġput s
un k
Ġk ick
Ġsh irt
ĠW ith
Ġm ind
ĠO llie
Ġneigh b
Ġplant s
Ġso l
ĠMom o
Ġgent ly
Ġco zy
or row
m ing
Ġexpl or
s p
Ġmist ake
Ġy og
o c
oom y
Ġpoin ted
Ġl ad
Ġa f
Ġst ood
or k
Ġon to
Ġjump ing
Ġwait ing
Ġprin ce
Ġc ross
Ġlo ck
Ġche er
Ġque en
ĠWh y
ĠM ary
Ġw ing
on es
w e
Ġl arge
Ġlove ly
ul t
Ġs ur
Ġre t
A nd
Ġde er
Ġche w
Ġcou ch
Ġb al
Ġst ret
aught er
er a
ĠThe ir
Ġplace s
ĠM y
Ġlad der
oo f
Ġret urn
ra id
Ġant s
Ġd ish
Ġaf raid
Ġclean ed
Ġtom orrow
Ġbuild ing
Ġsandw ich
Ġpers on
S ally
n ed
Ġpretend ed
Ġboun ce
Ġw ip
ge st
Ġmat ch
Ġri ch
u ce
Ġp izz
Ġg ather
Ġsear ch
Ġbor ing
om an
ĠS omet
Ġte eth
Ġh um
K itty
M y
ac ed
Ġd aughter
Ġw oman
Ġscar f
Ġgo es
ĠTo gether
Ġla w
Ġst ra
Ġswim ming
Ġfur ry
Ġsplas hed
Ġp ri
Ġlove s
Ġtr ue
Ġscream ed
Ġla zy
Ġg en
Ġansw er
Ġe ag
Ġn umber
Ġash amed
Ġpizz a
a w
Ġapp eared
Ġfe ar
Ġnear by
Ġpower ful
Ġfl ag
ĠS t
Ġha ng
v ous
Ġcl own
e k
Ġch ase
Ġmot or
Ġwa nd
ĠT V
Ġru b
Ġsuc cess
Ġcho col
ĠI f
Ġcreat ive
Ġtr ust
Ġwe aring
Ġno isy
Ġmat ter
p a
Ġd ig
Ġhe llo
Ġn er
Ġtoo l
Ġsa f
ĠB ird
ad o
Ġner vous
el p
Ġte st
Ġsm iling
Ġso ld
ic ked
o ppy
os aur
Ġcir cle
m b
Ġm ap
Ġdr ank
Ġcla ss
Ġtri es
Ġchocol ate
ĠP lease
Ġimp ress
Ġkne e
Ġgen er
Ġdin osaur
Ġpol ite
Ġm irr
ĠBob by
ĠT iny
Ġballoon s
Ġgo ld
Ġr are
Ġprot ect
Ġc and
St op
Ġcar ried
ĠG o
ens ive
Ġa p
Ġsh adow
Ġmirr or
ĠD on
Ġba ld
Ġg un
in a
Ġexp ensive
Ġre g
if f
Ġmyster ious
ĠS p
Ġp ump
Ġnot e
Ġher o
Ġmar ch
Ġh ar
ar l
Ġ icy
Ġres pect
Ġwe ird
Ġsn ee
Ġc ri
Ġg ate
Ġso ap
ra g
ut e
iss ors
Ġthe se
Ġpo or
Ġtow el
Ġwh ale
Ġfe et
Ġt ape
Ġd izzy
itt er
Ġgener ous
nd pa
Ġpre s
ĠBen ny
n ic
Ġdis co
H elp
vent ually
Ġpic nic
Ġm ic
Ġle ad
Ġs que
Ġembarrass ed
Ġjourn ey
Ġsug ar
is p
sc ape
Ġbo ot
Ġt ent
Ġpeace ful
Ġf at
ĠB ear
Ġsc issors
Ġtast ed
Ġyell ed
Tom my
Ġt ick
Ġm el
Ġbr ush
Ġdanc ing
n ess
Ġgl ue
Ġh ur
Ġcl ap
Ġr ough
Ġbr idge
ot e
Ġdec or
Ġclos et
Ġcr own
Ġst ir
u al
im p
Ġprin t
ĠSomet imes
ow ed
air s
ĠH ow
um e
Ġc ap
Ġl amp
Ġv ase
Ġsc are
le br
Ġrel ie
l ves
an y
Ġe ld
Ġte le
Ġce lebr
Ġg igg
Ġwh isp
Ġlo g
Ġsc o
Ġbl ow
Ġpain ted
ĠD ucky
Ġp ay
er ries
Ġw is
Ġb erries
Ġmix ed
Ġsp read
Ġwould n
Ġc age
Ġb ake
r ob
get able
Ġm ountain
Ġad m
Ġdraw ing
Ġbec ome
Ġfam ous
Ġbe an
Ġkn ocked
Ġn orm
Ġve getable
as p
Ġk icked
ust r
Ġsh ark
s er
Ġinc red
Ġlo se
Ġnorm al
Ġwra p
c ed
Ġgr oup
Ġth ick
Ġ 3
Ġf ine
Ġgl ass
Ġign or
Ġclo ck
Ġte am
Ġeld erly
Ġcle ar
Ġcorn er
Ġfr ustr
Ġmight y
rob e
Ġc one
Ġincred ible
ĠB r
ig hed
D ad
Ġmom s
Ġbal ance
Ġso ck
Ġsp ace
Ġj am
rag ile
Ġfr ight
Ġbran ches
Ġorgan ized
Ġro ar
p ort
Ġsw ord
al ous
ĠM ama
Ġgu ess
Ġf ool
Ġse ll
Ġfe ed
ĠS ome
Ġwh ich
Ġh orn
Ġpres ent
Ġje alous
Ġy arn
on y
Ġf ragile
Ġb urn
Ġunderst ood
Ġm is
Ġstu bb
Ġt er
Ġfrustr ated
W here
r ay
Ġho se
c ient
Ġsp ent
Ġsho e
Ġt aught
Ġstubb orn
Ġtw ist
Ġcreat ure
Ġche st
Ġspo iled
Ġrelie ved
Ġan cient
Ġwa ke
i que
Ġfi er
Ġpr ay
Ġfier ce
Ġegg s
Ġc ab
Ġter ri
Ġb arn
Ġpump kin
Ġcom fortable
Ġor d
y m
Ġfright ened
or ry
Ġto ug
Ġun ique
Ġme asure
Ġgo at
Ġwag on
Ġun us
Ġbre ath
Ġfool ish
Ġuse ful
Ġexplor ing
d le
Ġstra w
Ġunus ual
Ġd ug
Ġcl ay
Ġdisco ver
Ġtom ato
ĠP e
Ġde ad
Ġfind ing
Ġpol ice
Ġwr ote
Ġcl um
Ġex am
l ace
Ġwa ves
Ġsqu are
Ġhear s
Ġcab in
Ġtell s
Ġneck lace
Ġd ull
Ġclum sy
Ġtoug h
Ġbubb les
Ġno sy
k n
Ġsear ched
To gether
Ġwas hed
Ġbath room
Ġpaw s
bb y
o nd
un n
an ged
Ġbo ard
f ic
kn own
Ġas king
Ġcra zy
Ġthank ful
Ġsun f
Ġb itter
y al
Ġp ir
ber ry
al k
Ġ ind
Ġdif fic
Ġro se
c il
Ġsw an
Ġbl oom
Ġun known
ĠE lla
Ġcover ed
Ġdiffic ult
Ġa dd
Ġpen cil
Ġfing er
Ġha m
Ġh oop
Ġj et
Ġw itch
Ġdr op
M e
Ġ '
Ġchick en
Ġgl oomy
a pped
Ġlo yal
al s
He re
Ġwe althy
c om
l ight
Ġun l
Ġcat s
Ġend ing
Ġg uit
b led
sh ine
Ġdo ve
Ġjoin ed
Ġc her
an ut
Ġmo v
Ġterri ble
Ġyour s
i ant
Ġ U
ĠR ex
Ġsal ad
ĠAnd y
Ġnut s
Ġr at
g round
Ġt iger
Ġpot ato
Ġm ask
x ible
se lves
Ġval ue
Ġch anged
Ġmo ving
Ġexc iting
orm ous
ĠM any
Ġbo dy
ĠT r
Ġto ast
Ġrec ord
er p
Ġz ip
Ġche ap
Ġdis g
Ġguit ar
irst y
Ġknow ing
Ġadvent ur
Ġyour self
Ġen ormous
Ġhair y
E very
Ġsho ot
ĠBr own
Ġbor ed
Ġpe pper
Ġrem ind
or y
l and
Ġac orn
Ġadventur ous
Ġsun shine
Ġsmall er
Ġst uff
Ġhat s
Ġsol ve
ĠJim my
Ġfle xible
Ġco st
rill iant
Ġkn ife
Ġperf orm
Ġsnack s
Ġnod s
Ġsh ore
Ġb rilliant
Ġth irsty
Ġdelic ate
Ġfr own
Ġdisg ust
Ġcoll ect
Ġst ri
Ġseed s
Ġcount ed
Ġas leep
Ġbanan a
re en
Ġmail box
in ess
Ġd ough
Ġtri ck
Ġneighb or
ung le
Ġhe al
l ive
Wh o
Ġst age
id ent
Ġmark et
Ġcu be
Ġst at
Ġj ungle
Ġsque e
mb re
Ġexplain ed
at es
Ġu mbre
Ġdisgust ing
J im
f ted
Ġla b
Ġjo lly
Ġfl ash
u nd
Ġfr idge
in al
p id
il t
Ġcr ane
c orn
Ġs uit
Ġr h
id dle
Ġsunf lower
Ġt imes
ĠA l
Ġcat erp
Ġcaterp ill
Ġrel ax
Ġsh iver
Ġf our
Ġis land
ig inal
Ġh arm
ic t
ĠWh ile
y ing
Ġstu pid
Ġmed ic
ĠIn stead
Ġcom b
Ġg oose
Ġc ro
ed ient
ĠW ill
Ġsto ve
I f
A re
Ġind epend
M um
m ost
Ġspr ing
Ġg em
Ġbat ter
Ġs ighed
Ġvegetable s
Ġst ones
p es
Ġsh ine
H ow
Ġmedic ine
Ġd epend
Ġr ug
ĠYou r
Ġcare less
Ġor iginal
Ġst amp
Ġg ar
Ġc ries
In side
g u
Ġcarrot s
Ġsc r
Ġsuccess ful
Ġsa uce
Ġje ep
Ġpop corn
Ġme al
Ġob edient
Ġal most
Ġm iddle
Ġmag n
Ġstu dy
Ġindepend ent
Ġfear ful
Ġj ack
m et
ink y
S orry
ĠSam my
Ġe scape
Ġcaterpill ar
Ġser ious
Ġpe anut
Ġbed room
Ġeag er
ak en
Ġget s
Ġpar rot
Ġstat ue
Ġhel met
Ġpe bb
Ġ No
Ġf ountain
Ġan g
Ġra ven
Ġpast a
Ġumbre lla
Ġcomp et
The re
Ġjack et
Ġbelong ed
Ġde st
Ġfil thy
Ġdes ign
Ġbor row
Ġc am
er able
Ġhouse s
Ġpri ze
Ġh ay
Ġbra ce
Ġstand ing
Ġmis erable
Ġr aced
Ġt aken
ag es
Ġfor k
Ġcray on
Ġpain ting
i o
Ġtri ang
Ġimpress ive
Ġch oose
Ġf ig
Ġt ied
ia ble
Ġspot ted
Ġli fted
Ġsl ipped
our s
Ġt ank
Ġthought ful
Ġdepend able
Ġste al
Ġgar age
en ny
Ġbu ilt
Ġmu sh
Ġ er
ip e
Ġmo le
Ġcraw led
Ġsc ale
Ġboat s
Ġp ant
Ġp ian
Ġham mer
Ġbott om
l ph
Ġcheer ful
Ġus ing
Ġsmo ke
Ġpick s
Ġmo der
Ġshow s
ber ries
r n
Ġpian o
Ġmagn et
d ile
co dile
Ġhurt s
in ary
Ġre f
Ġcra ck
Ġen g
Ġa unt
Ġmel on
Ġwa ff
Ġmoder n
Ġdo lph
unn el
c ream
p ack
Ġt unnel
o in
Ġar row
Ġrel iable
Ġho pping
Ġmush room
Ġj ug
Tim my
Ġsqu ash
Ġg um
Ġs ink
Ġmov ie
Ġt ax
Ġfl ute
Ġbe et
Ġle an
The ir
i v
Ġpop ular
ic op
icop ter
Ġcry st
Ġon es
Ġs il
Ġcompet it
Ġhel icopter
as er
Ġneed s
ip op
ll ipop
Ġcro codile
Ġli z
M olly
Ġp ress
Ġtrou bled
Ġpig e
Ġlo cked
Ġtri cks
Ġlo llipop
Ġplay ful
Ġhum ble
Ġtax i
Ġkiss ed
Ġl ow
a ppy
com fortable
am ond
Ġr id
Ġun comfortable
h ost
Ġwa nder
at ch
Ġang el
ed y
c les
Ġgra ce
Ġto rn
Ġan x
Ġwra pped
Ġmu ff
Ġtw ig
Ġpant s
Ġdisapp oin
ĠS n
Ġhelp s
Ġdi amond
Ġcam era
at ter
ot o
Ġanx ious
Ġg host
Ġru ined
Ġte ars
c ident
ĠJen ny
il ty
Ġqu ar
a ff
ĠE ven
Ġf is
op l
Ġbel t
er opl
Ġen v
Ġgu ilty
Ġb ull
Ġa eropl
Ġhelp less
Ġhapp iness
Ġliz ard
Ġboy s
c ut
ex t
Ġc ere
Ġwalk s
ce an
Ġpass ed
Ġme ant
Ġo cean
Ġfl uffy
Ġw ire
Ġn ail
Ġbrace let
Ġde af
z ed
Ġstret ch
Ġca ct
Ġcand le
t t
Ġbeet le
Ġm op
Ġharm less
ump et
Ġord inary
Ġansw ered
Ġc op
Ġcoll ar
Ġbe es
Ġt ire
Ġsh ape
Ġquar rel
Ġrad io
Ġflash light
Ġcryst al
Ġhard er
Ġpour ed
Ġtr umpet
Ġeng ine
M ama
Ġpers ist
Ġh unt
Ġto oth
Ġcere al
Ġinv ited
Ġcomp ut
Ġt ag
Ġoff ice
Ġm elt
Ġsp ill
Ġch arm
co a
Ġl it
Ġsco ot
Ġc omet
Ġtriang le
ie f
Ġm ug
Ġre p
u be
Ġyog urt
Ġsp end
Ġcomp ass
Ġac cident
Ġsh ade
he tt
ag hett
aghett i
Ġdisappoin ted
Ġli cked
Ġcact us
Ġpa le
Ġc ush
Ġfig ure
Ġgi ving
Ġreg ular
Ġav oc
Ġpr o
Ġshe et
Ġwhisp ered
az e
ut h
ell ig
Ġcre ate
Ġbar ber
Ġint ellig
Ġp ipe
Ġro de
Ġr oof
J ane
Ġth read
it her
Ġlo ad
Ġv i
Ġli br
Ġgif ted
c col
Ġpract iced
Ġdel ight
ccol i
Ġhar sh
Ġp ow
Ġd ust
as ses
ĠTr ue
Ġb icy
az z
Ġsp aghetti
Ġcompass ion
Ġsa iled
ur key
u bby
Ġfor ward
Ġpersist ent
Ġspe ed
Ġm itten
Ġco coa
Ġen vel
Ġquest ions
Ġcomput er
Ġc oo
Ġfeather s
h ip
Ġgl ove
g ing
Bob o
Ġri ce
Ġshr imp
Ġdes k
Ġst ream
Ġin se
Ġpige on
Ġcharm ing
Ġear s
Ġcar p
lc an
Ġra ft
Ġenv ious
Ġkn ot
Ġt urkey
Ġstrong er
om es
Ġco ins
Ġt ap
lcan o
we et
Ġtra p
umb ers
Ġaeropl ane
Ġtr unk
Ġwhe at
Ġbox es
Ġch ubby
Ġcarp et
Ġrest less
Ġintellig ent
Ġt ube
Ġsp un
Ġdream s
Ġfriends hip
ul if
ol in
Ġha lf
Ġloo p
Ġcraw l
Ġbro ccoli
Ġon ion
Ġdel iver
an ger
Ġac ce
Ġv ide
Ġvo lcano
ĠJ ake
Ġs le
Ġtra ck
Ġb ri
Ġca ulif
Ġv ine
y e
Ġtick et
Ġth ief
ess ie
cy cle
Ġloud er
Ġinse ct
Ġn umbers
as ing
Ġy aw
Ġhair cut
it al
Ġsleep ing
Ġm ill
Ġal ert
Ġe ventually
Ġexc ite
Ġpebb le
Ġho sp
Ġatt ract
Ġplan et
ĠTo day
Ġun iver
is ted
ul u
Ġer aser
Ġhosp ital
Ġreturn ed
Ġdest ro
Ġgrace ful
Ġhappen ing
ac he
ĠO K
ĠEm ily
Ġdec ide
Ġlearn ing
Ġsc reen
rew ork
Ġnice ly
Ġle op
Ġcaulif lower
Ġcompetit ive
Ġpo em
Ġcelebr ate
Ġc urt
Ġpe ach
Ġsold ier
Ġsa us
Ġpar ade
at ient
Ġattract ive
Ġcurt ain
Ġb ase
Ġdolph in
Ġvi olin
Ġway s
G o
at s
Ġtra vel
t en
Ġro d
Ġignor ant
ul b
Ġwheel s
Ġy ach
Ġsc atter
Ġd eter
Ġcompassion ate
Ġbar rel
Ġenvel ope
Ġbubb le
Ġl ying
Ġfi rework
Ġsor t
Ġquest ion
z zy
ĠP ipp
Ġscoot er
Ġdeter m
Ġr ag
Ġth u
Ġbicy cle
el ery
Ġneed le
ĠF r
Ġju dge
Ġb ulb
Ġleop ard
Ġte m
Ġyach t
Ġp ony
Ġcri cket
Ġor der
Ġh omes
Ġad or
ter n
Ġtr uth
Ġh ook
d om
Ġru bbed
et e
ig ator
Ġbus hes
Sara h
Ġun cle
Ġcush ion
Ġsp ell
Ġgr own
Ġcoo ked
Ġador able
Ġch alk
Ġso ar
Ġp urse
Ġsk in
Ġthem selves
Ġimp atient
Ġc elery
Ġtr ay
Ġshell s
Ġpen gu
Ġsn iff
Ġpr un
Ġwall s
Ġse al
Ġlive ly
Ġc ase
Ġall igator
Ġdist ant
Ġrad ish
Ġsay ing
Ġspe ak
Ġmotor cycle
Ġme at
Ġs end
ill a
Ġspin ning
Ġfor th
Ġcount ing
Ġent h
Ġboun ced
Ġch ain
Ġ ed
Ġclean ing
eb ra
Ġfil m
Ġsle pt
Ġp it
Ġsur f
Ġmar ry
us ia
Ġwall et
Ġenth usia
Ġmet al
ur b
eb ook
Ġb in
Ġwe ek
Ġnot ebook
Ġsk ip
Ġwip ed
is ion
ch air
Ġbig gest
Ġimp ro
Ġavoc ado
Ġbeh ave
Ġdestro y
v ator
Ġband age
Ġlaugh s
Ġste ak
Ġpat tern
ĠS h
Ġpo st
Ġele vator
ĠBu zz
us ie
Ġd ive
Ġsh ut
Ġsk ipped
Ġunl ock
Ġdi ary
de st
j ect
Ġz ebra
Ġbag s
at ing
Ġarm chair
ag ed
ra ge
Ġdist urb
Ġo y
Ġpo le
Ġshow ing
Ġcl ub
Ġgather ed
Ġn urse
b ul
Ġear th
Ġen c
Ġstr anger
Ġswe ater
Ġjelly fish
Ġsc rew
Ġtem p
ĠP oppy
Ġcom pl
Ġmix er
G ive
Ġsk ull
Ġl ime
Ġb ump
bul ance
Ġam bulance
n am
Ġf ather
Ġjourn al
G ra
Ġloud ly
it o
Ġfold er
ĠB et
Ġsh ield
ĠL ulu
ĠP eter
Ġlibr ary
Ġbutton s
Ġplay ground
Ġtruck s
Ġin k
Ġlight s
Ġt ummy
Ġpoin ting
Ġc ity
Ġdecor ate
Ġst ation
ir it
Ġpre p
Ġfall s
qu ito
ĠP olly
B illy
Ġf u
ĠF o
ent ion
n ger
ĠBird y
l ies
Ġher b
Ġor nam
Ġornam ent
Ġmo dest
Ġgu ard
Ġmo s
Ġknow s
Ġc ord
Ġpol ish
Ġmar ble
ob y
Ġmos quito
umb led
Ġsal t
Ġatt ic
Ġve st
Ġwhen ever
ct op
Ġres c
Ġy et
Ġp le
Ġdisapp eared
ce ed
Ġstraw berry
Ġon ce
ĠM um
Ġk ay
Ġbrother s
Ġit ch
Ġpir ate
Ġfoot ball
Ġspl it
ke le
kele ton
Ġh ipp
Ġa ut
Ġl ed
ur ing
ctop us
Ġdri ving
Ġc able
Ġsupp ort
Ġcall ing
Ġcup board
ak y
us hed
Ġwis hes
Ġcomp let
Ġtri pped
Ġro ot
Ġkay ak
Ġo ctopus
ob ile
Ġa dded
Ġed ge
Ġm ild
st ic
Ġdeterm ined
Ġsuc ceed
?" .
Ġread ing
Ġco al
om obile
W ell
g l
ut es
p ar
Ġsug gest
Ġst ack
Ġthu nder
Ġkind ness
Ġaut omobile
Ġcompl ain
Ġenthusia stic
Ġsnee ze
Ġcart oon
Ġyog a
ĠL ittle
Ġgr owl
ht ub
Ġfle a
l a
Ġme adow
Ġdraw er
Ġbat htub
Ġri bb
oph one
Ġha ll
Ġgo lf
Ġmean s
Ġs keleton
Ġm ath
Ġve il
Ġhunt er
Ġg or
Ġfl ame
Ġpo ke
Ġvide o
Ġche ss
Ġcup s
Ġtr oph
Ġglow ing
Ġmat t
Ġoy ster
w ork
Ġpen ny
Ġsp ear
Ġit self
Ġdraw ings
Ġhipp o
Ġrep air
Ġsw itch
gl asses
Ġsun glasses
Ġtele ph
Ġcost ume
Ġd ess
Ġz ipp
, âĢĿ
Ġre pe
Ġmuff in
Ġar g
Ġpast ry
Ġp un
Ġroll ing
Ġmin utes
Ġpa cked
Ġmake up
ir on
ri c
ĠPe ople
Ġwaff le
c ase
Ġhand le
Ġpe ar
Ġm aze
Ġteleph one
Ġp ine
a it
Ġg ear
Ġhe dge
Ġmatt ress
Ġpack age
a ving
ĠM iss
Ġsho cked
in es
Ġtroph y
Ġpow der
Ġkn ight
Ġc ob
Ġmiss ile
Ġfr ame
Ġman aged
Ġenc ou
Ġw ife
Ġo k
Ġse par
w eb
Ġst airs
Ġr ot
Ġc amp
ur ch
r ophone
Ġmag az
Ġcol our
Ġstr ugg
Ġgra pes
t ime
Ġf ile
he ad
ĠT ina
Ġbasket ball
B ye
o ld
p er
Ġcob web
R e
Jim my
ĠT weet
S ee
Ġper m
Ġw ool
ĠD an
Ġmic rophone
es day
Ġey e
Ġle ash
Ġg asp
ie w
ke ep
Ġwe ep
Ġbark ing
at ure
Ġsaf ely
Ġte ar
Ġv iew
f fe
Ġslid es
Ġstep s
ist ol
ffe e
Ġbanan as
Ġst aff
Ġsp irit
Ġt ask
Ġgigg led
Ġho c
Ġhoc key
Ġve nd
Ġth ose
Ġgor illa
J ill
Ġcool er
ĠR ose
w as
c ing
Ġear ly
Ġmar ched
ro sc
Ġmin t
ĠL ook
was her
Ġfl our
Ġhot el
h ic
Ġsail or
Ġdess ert
Ġph oto
rosc ope
Ġve hic
il ot
Ġof ten
Ġch urch
ĠP ete
Ġcook ing
Ġrem ain
Ġf ive
Ġsaus age
ot ter
Ġt en
Ġtool s
Ġmed al
Ġe ither
Ġfire man
ch or
Ġgra ndpa
Ġ otter
Ġbase ball
Ġpretend ing
Ġp istol
Ġdish washer
Ġre ver
Ġorgan ize
Ġpe e
Ġvend or
Ġkn ock
Ġs ight
Ġg rill
Ġtemp le
Ġbatter y
Ġthin king
Ġopen s
Ġ ow
Ġreal ised
Ġ iron
Ġla ser
Ġsn e
Ġo il
Ġsand box
Ġpat ch
Ġh ours
Ġr ise
Ġwh ip
' d
ctor y
ĠG ive
Ġan chor
Ġtra sh
en se
Ġsh ort
n ey
ĠBet ty
Ġrh in
Ġfa ctory
se um
Ġm ay
Ġwar d
at ely
Ġcard board
ug ged
Ġlot ion
A l
Ġmess age
Ġval u
Ġward robe
Ġc ell
Ġmu seum
ap ers
Ġu r
in ation
Ġhang ing
uc et
ail able
ĠS unny
ĠZ oom
Ġh ive
e er
Ġtow ers
keep er
Ġblack board
Ġme m
Ġexcite ment
Ġco ffee
Ġp ilot
re ady
F luffy
Ġnap kin
Ġpengu in
r on
Ġche ck
Ġre ward
l oo
Ġqu it
ĠPipp in
Ġcan e
Ġpick ing
pl ace
ĠSn ow
az or
Ġ ig
Ġfa ucet
Ġpass port
ĠR ob
Ġst umbled
Ġdream ed
ĠB essie
Ġig loo
ar oo
ang aroo
Ġfree z
Ġju icy
Ġall owed
pl ay
Ġhold s
Ġal ready
Ġav ailable
Ġset t
Ġbat he
Ġtorn ado
im ney
Ġfing ers
ht ray
Ġha nger
Ġnew sp
Ġs ize
Ġla und
Ġl end
Ġch imney
Ġlaund ry
Ġo ak
Ġfis her
Ġk angaroo
Ġm en
ĠEvery where
Ġtell ing
E m
Ġno vel
bo dy
Ġm ummy
Ġp al
Ġmu le
Ġcher ries
Ġnot ice
Ġpract ice
Ġspill ed
Ġre ind
Ġcomplet e
Ġenjoy ing
Ġmic roscope
ar ian
Ġg ain
amp oo
Ġsu b
Ġfire place
Ġimag ine
and a
Ġdis play
oc er
ĠZ ip
Ġfast est
Ġmagaz ine
Ġhur ry
Ġcabin et
Ġshr ink
Ġas htray
W ait
Ġcow s
ĠSp ike
Jo e
g en
Ġpal ace
Ġimpro ve
ac hes
Ġr ake
Ġreind eer
Ġfall ing
ocer os
Ġsk irt
ur ed
Ġdiscover ed
Ġstar ed
Ġro ared
a id
Ġsil ver
Ġt ub
Ġtra il
I s
Ġmin er
c ome
Ġb ill
Ġf og
ict ion
Ġa x
st airs
Ġh ut
ile t
Ġhapp ier
Ġtall er
iction ary
Ġo ats
Ġfisher man
Ġob ject
Ġp or
v ision
Ġvalu able
Ġsh ampoo
Ġho les
Ġoff ered
Ġboot s
Ġrhin oceros
Ġnam es
Ġto ilet
Ġclimb ing
Ġbl in
v ice
O w
Ġstret ched
ie st
Ġzipp er
Ġlisten ing
Ġbath robe
Ġs ym
ale nd
Ġjewel ry
ĠHe re
Ġjoke s
Ġtele vision
Ġpro v
Ġc alend
Ġstop s
Ġax e
Ġjump s
Ġfu el
c u
Ġspark ly
Ġperf ume
ĠS usie
Ġbu ry
bo l
M ummy
l u
Ġpress ed
ĠK im
ree k
Ġre ce
f a
ĠT oby
Ġne at
Ġc reek
Ġpo pped
Ġop era
Ġcalend ar
Ġsn ap
Ġatt ach
Ġgasp ed
Ġsym bol
Ġt una
ĠM ar
Ġp apers
M r
Ġun pack
Ġres ist
Ġd ictionary
Ġsub way
Ġletter s
Ġfreez er
Ġcho se
Ġpin ch
z ag
Ġspo ke
Ġany way
Ġsu per
Ġhelp er
Ġpor ch
af fe
Ġbike s
Ġli e
ar ry
ic hes
Ġtight ly
Ġcom fort
Ġsh aking
Ġbook case
Ġs on
Ġr azor
aur ant
ĠA re
Ġsandw iches
ig zag
Ġwe igh
Ġagain st
Ġstick ers
Ġrest aurant
Ġnewsp aper
Ġbl ouse
Ġvehic le
Ġswing ing
Ġp ed
Ġdis ag
Ġn ature
Ġsquirrel s
Ġbelong s
iv al
Ġswam p
Ġbutterf lies
Ġg ym
d el
Ġinc lu
Ġgrow ing
Ġbuck le
om ed
Ġstir red
Ġmust ache
Ġbill board
x y
Ġbe ep
t e
Ġal arm
Ġli p
Ġfe st
Ġlight ning
Ġhun g
ut or
Ġdist ance
og n
Ġc ards
Ġob ser
Ġag ree
L ittle
Ġex t
Ġte ase
Ġrec ogn
Ġrub ber
i k
Ġhat e
f ast
e f
O uch
Ġdoes n
Ġmusic ian
Ġad vice
Ġbee f
Ġser ve
asp oon
Ġsweet ie
Ġmo del
l ter
Ġcri b
Ġblue berries
Ġso fa
Ġcir cles
Ġbreak fast
Ġt utor
as is
Ġbooks he
Ġgir affe
st ri
Ġfest ival
Ġsepar ate
Ġshe lter
Ġg as
Ġair port
Ġo live
Ġr ail
Ġbookshe lf
Ġfrog s
Ġte aspoon
Ġrever se
Ġj unk
Ġrid ing
Ġple ased
Ġdra in
ĠMr s
Ġwip e
Ġo asis
Ġso il
Ġa head
Ġresc ue
Ġle aving
um mer
Ġpain ter
Ġch ance
Ġsquee ze
Ġkn ob
Ġpo ked
ĠT eddy
Ġpee ked
Ġl umber
Ġtrain s
Ġext ra
Ġsl ipp
Ġqu iz
Ġre fused
re s
rm omet
Ġp age
Ġru les
Ġhappen s
Ġin s
Ġsound ed
Ġpoin t
Ġwin ter
Ġdanc er
ĠGra ndpa
Ġbird c
Ġdisapp ear
rmomet er
ĠDo lly
Ġwe ather
Ġwas te
Ġli c
Ġbirdc age
Ġthe ater
Ġre ef
Ġcarry ing
D aisy
Ġinv ite
if orm
Ġgo al
Ġo stri
Ġsw ung
Ġun iform
Ġtr ade
Ġcl iff
i ence
Ġlaw n
ĠP andy
ol a
Ġlean ed
ang u
Ġacce pt
Ġadm ire
Ġfor t
Ġaccident ally
Ġpast el
bb les
Ġst om
Ġl angu
Ġtw ir
Ġs uff
Ġp anda
Ġb et
r iger
riger ator
Ġpe ek
re nder
Ġblin ked
Ġstar ts
n a
Ġref rigerator
Ġany where
!" .
Ġimag ined
Ġdream ing
Ġrem ove
n ight
Ġshow er
ĠL ee
ĠC o
Ġce iling
Ġclass room
Ġcar ing
i um
Ġgra nd
Ġmiss ing
a ked
Ġlic ense
Ġst able
Ġmonkey s
Ġthe rmometer
ast ic
Ġwar ned
ĠW here
Ġs ummer
Ġab ove
Ġbri ck
ec ted
Ġc udd
Ġproblem s
am ber
Ġch asing
Ġlab el
Ġap ron
Ġs ent
it ure
Ġlaw y
urn iture
Ġl id
ugg age
m ed
Ġrespect ful
Ġf urniture
Ġfrown ed
Ġzoom ed
Ġp ages
Ġpre vent
Ġb ent
Ġl uggage
Ġmistake s
Ġsun set
Ġostri ch
is on
Ġsuggest ed
Ġwindow s
ation s
Ġj ail
l ow
Ġw ine
Ġribb on
Ġold er
Ġshout s
Ġgra pe
ĠC l
Ġw igg
uc ture
Ġstr ucture
Ġspo il
e or
Ġfix ing
Ġch amber
Ġlion s
Ġdel ay
Ġfind s
Ġhand ed
Ġsearch ing
Ġun ite
D id
Ġf ought
Ġlawy er
Ġbright ly
Ġpa ir
Ġmeet ing
Ġcho ice
Ġsurpr ises
ĠE llie
Ġar t
ĠU n
C h
Ġfav our
eter in
ad ium
eterin arian
Ġst adium
Ġproud ly
ik i
Ġv eterinarian
v et
ro d
Ġchair s
Ġsl ip
ĠS pe
Ġsad ly
ĠB ow
Ġinc re
ĠC arl
Ġpudd les
Ġb erry
Ġint rod
Ġran ch
ve al
ĠB oun
Ġarg ue
Ġ V
Ġadm ired
Ġc ur
Ġfavour ite
You r
Ġin f
Ġexcited ly
Ġr ac
Ġgrab s
m end
Ġste am
th ank
Ġhum an
eor ge
s ity
ĠHe l
Ġpus hing
Ġsa ving
ĠR ed
Ġre veal
Ġy ield
all ey
om mend
ol og
Ġm all
Ġremind ed
Ġrec ommend
Ġle ak
Ġsur render
Ġhar b
Ġapp l
cu ss
a ul
Ġwe ap
Ġreg ret
Ġput ting
Ġv alley
Ġminer al
Ġeven ing
Ġforg ave
Ġmat ches
el come
Ġsnee zed
Ġa w
Ġpu p
Ġr ushed
ec ause
Ġsp ade
Ġap olog
Ġpl ates
Ġdis cuss
Ġprep are
Ġharb or
Ġign ore
ĠB ig
Ġcount ry
Ġlangu age
ĠBu zzy
Ġpull s
Ġpl astic
Ġsupp ly
Ġflo at
Ġsniff ed
ĠJ azz
Ġrepl ace
Ġme as
Ġsho vel
ĠB ill
Ġra ise
ĠN ext
Ġf re
Ġcar ed
Ġso cks
Ġstri p
Ġdoor s
Ġmyster y
Ġli ves
Ġrest ore
Ġstick er
Ġs udden
ar i
Ġkind s
Ġslipp ery
er o
ĠO w
Ġplay er
Ġpan ic
Ġhop ing
ric ane
id ay
Ġsh one
le x
her o
Ġbe g
ĠM ike
ĠB inky
Ġsuper hero
Ġdelight ed
Ġg ro
Y ay
au d
ch an
Ġchick ens
Ġshould er
Ġrain ed
Ġcolour ful
Ġbre at
ĠAl ice
Ġcla w
ĠBu bbles
Y uck
Ġsoft ly
r ise
Ġp ort
Ġho l
Gra ndma
ic er
Ġhol iday
Ġ âĢ
Ġbark s
as on
Ġthrow ing
Ġplan es
M ary
Ġbe nd
ĠFred dy
Ġshake s
Ġend ed
Ġinf ant
Ġshiver ing
Ġkne el
Ġsun rise
Ġpus hes
ĠO live
Ġthank s
Ġfre sh
Ġsuff er
Ġpoin ts
im ed
w ards
ĠP at
Ġt ip
ĠSpe edy
Ġfree ze
Ġkeep ing
ĠW ould
Ġco pper
Ġgigg le
Ġsmell s
Ġde ar
Ġent er
Ġprov ide
c ast
chan ic
Ġdis hes
ĠE nd
co nd
Ġun h
N ext
Ġappl aud
Ġhead s
Ġhur ricane
Ġcher ry
Ġm ass
Ġth umb
Ġme owed
Ġmen u
Ġse cond
Ġbright er
in ce
Ġsand cast
Ġme chanic
Ġw re
Ġspray ed
Ġe vent
Ġlet ting
Ġweap on
Ġlaug ht
Ġ x
Ġlaught er
Ġcla pping
Ġfeel ings
W ill
ick y
Ġsplas hing
em ent
ĠO r
ac ked
Ġcast les
ĠF l
c er
Ġsc ore
app ing
Ġuniver se
Ġn avy
Ġd em
Ġstick y
oph ie
Ġr ow
Ġroom s
Ġfl ies
ig i
ĠD ave
Ġunh appy
Ġgre edy
Ġd are
Ġal ive
Ġbreak s
Ġen er
Ġcou rage
Ġinv it
Re ady
Ġrepe at
Ġdem and
Ġtrust ed
L isa
Ġsome where
arl ie
Ġprun e
b les
Ġwre ck
Ġ Y
Ġsk ill
Ġexam ine
Ġpar ts
y ear
Ġeat en
o e
A ll
er c
en ry
Ġm ention
Ġrain ing
ĠHel p
B uddy
Ġthrow s
Ġjog ged
que st
Ġstar ting
Ġr ush
Ġpo ison
Ġpir ates
he art
Ġv ac
Ġcont ent
Em ma
ĠK iki
Ġs igh
Ġfl apped
Ġdrop s
Ġch irp
Ġsp ort
Q u
Ġspark led
ĠZ oomy
Ġgi ven
Ġstre ng
Ġste el
A nn
Ġbump ed
Ġyaw ned
Ġstu d
Ġre quest
Ġsco ld
Ġmy self
Ġstreng th
Ġshr ugged
M ark
Ġcoat s
Ġpun ish
Ġe qu
Ġsn ugg
Ġuniver sity
Ġpa id
ĠJohn ny
Ġpig s
Ġscr atch
Ġto e
Ġex erc
Ġtra cks
Ġup stairs
Ġpray ed
Ġcross ed
Ġsquee zed
Ġfl ood
Ġimpress ed
Ġboun cing
ĠR u
Al ice
Ġrabbit s
g es
Ġbad ly
. .
Ġle ather
Ġwar n
Ġex pect
Ġnew s
Ġt ide
ĠT ed
Ġmin ute
Ġbear s
Ġclaw s
Ġbu zz
Ġsweet heart
ĠS m
y th
Ġn ation
S h
yth m
Ġhis t
Ġvac ation
Ġhe at
Ġstraw berries
Ġobser ve
Ġexplor ed
Ġsett le
Ġsandcast le
Ġyaw n
Ġhist ory
ĠL illy
ĠL ola
m are
ĠM ummy
ĠS que
i ally
in king
Ġbelie ved
Ġhor ses
Dad dy
ĠH oppy
Ġche cked
ĠM andy
Ġto ur
Ġnet work
Ġchee k
ĠU nder
Ġoff er
Ġeas ily
Ġpl aced
s pec
Ġspot s
Ġsnow ball
we en
m en
Ġener gy
ĠB ee
Ġimag ination
Ġblue berry
ott en
Ġbet ween
spec ially
ĠG igi
iz es
Ġd aisy
Ġwa ving
ree ze
re at
Ġv room
Ġso ak
Ġsaf ari
Ġrh ythm
Ġmass age
Ġstom ach
Ġb aking
qu ake
Ġnight mare
Ġins isted
Ġblow ing
Ġent ered
Be fore
Ġst air
Ġp alm
Ġbeaut y
Ġtw isted
Ġb other
Ġwr iting
Ġsc oop
Ġprun es
Ġbra in
Ġ ing
ip ment
Ġpo ppy
Ġhill s
n oon
Ġafter noon
Ġe specially
Ġequ ipment
he st
Ġs ir
Ġp ad
ĠS ee
Ġing red
Ġcall s
ĠFo x
Ġingred ient
Ġearth quake
Ġignor ed
ĠSnow y
Ġburn ed
Ġno body
m ble
Ġst y
ap a
Ġse w
Ġt ug
is ty
Ġhear ts
xy gen
Ġle ar
Ġlear nt
Ġlemon ade
Ġincre ase
ill ie
J enny
Ġg az
Ġback pack
Ġmail man
Ġwhist led
Ġped al
ĠS k
F red
Ġshop keeper
ff ic
Ġperm it
Ġtre mble
Ġy ucky
ang es
Ġmove s
Ġintrod uce
Ġlem ons
Ġcra sh
Ġbean s
Ġflo ated
ed n
edn esday
itten s
W elcome
Ġplan ned
Ġstri ke
Ġtra ffic
Ġinclu de
Ġsl ap
ĠL ucky
Ġrac ing
res ses
Ġwis dom
Ġp ur
Ġwag s
ĠFin ny
la imed
ĠG eorge
Ġl uck
Ġfollow ing
Ġpri ce
ec ting
Ġm ama
Ġp itch
Ġbel ow
ĠE lly
ĠH ave
L e
Ġwe ight
Ġexc laimed
h ouse
Ġbu ried
Ġcom f
Ġfollow s
Ġrecogn ize
Ġingredient s
Ġf urt
t ain
Ġcand les
M imi
Ġmar bles
ri age
und ay
em ember
er ation
ĠA lex
Ġap art
ĠW ednesday
Ġgrowl ed
uc t
ĠS u
ore s
Ġcon f
Ġhop es
Ġteach ing
Ġfold ed
Ġclose ly
ĠFin n
ĠWh o
Ġhe el
ĠS unday
Ġencou rage
ĠP aul
ĠOw l
Ġz igzag
Ġpull ing
Ġd igg
Ġboun cy
Ġfurt her
Ġchew ed
Ġdigg ing
Ġwin ning
W ith
W oof
Ġd resses
Ġim age
re c
c ery
Ġshout ing
Ġgro cery
Ġtw isty
Ġpeanut s
Ġpuzz les
bb ing
ĠD og
l ook
Ġscr at
Ġch ores
Ġwhisp er
ĠI s
Ġsp ike
ĠFr oggy
Ġc ape
Ġsn ail
Ġacorn s
Ġworm s
h ood
Ġdeep er
Ġur ge
if i
Ġexp er
ĠWhen ever
ĠT illy
ĠSque aky
ĠGra ce
Ġplan ted
Ġatt ention
ec ture
Ġexerc ise
ĠDan ny
Ġcu b
Ġop eration
Ġunder ground
Ġh on
Ġag re
Ġqu ite
Ġcreature s
Ġs imp
Every one
Ġstrugg le
or al
ĠM ittens
dd y
Ġbl ood
Ġl ecture
Ġwas hing
Ġhurt ing
Ġgif ts
Ġvan ished
Ġdress ed
Ġinvit ation
Ġsol ved
Ġli cks
ĠSh aring
Ġsnugg led
i ppy
Ġb le
Ġmar riage
Ġquiet ly
g ie
Ġwar ning
Ġj azz
Ġbreat he
rec i
Ġelephant s
Ġs izes
Ġd ried
Ġfall en
Ġland scape
or ies
Ġspr ink
Ġneighb our
Ġm ice
u esday
Ġapp reci
ĠS ophie
ĠJoe y
ĠâĢ ĵ
Ġeag erly
Ġsail ing
ĠCo co
Ġpa used
ip s
Ġcount er
ĠG ood
ĠBoun ce
ĠP enny
Ġwor th
look ing
ĠR ock
Ġo xygen
B ecause
Ġre lease
Ġshin ed
N ot
p ted
Ġre aches
Ġbal an
ĠZ ara
Ġo h
is ses
Ġk isses
Ġsty le
Ġbri cks
Ġplay s
Ġgl o
ĠT uesday
Ġide as
s ed
Ġin st
Ġw ob
Ġfirework s
B ella
igg ly
uc ked
Ġsee ing
Ġfl ap
op s
Ġacce pted
r ight
ĠP ip
Ġbl ink
To day
m m
ĠR os
Ġtre mb
The se
Ġmu ddy
Ġmem ory
Ġmar ried
Ġtomato es
Ġex it
ĠAnn ie
Ġwag ging
Ġfa sh
R emy
ĠCh arlie
Ġwander ed
un ately
ipp ing
Ġglo ves
Ġcap tain
Ġpillow s
Ġrece ive
Ġres p
ĠP inky
ra ged
Ġd uring
ĠEvery thing
et ch
Ġwe b
Ġpet als
Ġwater ed
ĠE ventually
Ġs i
i ved
Ġman age
Ġbr ings
Ġpin ched
Ġcake s
Ġvan ish
Ġfash ion
ĠBlue y
Ġprin ter
Ġdestroy ed
Ġtreasure s
n ce
Ġall ow
up s
Ġhad n
Ġwor se
ĠF ifi
S urpr
Ġve l
Ġhit s
Ġb ur
x u
Ġvel vet
Ġapp ear
Ġdisag ree
d o
Ġcatch ing
ĠR o
Ġscatter ed
Ġmem ories
Ġsor ts
ĠP apa
Ġher s
Ġscold ed
Ġsign s
Ġpe ars
Ġor anges
Ġb ones
Ġran g
Ġsit s
Ġseat s
Ġsn apped
Ġgaz ed
u xu
Ġra ised
B l
ĠMar ia
Ġz ipped
Ġp ies
Ġprin ts
Ġsh ot
Ġslid ing
ĠGo d
Ġfr o
Ġeas ier
ss ible
Ġskill s
Ġclimb s
Ġtwir led
c cer
Ġblanket s
Ġforg otten
Ġba ked
e ster
Y um
Ġdiffere nce
ester day
or ted
Ġl uxu
Ġgold en
is ing
ĠT w
Ġk itty
Ġcut ting
Ġse ason
ag gie
Ġnow here
Ġcr ow
a h
Ġso ccer
Ġd ared
Ġbit es
ĠH enry
ĠH arry
an ny
Ġl ung
Ġcelebr ated
ch oo
ch ie
Ġstra ight
Ġunl ocked
st ers
Ġsor ting
Ġcoll ected
Ġble ed
ap ed
d ing
Ġwelc omed
Ġvis ited
Ġspoon s
Ġour s
Ġst itch
Ġjog ging
Surpr ise
med i
Ġem er
ĠSp ark
medi ately
Ġis n
Ġto ng
Ġtra ve
Ġwin ner
um ble
Ġru in
Ġs ince
Ġpret t
O k
M oral
ĠT ony
Ġatt ached
Ġweep ing
Ġmarch ing
Ġluxu ry
Ġsimp le
ĠE ach
Ġshould n
Ġguess ed
Ġz ero
Ġcre ated
Ġstuff ed
Ġpet s
ct ion
Ġwa ist
Ġfam il
Ġur ged
Ġbow ed
Ġsell ing
Ġflo ating
r r
ĠSm ith
Ġby e
ĠK ing
Ġv ict
Ġking dom
Ġolive s
Ġkick ing
ĠW iggly
Ġpun ished
ĠL iz
ĠB aby
s it
Ġto es
Ġgr ant
Ġmus cles
Ġjewel s
ĠRos ie
Ġbed s
Ġmel ted
Good bye
Ġsl ice
Ġgr in
Ġunderstand ing
Ġcollect ion
Ġto re
Ġmeas ured
ak er
Ġcra s
i ers
Ġtra pped
omed ay
Ġl ined
' ve
Ġac ted
fort unately
Ġencou raged
v a
ĠS andy
Ġrece ived
ĠBe fore
Ġwaff les
ĠW ally
Ġwe st
Ġme ow
ent s
Ġpattern s
r in
in o
Ġbr us
e ath
Ġmouth s
k ins
Ġb ang
r ing
ĠK ate
Me ow
Ġpe aches
Ġb reeze
ad ed
un e
Ġprin ted
Ġsold iers
Ġs omeday
Ġpotato es
Ġpup il
um es
ĠM illie
Ġdrink s
Ġshe d
Ġexper ience
ĠT una
Ġpresent s
Ġfire f
ĠRu by
Ġsur round
Ġn one
Ġvoice s
os ed
e ep
Ġdr inking
ĠUn cle
is hing
Ġrelax ed
Ġvict ory
c us
Ġbre aking
Ġpaint s
e ve
Ġhur ried
iss ion
Ġtw ink
Ġtong ue
Ġcost umes
Ġfl at
Ġmention ed
Ġbeg ged
Ġte asing
Ġwhist ling
Ġf etch
Ġperm ission
Ġs ip
Ġdisag reed
Ġpe arl
ake s
Ġstr o
ve st
ĠThe se
Ġapp ro
Ġe sc
Ġsk ipping
Ġfis hing
ĠM ay
Le o
Ġhig hest
Ġp ra
Ġwat ches
Ġsor ted
Ġring ing
sh ip
Ġto night
ĠB o
Ġop in
Ġlet s
ic ing
Ġ Qu
Ġperfect ly
Ġshadow s
Ġim mediately
Ġherb s
Ġwarm th
Ġsp it
Ġremain ed
t her
ĠIt s
w alk
Bob by
irr ing
J en
Ġsne ak
Ġs ix
Ġlip s
Ġkneel ed
Bl ue
ĠC he
Ġcont est
ut ter
Ġcartoon s
Ġside walk
Ġcol ours
Ġstamp s
Ġag o
H a
ĠB oo
ĠT oto
ĠFo llow
Ġe ast
Ġhead ed
o ved
" ,
Ġstr ang
Ġf ed
Ġlady b
Ġsupp osed
Ġli ck
Ġroot s
Ġcr unch
Ġmix ing
Ġwork s
Ġdecor ations
Ġkn own
Ġmelt ing
Ġemer gen
M andy
ĠA b
Ġrest ed
Ġl ines
ĠSu zy
Ġl ily
ĠJ ul
Ġinst r
Ġla id
ĠG r
Ġcon es
Ġsucceed ed
Ġwigg le
et y
s ing
Ġsh ock
Ġset ting
ĠS low
Ġstud ied
Ġstrang ers
ĠRock y
Re ally
Ġtwig s
Ġbr id
Ġtheir s
ĠD r
Ġgirl s
b oo
!" ,
Ġscream s
Ġland s
Ġord ered
Ġmoment s
Ġst irring
Ġfield s
Ġal right
Ġsteal ing
d ed
And y
Ġr ul
Ġbrave ly
ĠB oth
av id
Ġm ister
! '
Ġin vest
Ġscrat ched
Ġplay time
Ġri pped
Ġinvest ig
Ġt ucked
Ġrest ing
Ġburn ing
is hes
ĠCl ara
ĠCh icky
Ġbrid ges
Ġoff icer
p lease
Sam my
B ird
ab ies
Ġsett led
Ġmat ched
Ġa chie
Ġte x
Ġtex ture
H appy
Ġturn ing
Ġwait s
ĠSk y
P eter
or ed
Ġtremb ling
ist en
Ġnail s
at ie
ĠSome one
Ġmuff ins
id s
ĠJ ames
Ġesc aped
Ġpile s
Ġinvestig ate
Ġbro om
os ity
Ġladyb ug
Ġso re
ĠPe pper
Ġadm ir
Ġappreci ate
Ġth reat
Ġb abies
Ġsil ence
Ġsister s
Ġare a
Ġemergen cy
id es
Ġdad s
Ġansw ers
Ġpu pp
Ġkey s
Ġchew ing
Ġsl apped
Ġw iz
Ġimport ance
B oo
Ġser ved
ĠH op
Ġsaf ety
iz ing
B u
W ould
Ġspark le
Ġtouch ing
ĠL ater
Ġso ared
ig ail
Ġs ings
Ġhe n
all en
E lla
b ers
ant ly
Mom o
ĠD ino
Ġkeep s
Ġamaz ement
Ġch allen
Ġtw in
Ġhe sit
Ġreveal ed
ache l
an na
Ġit em
Ġd ire
Ġso aked
z ing
Ġwr it
Ġfood s
Ġdinosaur s
Ġrid es
Ġrecord ed
Ġtick le
Ġin ch
ĠZ igzag
ĠM e
Ġwiz ard
Ġv et
Ġtrip s
ĠA n
Ġglow ed
ĠFr og
M mm
Ġh i
Ġbe amed
Ġqu ack
Ġcur led
Ġha ted
Ġw ink
Ġsho pping
Ġeat s
ĠB ug
E ventually
Ġpra ised
Ġwood en
Ġbring ing
Ġmitten s
Ġstudy ing
Ġgu y
Ġbrus hes
Ġspace ship
Ġg ust
Ġcraw ling
ĠSomet hing
C at
Ġrul er
Ġfl av
Ġdown stairs
Ġshoot ing
Ġtast es
Ġn apping
Ġmark s
Ġsprink les
Ġcudd led
Ġd ot
he llo
Ġf ut
pl ash
a les
a ved
Ġfut ure
Ġmon sters
Ġcoll ecting
Ġmeas uring
ĠH appy
' .
Ġfamil ies
ĠF irst
ĠO ut
ĠM o
Ġth rill
Ġo at
ir ts
Ġres ult
J ake
ĠR abbit
Ġappro ached
Ġcrunch y
a ct
U n
Ġrem em
Ġbleed ing
Ġremem bers
Ġbe at
Ġn icer
Ġsne aky
Ġdisturb ed
Ġlead er
Ġsc aring
O r
h ind
Ġpe el
ĠH ope
Ġfire men
ĠSt ar
Ġneighbor hood
Ġgre y
ĠN ot
Ġmot ion
Ġno on
Ġpo ssible
Em ily
S omet
Ġapolog ized
Ġwe ighed
u es
ĠD id
Ġticket s
C l
Ġnap s
Ġloo se
Ġpr ide
Ġyou th
Ġswim s
p ed
Ġstr ings
Ġrecogn ized
Ġsi ren
Ġpo king
f ied
ĠH o
c ious
h a
Ġtri cked
el vet
Ġwonder s
Ġgain ed
Ġwant ing
Ġcras hed
Ġo be
Ġsees aw
Ġwork er
unn ies
l s
om ing
Ġdraw s
Ġscoop ed
. '
Ġzoom ing
Ġopin ion
Ġyell ing
Ġprep ared
Ġgrin ned
ĠSlow ly
Ġa we
Ġdog gy
Ġpoem s
Ġact ing
ĠBe ep
Ġhapp iest
Ġche f
Ġsne aked
Ġresp ons
Ġe ff
ĠAl ways
ĠL izzy
Ġown ed
Ġb unnies
Ġany time
Ġstr uck
Ġped als
Ġkn elt
oy s
en a
O llie
Ġsecret s
Ġp ause
Ġdecor ated
Ġhorn s
Ġagre ement
ĠS qu
id ed
Ġfr ost
Ġtall est
Ġobe y
R emember
riend s
og o
ĠSt op
H ave
Ġdecid es
Ġ Once
Ġbeh aved
Ġt ugged
Ġs ides
Ġw oof
Ġsl im
z en
Ġgood night
Ġkeep er
Ġspark ling
Ġchirp ed
Ġpre cious
m other
i en
l ier
T r
Ġrepe ated
Ġclap s
ind y
Ġcont ain
aff es
Ġsnowball s
u d
r s
ĠR ay
Ġour selves
all ow
Ġgir affes
Ġbalan cing
Ġkind ly
Ġspend ing
Ġwrit es
ay s
pp ers
ĠL ike
Ġpr op
om as
Ġhis sed
F irst
Ġfro zen
Ġfrost ing
Ġeff ort
Ġbuzz ing
Ġstrugg led
o h
ĠSt eve
Ġadmir ing
Ġre le
ig gy
Ġsweet ies
ĠV elvet
Ġslim y
Ġbr ushed
Ġbloom ed
S usie
ĠA m
Ġpol ished
ĠZ oe
ar th
an ted
Ġb oo
Ġcomf y
Ġstay ing
Ġru bbing
Ġrock ing
D ucky
Ġpocket s
Ġthrill ed
Ġbe side
Ġcomp le
ĠA unt
ĠM aggie
A h
Ġe ight
ur ry
is dom
Ġmach ines
Ġear lier
Ġseem s
Ġy esterday
Ġr ust
ĠK eep
S p
Ġtrave led
Ġfold ing
Ġbo om
Ġcra cked
it ies
Ġhug ging
ĠSt itch
Ġrad ishes
Ġlo ving
Ġopen ing
Ġcir cus
Ġsurround ed
Ġcuri osity
ĠR achel
Ġspray ing
Ġdemand ed
Ġpaint ings
am ie
ĠG reen
Ġrem oved
Ġg aze
Ġhon k
Ġpebb les
Ġhard ly
Ġzoo keeper
Ġcat ches
Ġst ing
ed ding
Ġstri pes
Ġpow ers
Ġload ed
ĠPipp a
Somet imes
Ġpot s
Ġsplas hes
Ġpet ted
Ġmatch ing
ĠD avid
Thank s
Ġst are
Ġto ss
Ġbe lly
Y ummy
i bb
Ġwhat ever
Ġapolog ize
Ġro cked
Ġcomf orted
ĠB ree
Ġdec ision
Ġribb ons
ĠJ oy
ĠBird ie
er n
Ġstrugg ling
Ġex pected
Ġdes er
Ġste ep
w h
Ġprot ected
Ġneighb ors
Ġsmile y
Ġchase s
D uring
Ġgr anted
Ġcr umb
ĠM at
Ġpur red
Ġdi ving
Ġsad ness
Wh iskers
Ġorgan izing
low ers
Ġeag le
Ġhero es
Ġd ipped
Ġsun light
Ġli ed
ĠFr ank
Ġpastel s
E x
Ġroad s
Ġsaf er
Ġscr u
ĠM illy
Ġarg ued
ĠW ater
Ġgo als
Ġdisco very
ĠAb igail
Ġpe ered
Ġvill ag
R o
ĠBoun cy
u se
an a
Ġt im
l oe
Ġdrag ons
Ġbuild ings
Ġbucket s
Ġpart ies
Ġbe ard
Ġw edding
R ex
Ġfl utter
Ġplanet s
Ġan n
ĠRob by
Ġpol ishing
Ġfa sc
ir a
Ġrele ased
ĠCh r
Ġcrab s
ĠG ogo
Ġtail s
ĠW atch
Ġsaus ages
ĠJ u
Ġar gu
Ġcont ro
Ġbott les
Ġwigg led
Ġte ased
u ke
Ġargu ing
Ġsl ed
Ġdrag ged
ĠC ar
Ġpad d
Ġro aring
Ġcle aring
Ġmov ies
Ġsh irts
Ġgather ing
Ġair pl
Ġw id
joy ed
Ġteac hes
Ġspid ers
Ġl imes
ĠR emember
ĠD are
Ġover joyed
Ġact ually
Ġsigh s
Ġcontin ue
Ġcudd le
Ġso aring
ĠJ ess
Ġsmall est
Ġdri ves
Ġri p
Ġspark les
Ġsit u
Ġcub es
Ġref res
Ġtal ent
ĠO lly
Ġchallen ge
Ġgrand mother
ĠS plash
Ġpour ing
um m
Ġpretend s
Ġfasc in
Ġcut s
Ġb ank
Ġquarrel ing
Ġpe ppers
Ġman e
Ġshiver ed
Ġdust y
le y
Ġwonder ing
Ġvillag ers
Ġstretch ing
i b
n joy
Ġweek s
Ġwhere ver
Ġdark er
j am
T iny
Ġ X
s ses
Ġr ings
Ġon wards
ĠK atie
Ġun ited
A choo
Ġbe ad
ĠEvery day
ĠBe ing
Ġprett iest
Ġc aut
John ny
Ġreal ize
Ġcomp any
Ġpengu ins
anna h
L una
F r
ĠSp ring
Ġbed time
Ġcomple ted
ĠW isdom
ĠLe ave
âĢĿ .
Ġknight s
ĠJ e
Ġflag s
ĠB ecause
Ġplay room
ĠP rin
Ġact ions
ĠZ ero
Ġlearn s
Ġgot ten
Ġpat ience
d am
ind a
Ġshr ug
Ġkit es
Ġrespons ible
Ġfe ars
Ġdest ination
Ġwire s
Ġrep ly
Ġd am
Ġwr ist
aw s
Ġpack ing
Ġfa ult
Ġmountain s
Ġapplaud ed
Ġscru bbed
Ġm a
Ġcre pt
ĠA va
U h
ĠE arth
Ġsat is
Ġth ird
Ġph ot
Ġpencil s
Ġwin s
Ġstick ing
Ġb aker
Ġvisit ing
Ġw ound
Ġpe as
Ġuse s
Ġremind er
Ġcontro l
as hed
Gra ndpa
Ġjo king
Ġaw ake
Ġinstr uct
Ġstar ing
ĠP ut
Ġheal ed
Ġh itting
ĠF ish
Ġscream ing
Ġbeg in
R ob
uck ily
ĠF riends
ĠM oo
ic orn
Ġhelmet s
ent y
Ġun icorn
l er
se ek
Ġtowel s
ĠL ou
S illy
Ġch ips
ic a
Ġcre ation
Ġwas ted
b ie
M ar
ĠBe hind
Ġmask s
la ire
Ġforg i
Ġitem s
Ġfiref ight
Ġlollipop s
Ġout do
W atch
Ġhe av
Ġgun s
Ġd ied
ĠH ippy
Ġse as
Ġgl itter
udd les
Ġarri ve
Ġwere n
Ġsto le
Ġsc ales
Ġper ched
Ġac com
Ġlog s
Ġachie ve
d ie
Ġpract icing
in ing
Ġwho se
St ay
Ġpump kins
Ġinstruct ions
Ġsw oop
Ġbatter ies
Ġcand ies
Ġagre es
Ġpro ject
Ġsnake s
Ġchirp ing
Ben ny
Ġshe lves
Ġprot ecting
Ġpar ked
Ġex act
ĠC ra
Ġpatient ly
Ġact iv
Ġshould ers
Ġvide os
Ġblow s
F o
he e
Ġprom ises
g o
Ġd ent
us an
ue st
n ers
Ġexam ined
Ġairpl ane
jam as
D oggy
Ġro ses
Ġaccom pl
Ġtask s
D ave
ĠHo ot
P oppy
ĠB op
B unny
Ġbead s
Ġbowl s
Ġcrumb s
z es
Ġlisten s
ĠL ove
ĠCat ty
ĠBrown ie
P ete
ĠO l
Ġc ough
Ġb unch
Ġdolph ins
Ġg uest
Ġrequest ed
c akes
Ġrem ote
Ġimpro ved
ant a
Ġbra nd
Ġreach ing
ĠJ an
ay la
Ġal ien
ĠB ye
ir m
ĠS un
Ġcop y
Ġcheer ing
Ġphot os
ĠChe w
ĠJul ie
B ad
ĠBl ink
T ime
Ġcan s
ĠC uddles
Ġtim er
ĠB y
Ġrepl aced
Ġwork ers
ath y
Ġst ern
ĠE njoy
ast er
Ġne ither
M ike
Ġpass ing
Ġmis ses
Ġcurtain s
Ġconf l
Ch irpy
Ġrainbow s
Ġrub s
G eorge
Ġroll s
uct antly
Ġpat ted
il o
Ġpa jamas
Ġoutdo ors
es ome
d ies
Ġcomplain ing
ĠSqu irrel
L ola
R un
Ġpupp et
ĠPrin cess
Ġclose s
Ġben eath
Ġla p
Ġdrum s
Ġt une
ĠB eth
ĠM ouse
Ġfill ing
M iss
ang led
Ġref use
ĠS orry
Ġswe at
Ġfa ced
.. .
Ġse ven
Ġbalan ced
Ġresc ued
b l
Ġqu acked
n eath
ĠA bby
P aul
ist le
Ġaw esome
Ġ 1
Ġmiss ion
ĠHow ever
Ġguy s
Ġcaut ious
Ġconfl ict
Ġv ent
Ġc ause
Ġobser ved
Ġintrod uc
ĠTh omas
Ġpast ries
n ie
ĠO ur
Ġdoctor s
Ġexact ly
Ġru le
Ġbec oming
Ġm es
Ġpolice man
u ly
Ġrocket s
y ou
Ġ Yes
ĠD ot
Ġfair ies
l ay
Ġp out
A n
Ġins ist
Ġbloom ing
Ġtra ctor
Ġfar ther
ĠS ad
av i
O ops
G reat
Ġremember ing
Ġinclu ded
Ġcur ly
F ine
Z oom
Ġteam work
z ie
Ġfascin ated
Ġsl am
Ġwob bled
Ġtr uly
Ġhelp ers
Ġsight s
Ġpad dle
Ġst umble
Ġf irm
ĠJ illy
H enry
ac ob
Ġca used
Ġpray er
Ġsp ong
Ġrecord ing
ke lly
a is
Ġstar fish
Ġtr aded
Ġsupp lies
Ġth ro
Ġpoin ty
Ġinv iting
Ġsitu ation
e ah
g ers
Ġevery day
Ġneighbour hood
Ġornament s
ĠA lly
ink le
Ġval ued
Ġadd ing
S ome
Ġrel uctantly
Ġdot s
Ġstay s
Ġb are
Ġtable s
Ġprett ier
Ġdes ert
Ġsnow men
Ġste ady
Ġminer als
ara way
Ġth orn
o dy
Ġa st
Ġgl asses
Ġf araway
ĠG et
ĠFo xy
Ġ ĠĊ
ĠS ure
ĠW elcome
ĠTw o
Ġswoop ed
Ġun f
Ġfork s
Ġus ually
Ġus ual
P olly
Ġd ar
ĠJ amie
Ġwin ked
Ġsnee zing
Ġsol ut
Ġload ing
Ġspong e
ĠQu ick
Ġinsect s
Ġpan s
D og
Ġso bbed
ĠS anta
J ames
Ġgrowl ing
s m
ar ter
ĠCh loe
Ġthro at
ĠJo sh
Ġno ses
ĠD izzy
Ġscar ves
Ġconf ident
ĠW ant
Ġyour selves
ag ull
Ġhome work
ĠSt ay
Ġsuperhero es
Jo ey
Ġsm arter
Ġwind y
Ġlibr arian
T ina
ĠK ids
Ġgem s
D ays
or a
Ġunder neath
Ġkick s
Ġknow led
Ġitch y
Ġjacket s
Ġknowled ge
ĠF or
ĠS kelly
Ġsurf ace
Ġunt ie
Ġcom m
ĠD uck
Ġprince sses
.. ."
Th ose
e ed
id o
H old
Y eah
c oon
Ġsquare s
ĠH enny
Ġgigg ling
Ġwarn ings
i ar
Ġread s
v in
O ur
Ġch oo
s on
Ġyou nger
Ġclown s
ĠM ix
T oby
Ġro pes
Ġbit ing
Ġcrow d
ĠUn fortunately
p ite
D anny
Tr ue
Ġse agull
Ġpadd led
Ġwear s
Ġdeliver ed
ĠM on
Ġon ions
Ġtwir l
Ġbuzz ed
Ġcomplain ed
Ġb umpy
Ġst em
E w
Ġpig gy
Mr s
ĠAnn e
Ġdire ction
ou ch
Ġdi ved
Ro ar
Ġstart led
Ġt angled
ul ts
Ġlean ing
ĠA nt
bb ie
ĠJ ones
Ġbad ge
ĠP o
Ġun p
Gra ce
Ġde al
th ough
Ann ie
Ġv owed
Ġnap kins
an es
Ġr isk
Ġtick led
Ġcover s
Ġp ec
Sh h
Ġyell s
Ġsatis fied
in t
Ġknock s
Ġrefres hed
ĠS c
t uce
cu se
Ġc ous
Ġarrow s
M aggie
ĠWh istle
P e
Ġwip es
Ġspe aking
Ġguess ing
Ġlet tuce
ĠQu ack
Un fortunately
Ġri pe
ĠS usan
Ġhid es
Ġchoice s
ĠDo do
ĠRo ver
Ġsign ed
Bu zz
Ġslow er
Ġseek er
Ġintroduc ed
Ġsing er
Ġcreat ing
ĠMat t
Ġc ent
Ġfro ze
ugg les
Ġjo ked
Ġsque al
Ġtoast er
Ġexplore rs
f it
Ġav o
ang ing
Ġpray ing
S ophie
Ġwr itten
Ġdiscover ing
ĠD ara
Ġprov ided
ĠL ion
Ġref le
Ex cuse
Ġmushroom s
ĠJe ff
ĠP aws
Ġkne es
Ġpay ing
Ġhid er
ence s
ĠAs h
Ġwander ing
Ġimag es
Ch arlie
Ġst ung
ĠW ink
Ġmagnet s
Ġbare ly
Ġbeh aving
Ġtip to
?" ,
Ġmar ked
br ush
rr r
ĠD ee
Ġrest ored
Ġlead ing
ll ed
Ġch uck
Ġgre et
Ġn ine
ad os
T eddy
Ġbra very
Ġgear s
ĠSn uggles
k y
Ġcompetit ion
e al
Ġout fit
ol ine
Ġwis hing
Ġprop erly
Ġvent ured
a a
t le
Ġch at
Ġdance s
Ġmus cle
Ġpen s
Ġsal ty
am b
ĠBet sy
Ġran ger
ĠZ iggy
Ġdeser ve
Ġhow ever
se qu
Ġmatter s
Ġdark ness
ĠF u
Ġbur st
Ġrain y
Ġcobweb s
Ġruin ing
Ġchef s
Ġb ak
Ġblock ing
Ġcon sequ
ust ed
it ely
st y
Ġsc ur
Ġv ines
Ġfa b
ab el
Ġfab ric
Ġent ire
Ġbase ment
Ġle ast
Ġperform ed
ĠBug gy
S n
Ġscrat ches
Ġheav ier
ĠC laire
Ġmin ts
Ġtwir ling
Ġavoc ados
How ever
ĠL inda
r ink
f l
Ġlo sing
Ġscur ried
ĠJen na
Ġsunf lowers
Ġrain co
Ġsword s
T weet
Ġcl ick
ag ic
ĠL aser
Ġjob s
Ġsil ent
Ġfl ames
Ġnecklace s
ĠL uke
Ġrelie f
ĠGr umpy
Ġsn at
Ġrot ting
Ġsew ed
l en
Ġtrick y
L isten
Fo llow
J erry
Ġlight er
oph ia
Ġbow s
ĠSk ip
Ġex ha
Ġsolut ion
Ġconsequ ences
A lex
ĠL ena
Ġst ain
Ġtire s
Be ep
Ġunp acked
A b
Ġpart ic
Ġrace s
r ance
Ġp ins
Ġbump s
Ġwrap s
Ġw ow
Ġdecor ating
Ġb acked
ais ies
c her
Ġdent ist
Ġneed les
Ġpur r
Ġcautious ly
Ġlift ing
izz ie
ĠP r
Ġaccompl ish
Ġtriang les
Ġd aisies
ep t
Ġhesit ated
Ġann oy
ĠTh ose
Ġgrowl s
Ġcrack ers
o ke
Ġstom ped
Ġc ott
Ġgra bbing
Ġfig ured
Ġbo dies
Ġm ater
ĠT ree
Ġbuy ing
ĠR olly
ĠF ido
Ġmater ial
ĠA dam
Ġswan s
Ġt ies
Ġg ri
ver s
Ġgrow s
Ġsweet s
ĠGood bye
Ġown ers
Ġcheek s
Ġflav or
ĠC athy
B ig
ĠE l
ĠJ essie
Ġsuffer ing
Ġfa ct
v room
Ġgroup s
b ly
Ġfore head
Ġlung s
Ġre pa
H arry
Ġinterest ed
Ġbak ery
ĠM ilo
Ġf reed
L illy
it ches
ĠNot hing
Ġchuck led
F or
Ġcon n
Ġsw ept
? '
Ġthu d
Ġexha usted
T w
Ġt apped
Ġtwink ling
R u
Ġne ct
ro sty
Ġnect ar
ell e
Ġfe ast
Ġdar ling
ind r
ĠM ad
Ġwor ries
Ġun s
Ġtunnel s
Ġfu zzy
ĠTr ust
Ġre ason
Ġrepa ired
ĠB all
ĠCo pper
Ġactiv ities
le ts
ĠH annah
Ġpec ked
ĠT ry
Ġent rance
Ġme als
ĠL isten
Ġra indr
Ġcomplet ely
Ġpartic ular
Ġma iled
Ġnest s
ct ions
Ġwait er
Ġcudd ly
Ġs ense
ĠN ana
Ġcolor ed
ark y
Ġle ap
st ep
b and
Ġpee king
Ġpl enty
ĠC ara
Ġslam med
n o
Ġplay ers
Ġmon th
ĠB irthday
Ġbu dge
Ġ Q
Ġsc ra
Ġforget s
Ġd en
Ġhand ful
ĠOl iver
Ġm er
o ssible
Ġgen ie
ĠChr ist
Ġst ool
igg ie
Ġtalk s
ĠP up
ĠSu zie
Ġfeed ing
Ġpassport s
Ġfilm s
Ġbath s
Ġimp ossible
Ġdeterm ination
M ay
Ġprin ting
bo at
Ġdesign ed
Ġbu ses
Ġo pp
ue en
Ġbar s
le phant
Ġsuit case
Ġcount s
Ġsto len
Ġspread ing
ĠSn ap
Ġspike s
Ġste er
Ġwip ing
ĠR ain
Ġl amb
Ġhon ked
et ty
n ies
Ġcow b
W hee
Ġsepar ated
bl ings
Ġsi blings
Ġhop s
Ġch op
Ġfire s
Ġsew ing
ĠTw inkle
Ġfe ver
Ġtwink le
Ġt y
Ġcamp ing
ĠM ira
Ġl ower
Ġch anging
y es
ret ch
Ġbeh avi
ĠBl oom
m as
Ġli qu
Ġcelebr ation
b ut
Ġdoll house
Ġsqueal ed
S unny
Ġback ward
Ġag e
Ġsnat ched
Ġc ash
h o
Ġtw ice
le e
Ġs way
it ched
Ġcelebr ating
ĠPe anut
Ġac he
Ġshr inking
Ġk ings
we ed
ri ous
Ġshop s
Ġkitten s
c ope
R ose
ĠJess ica
ĠJ acob
ĠG ina
au ra
Ġh us
Ġtouc hes
air y
Ġpan cakes
Ġavo id
Ġsp at
ĠF rosty
r ig
h og
ĠN ina
Ġpath s
ck y
ive s
ĠH old
Ġcalm ed
Ġr otten
ĠJ on
S andy
Ġdro pping
Ġsea weed
ĠM el
ile s
P ipp
Ġtwist ing
Ġstro ked
Ġunt ied
ll en
Ġplay house
n e
M illie
Ġstud ents
Ġpupp ies
c l
ĠSo f
h i
ĠR e
Ġscrew s
Ġast ron
Ġsome body
ig ning
Ġliqu id
am my
Ġsqu ish
Ġwake s
ĠW oof
Ġbrace lets
Ġastron aut
are n
Ġthr own
im mer
Ġloop s
ĠO ther
Ġpl ain
Ġwra pping
L uckily
Ġplan ning
Ġtr amp
Ġsk unk
Ġa imed
Ġpen nies
Ġsh oo
Ġdanc ers
Ġlift s
Ġspark s
Ġfiref ly
p en
D an
Ġpo ster
y an
end y
Ġc ust
ĠChrist mas
Ġreward ed
Ġobject s
Ġdire ctions
ing o
us ing
Ġrefle ction
Ġhus band
T ake
âĢ Ķ
ri ver
Ġcl ues
u ppy
Ġlead s
Ġincre ased
Ġbl ocked
Ġr ising
Ġdo d
ĠY esterday
Ġcous in
ĠWith out
Ġforget ting
rig ued
Ġcust om
K ate
u de
Ġbegin ning
Ġtramp oline
Ġstore keeper
Ġpout ed
Ġzebra s
Ġa ff
Ġhedge hog
Ġborrow ed
ĠâĢ ĺ
ĠRo llie
Ġsnow fl
Ġcountry side
ĠJ ay
J ump
Ġmes mer
Ġvehic les
Ġinstr um
ĠM ic
ĠK ayla
ĠU p
Ġfrown ing
P at
iv ity
U nder
Ġmark er
Ġbe y
Ġpres ses
ĠQ ueen
Ġbey ond
ĠOn ly
Ġdam age
i very
ie ce
ĠT ara
Ġfar t
ĠB iggie
j o
Ġheal th
Ġwhisp ers
Ġslip s
Ġswims uit
Ġn ibb
ĠJul ia
Ġwarm er
arm er
Ġfl apping
Ġtipto ed
Ġregret ted
itt ed
Z ip
Ġlay ing
ĠRob o
ad es
ĠF ire
Ġy elp
Ġrain s
Ġgl ued
Ġevery body
Ġcre ations
Ġhear ing
Ġsw ir
Ġcold er
iver sity
a el
Ġshap ed
ĠE lephant
Ġfin s
Ġstreet s
Ġcush ions
Ġrust y
O ut
Ġsa n
Ġfart hest
ĠMike y
Ġcreat ivity
an s
Ġsa le
Al ways
C o
Ġstrong est
Ġfit s
ĠSpark y
ibb it
Ġbell s
Ġdoll ars
ĠL arry
Ġe arn
i am
ĠM oon
ang le
ĠCh irp
Ġlend ing
ee se
Ġcash ier
M illy
Ġinclu ding
ĠR ich
Ġsniff s
Ġrainco at
Ġsan k
Ġsto pping
Ġtremb led
Ġsour ce
it i
im on
ĠMiss y
Ġind eed
Ġwob bly
ter s
Ġguest s
Ġsing le
Ġrecommend ed
Ġwe e
Ġspell s
Ġaccomplish ment
Ġbel ts
Ġend s
Ġsurpr ising
Ġhope ful
Ġseas ons
ĠT ake
ĠSnow man
ĠE ls
B ear
Ġplan s
Ġencou rag
ich ael
Ġsupp orted
ill ed
st ick
Ġsuff ered
Ġart ist
Ġperform ance
e et
Ġslow ed
N ina
Ġg ross
Ġflav ors
id ing
Ġsp ins
ert ain
ch o
Ġlabel s
Qu ack
Ġraindr ops
Ġdel ivery
u ing
ara c
Ġforgi ving
Ġrac coon
ĠW oo
ob ody
Ġpour s
t he
Ġstand s
Ġturt les
il ity
Ġvan illa
B ill
u ess
Ġbe am
Ġrec ipe
Ġt ying
ĠS w
Ġg eese
Ġwill ing
Ġdraw n
Ġrob ber
Ġwe pt
V room
ĠB ones
Ġch arac
Ġcorn ers
Ġpop s
ĠS ophia
el ia
Ġque ens
Ġd ie
Ġgri p
Ġsail boat
Ġdriver s
Ġm oo
it ude
Ġhall way
Ġimag ining
Ġsecond s
ĠFu zzy
M ine
Ġprep aring
Ġwid ened
Ġad ult
ĠSp irit
Ġc oop
Ġgro cer
Ġtalent ed
ĠP am
ĠBe aky
ĠI zzy
Ġsail ors
umm ies
ll ing
Ġas ide
Ġso fter
Ġwater ing
Ġknot s
Ġsend ing
Ġt ipped
Ġuns ure
Ġhor iz
L ulu
Ġtree house
ĠL izzie
Ġnot es
Ġe cho
ig ers
Ġachie ved
Ġhoriz on
Ġsque ak
Ġdeliver ing
Ġhot ter
ĠSt ella
Ġple asure
Ġpupil s
Cl ara
Ġbur row
Ġangel s
Ġcurious ly
Ġy um
E llie
Ġblin king
ĠJ une
Ġd et
Ġsymbol s
ĠSt retch
Ġtw eet
w k
Ġpass en
ĠRu dy
ĠC indy
Ġt ummies
Ġt iss
Ġpige ons
Ġfigure s
o ey
umb ling
Ġband ages
ĠRob ert
Ġc oup
ĠDo ctor
Ġrobot s
al ph
Ġtoss ed
Ġh our
Ġback wards
Ġro ars
B aby
Ġmer ma
Ġr ather
u zz
at ur
Mar ia
c ited
ĠCra b
ĠP lay
M oo
ight ing
Do lly
Ġgrocer ies
Ġzipp ing
P ut
Ġun w
V ery
p rin
Ġam ong
Ġbl own
Ġ icing
!âĢĿ .
Ġafter wards
Ġr umble
ipp er
Ġscrew d
Ġsp ed
ĠT ia
us hing
Ġpr ove
Ġg lee
ĠT iti
Ġd ip
Ġover come
Qu ick
Ru by
Ġsurf board
Ġshovel s
ĠTo ot
Ġslice s
Ġm erry
Ġm ate
Ġwob ble
ĠT urt
ĠA bbie
Ġhead ing
Ġdisturb ing
Ġsw all
Ġrever sed
Ġfirefight ers
J ul
Ġswall owed
Ġch ip
ed s
Ġfl ipped
Ġsc ored
ĠJ ump
Ġsquee zing
ust y
Fr ank
S u
at y
Ġwa king
Ġint rigued
S ad
L ike
Ġm aker
ĠB arky
Ġp uff
aw n
B etty
Ġha wk
Ġencourag ing
Ġa ud
ĠE x
on ies
ĠR on
Ġch os
Ġchos en
he w
ĠA ng
ĠF armer
Ġcoup le
Ġdesign s
Ġslipp ing
Ġscrewd river
ĠEm my
Ġsquish y
Ġgarden er
Ġcent er
Ġriver s
Ġmark ers
Ġresp ond
ile y
Ġjar s
Ġt igers
pec ting
Ġfrown s
b ird
ĠK it
Ġflutter ed
ĠSad ly
ĠS l
Ġfirefight er
ĠR yan
R ibbit
Ġsec ure
Ġsuit s
Ġsprink led
Ġcream y
Ġbr u
as hes
Ġshark s
Ġignor ing
Ġgigg les
Ġtight er
Ġtiss ue
Ġfirm ly
oun ce
ĠL aura
f ly
Ġsh own
Ġfamil iar
Ġthorn s
Sp ike
ĠW o
Ġdraw ers
ch ild
ĠZ ee
Ġexp ress
C ar
Ġde f
Ġd aring
ment s
Ġcross ing
Ġaud ience
Ġcloud y
Ġperform ing
Ġcolour ed
Ġc or
Ġa is
ĠN ick
a e
r at
Ġpedal ed
G et
Ġmix ture
Ġt il
Ġgrace fully
g gy
Ġhaircut s
Ġyield ed
Ġp onies
Ġdis ob
Ġcrown s
Ġbit s
Ġto dd
ĠS leep
Ġhang ers
Ġnervous ly
bb led
ĠP atch
Ġ 2
Z oomy
Ġpay s
Ġpe ck
Ġe v
Ġstro ke
f all
B ang
e en
Ġres pected
Ġn apped
a ven
Ġmind ed
dd ie
B essie
ab ly
Ġtest ed
B oys
ad ing
p arent
ĠChr is
K im
ĠN ear
ĠUn iversity
Ġbee h
ĠTurt le
Ġneighb ours
Ġsurf ing
ar row
ver ed
Ġsh ady
ion a
Ġmagic ian
Ġd arl
Ġenthusia sm
Ġdarl ings
Ġwis ely
Ġsail s
Ġst itches
ke nd
D ear
Ġthought s
Ġwee kend
ĠTweet ie
Fred dy
Ġremind s
Ġtemp er
or ing
th a
Ġfle as
Ġsurround ings
Ġspit s
ant ha
Ġteam s
Ġfill s
Ġlesson s
Ġfl ip
ĠAl ong
Ġmel ons
Ġpaint brush
Ġmerma id
on i
K atie
Ġgrand child
Ġexpl o
Ġel bow
Ġhoop s
Ġsport s
Ġli es
G uess
ĠF ighting
ra c
Ġpan icked
Ġclean er
Ġam ount
c used
Ġlong est
Ġscoot ers
Ġl ent
it a
Ġs ill
Ġbel oved
immer ing
Pipp in
Ġbeeh ive
Al right
ll e
og a
ong rat
Ġoy sters
Ġgrand parent
ongrat ul
Ġforgi ven
Ġmagaz ines
ĠW ise
Ġar r
Ġe lf
Ġrepe ating
Ġdiscuss ed
ĠThank s
Ġsweet est
Ġwa dd
K eep
ĠMay a
Ġla ce
Ġre ass
ĠGr anny
Ġnightmare s
ĠW illy
Ġtub es
Ġunderstand s
Ġspoon ful
Ġn ood
Ġbat hing
ĠZ oey
ast y
A m
Ġswe ep
Ġman ners
Ġn ur
Ġwr ink
c row
ĠH olly
Ġb ully
Ġspr ang
Un cle
Ġgu ide
ĠY et
Ġc rew
an cy
on na
rom ise
J azz
Ġbreat hed
ent ly
ild a
wh ile
step s
ĠB ally
Ġbulb s
Ġne are
Ġgrass y
Ġsp ies
Ġtest ing
Ġwigg ly
Ġc oug
ĠR oo
Ġsol ving
Ġsheet s
Ġfoot steps
nt il
Ġspeed ing
After wards
Ġfo cused
ce pt
oun ced
? !"
Ġbra ver
Ġcam el
Ġmesmer ized
ĠSpark le
Ġhesit ant
Ġlick ing
Ġr ushing
ĠW ell
Ġjoin ing
ĠP uppy
Ġpol ar
Ġgreet ed
ĠMar tha
- -
ĠBu bb
es pite
Ġwor n
Wh ich
K iki
Ġch anges
Ġmaterial s
ĠN obody
und red
Ġstor ed
Ġbicy cles
Ġm ast
Ġan ger
Ġpeace fully
Le ave
Ġship s
Ġsp ice
ĠSh ow
Ġterri fied
Ġn uzz
Ġg onna
Ġpol itely
Ġspill s
Sn ow
Ġscare crow
Ġkn ives
ĠMix y
Ġev il
pp ies
Ġbury ing
c a
Ġare n
Ġheal ing
Ġdon key
Ġaeropl anes
E ven
f reeze
Ġse als
Ġscatter ing
Ġm iles
ĠChew y
Ġd ump
am boo
Ġworry ing
B ee
z oom
be ep
ĠL enny
D avid
Ġpuzz led
Ġst acked
ĠK ip
ĠN ice
P enny
Ġlo ses
ĠW in
dd ing
Ġbasket s
Ġtrave lled
ĠO kay
Ġbl ast
Ġgaz ing
ĠT ess
ip es
H urry
Ġtemper ature
Ġu nd
Ġcl ue
Ġtast ing
Ġbelie ving
Ġdri pping
Ġpinch ing
er m
Ġso aking
Ġrat s
Ġ1 0
is c
Ġsand y
re ct
ĠIs n
ĠS imon
re y
an while
ĠAb i
Ġban ged
B inky
Ġpunish ment
Ġhuman s
Ġcras hing
Ġfor ce
ĠA na
Ġg est
Ġh undred
ĠL ia
Ġswim mer
ĠChe ss
Ġsnowfl akes
Ġrelax ing
Ġres isted
Ġbeep ed
ĠF airy
Ġquarrel ed
el ie
f orm
Ġr amp
ĠW endy
Ġjo ins
ĠP h
ab by
Ġbackpack s
Ġdress ing
Ġdelay ed
year s
Ġtodd ler
ĠL uckily
ĠT e
Ġfl ight
Ġcover ing
B y
or ter
Ġben ches
Ġencourage ment
Tw o
O pen
Ġtow ard
Ġscra ped
Ġpurp ose
Ġfo cus
ĠJu dy
B ow
Ġcor rect
' ."
Ġlip stick
Ġb amboo
ĠC ow
S pe
Ġpot ion
Ġtwink led
Ġmonth s
Ġperm itted
Ġlangu ages
Ġord ers
Ġfreed om
T ony
Ġm aster
Ġrisk s
Ġpo ppies
sh m
Ġnood les
Ġf aded
Ġwound s
ri er
K ids
shm allow
is ions
ĠJo jo
Ġcream s
Ġbird house
ĠHer b
Ġcell s
Ġannoy ed
op es
Ġche ers
Ġsniff ing
Ġad ults
Bird y
Ġunw ra
Ġp uck
Ġflo ats
Ġopin ions
Bu zzy
ec ca
and as
In stead
Ġfl own
Ġsc en
Ġhands ome
Ġsnee zes
ĠM int
Ġno dding
Ġ 5
Ġsmell ing
Ġbur nt
Ġdri fted
id er
Ġwith in
b age
Ġhe ight
Ġsc ient
Ġbother ing
Ġdam aged
Ġte aring
Ġsl ither
Ġple aded
Ġinstrum ents
Ġe ase
ĠAl i
d a
B ack
ĠMar ie
Ġscient ist
Good night
M ira
Ġp ound
Ġhand ing
Ġsell er
ĠS ay
Ġg erm
Ġwas ting
Ġfile s
Ġdream t
Ġres ults
ĠM abel
b ell
Ġexplain s
Ġdestro ying
Ġbrus hing
Ġhis s
ous y
ĠC r
ĠR azor
Ġcharac ters
ĠSt e
C arl
Ġc ertain
ĠH ug
P andy
Be hind
Ġsweat y
un ched
Ġbus iness
ĠRob bie
Ġon ward
Ġtal ents
T ry
Ġbrave st
Ġeng ines
it ion
ĠP en
ĠJan ie
Ġstern ly
Ġpost man
Ġmosquito es
prin ts
Ġmind s
c ake
Ġt uck
u nder
Ġscare s
Ġstom p
Ġapolog ised
u rious
u el
Ġman ag
Ġsn uck
Ġb itten
Ġremind ing
atter ed
Ġsw itched
Ġtil ted
Ġdec isions
Ġsing ers
Ġdes per
ĠPo or
Ġbehavi or
as hing
ĠJu dge
bb ers
in ny
Ġsque aked
Ġpeel ed
ĠEvery body
Ġpur rs
Ġy umm
ĠB ra
Ġtreat ed
Ġdisplay ed
Ġrust ling
Ġsm ashed
ĠU ntil
Ġneat ly
Ġmate y
ĠB ess
Ġplant ing
Ġmar shmallow
Ġin sp
Ġs y
Ġcra cks
Ġbell ies
Ġyelp ed
Ġgrandparent s
a ver
Ġsc amp
Ġshin es
ĠN avy
Ġh oo
Ġfa iled
Ġcolor ing
ĠY oga
ĠM ake
l ine
Ġzoom s
r up
Ġbreat hing
Ġn asty
Ġcomb ed
Ġdes pite
Ġp andas
Ġadd ress
ig hing
Ġwater fall
om p
uff in
c c
ĠL oop
ĠAng el
T illy
Ġant ic
Ġwid er
Ġro bbers
Ġdoor way
ĠTo dd
Ġsweat ers
P lay
Ab igail
Ġecho ed
Ġed ges
e vin
Ġin j
ĠSh adow
A unt
Ġg ap
ĠBl inky
Ġdisob ey
w ise
L iz
ĠM ichael
Ġt ar
ĠFl ick
W ake
or king
Ġmagn if
Ġtap ed
os cope
ul p
f ather
Ġact ion
Ġscold s
Ġflap s
Ġcrawl s
ĠM indy
Ġback s
Ġsw ap
ĠG ary
R os
Ġgo bbled
Ġwar ri
ĠFish y
ĠE ddie
Ġse ver
Ġst eth
S low
Ġshin ier
Ġnewsp apers
Ġprob ably
Ġo cc
Ġsever al
R ock
Ġenc ount
ĠMe g
L ena
Ġquiet er
Ġser ving
Ġpl ucked
Ġconn ected
t ock
ĠSh are
Ġ ouch
ig ger
T ed
A dam
Ġgest ure
F l
Ġpl ot
T oo
Ġstud ent
Ġdoor bell
Ġcare s
Ġsqu aw
ĠS e
f ire
Ġgrand son
Ġresc uing
Ġg oo
Ġsp y
Ġrow s
Ġsimp ly
i el
Ġwhist les
m ies
v ant
Ġsnap s
Sh rink
M agic
Ġastronaut s
Ġsh orter
ĠTim e
ss ss
Ġunpack ing
Ġcott age
Ġsw o
Ġaccident s
Ġm ood
ĠN ut
ib i
Ġswo llen
St eve
ĠZ ippy
ab elle
ĠM ousy
an ie
Z ara
Ġbother ed
H annah
Ġsteth oscope
f ound
Ġtrust ing
Ġca using
M at
M ad
Ġdress er
Ġleap t
Ġs ou
ain t
Ġpill s
Ġprop er
ret ty
Ġthrough out
Ġrun ner
ĠD ina
Ġpray ers
O live
Ġjoy ful
Th omas
Ġlo cks
m ates
ĠPr ince
Ġgoat s
J amie
wh at
Ġtar get
re st
ĠW ait
ĠK aren
ĠB ang
Ġde ars
R ed
ĠC ro
art led
Ġm unch
Ġfl ips
Ġwadd led
Ġlow ered
Ġste pping
Ġcon s
ĠJack ie
Ġteacher s
ĠT oys
Ġcowb oy
Ġin ches
Ġenvel opes
Ġch ar
ear s
ĠV room
Ġexplore r
Ġantic ip
Ġplay d
ĠR uff
ĠRe ady
ĠR alph
N ice
Fin n
un ity
ĠB ad
en ing
ĠP l
Ġfloor s
Ġknock ing
Ġeffort s
Ġuniform s
ĠT ri
l ied
Ġaw are
Ġfoot prints
Ġnear ly
Some one
ĠF iona
ll as
ĠR ia
Ġdis c
Ġtr ot
Ġgl itt
Ġs ens
Ġwh imp
iv i
Ġappreci ation
oo sh
Ġche cks
Ġne cks
Ġcoll ap
Ġla pt
Ġex cept
Ġpl ug
ĠJack y
Ġch arge
Ġflutter ing
Ġumbre llas
Ġstamp ed
ac y
Ġsandcast les
ĠDave y
ĠH oney
Ġstat ues
om b
ail s
Ġshr ank
H oppy
ĠAm elia
isc uit
r ily
Ġpri ck
Ġadd s
Ġfin ishing
r ons
Ġchocol ates
Ġhunt ers
Ġstro ll
Ġdod ged
Ġpassen gers
Ġgerm s
og er
Ġwr igg
Ġais le
Ġap rons
Ġset s
ĠG erry
.' "
Ġnovel s
Ġwe eds
ĠT aking
or der
Ġdemand ing
Ġscratch ing
Ġmeow s
D r
iss a
Ġnur ses
L ucky
Ġmind ing
Ġdiscuss ing
Ġdrive way
ur render
ĠC ari
Ġk illed
Ġbec omes
Ġha ird
Ġtool box
ĠEl iz
Ġlapt op
Ġatt ack
Ġpo sit
ĠSad ie
ĠD espite
ĠG l
Spe edy
so l
Ġbounce s
Ġscamp ered
Ġde ed
Ġspray s
Ġsupp lied
Ġtem pt
Ġburn s
Ġfriendship s
Ġsuggest ion
Ġclos ing
Ġsl apping
Co co
Ġbelong ings
Ġinvit es
A rrr
Ġanticip ation
Ġfor m
ĠSt an
Ġspring ing
Ġer ase
Ġcott on
Ġtwist s
Ġr ays
Ġforgive s
Ġsnugg le
Ġmodel s
Ġsh all
Ġhum ming
Ġmass ages
on nie
Ġrespond ed
Ġnew found
ĠShe lly
Ġghost s
Ġex pecting
Ġche ated
Do es
ĠWoo ly
G igi
ott e
ĠN e
Ġtravel ing
Ġco nd
Ġal though
Ġbat tle
allow een
Ġmom mies
Ġa im
Ġcar ries
Ġinvit ations
Ġrefres hing
Ġcon c
Ġpresent ed
he l
ĠB umpy
Ġr owed
Ġtw enty
ot s
Ġsqu ir
ri e
Ġfox es
Ġcoop er
arl otte
Ġfin al
Ġduck ling
Ġca fe
ĠB ibi
P ip
Ġmarshmallow s
Ġcl icked
ĠZ ipper
o or
Ġjet s
Ġdes igning
Ġbe aver
f ive
ĠM uffin
ĠH alloween
Ġmug s
ĠWho ever
Ġdr own
ĠAl though
Ġpicnic s
ĠR uth
Ġtri cycle
Ġcon vin
Ġopp os
ĠEx cited
ĠC le
i ens
p o
ĠP op
Ġscoop s
ĠMad die
Ġc ongratul
Ġtravel s
ĠâĢ Ķ
Sad ly
Ġal iens
Ġtest s
Ġquestion ed
ĠSpe ed
in ted
Ġcra ft
Ġstrip s
N ear
M ouse
at ty
Ġde fe
ĠFl utter
co vered
ĠBubb a
ir i
B r
Ġfight s
B all
ro ken
ĠBig gy
Ġoppos ite
ĠI m
F ind
E lly
H mm
Ch loe
Ġr out
ĠN ever
Ġaff ord
Ġgrand father
Ġencount ered
Ġdec l
in ch
Ġra ising
im ent
Ġup side
ĠV ivi
J ess
Ġcalm ly
Ġfl ashed
ĠR ita
Me anwhile
Ġyaw ning
Ġreal izes
Ġsince re
Ġb uddy
Ġcryst als
Ch oo
Tr ust
atur day
ĠSam antha
Ġbuck led
Ġcup cakes
B oth
by es
Ġwin ners
Ġdef in
r is
ver se
' ,
Ġca w
Ġweap ons
Ġche at
Jo sh
sh adow
Ġpack ages
ĠS aturday
Ġco ach
Ġatt em
Ġsa cks
Ġmes ses
Ġgood byes
qu et
ĠTr uck
ĠFl o
Ġcon vers
v al
Ġdri ft
ĠM ina
Ġcap s
ĠE va
Ġen em
Ġenem ies
ash a
Ġscr ub
Ġyumm iest
Ġreturn ing
Ġsw allow
ri an
Ġadmir ation
ĠMe gan
ĠSof ty
Ġspr out
S ince
ĠLou ise
Ġun able
ĠAn other
ĠPlay ing
ook s
Ġsad der
Ġb less
Ġbright est
ugg ing
Ġfreez ing
ĠY awn
ĠM an
Ġresp on
ĠO h
Ġco sy
re verse
Ġrespon se
Ġbr ide
Ġdiamond s
Ġre app
st alk
Ġhon king
Ġopp ort
Ġgar bage
Ġstret ches
Ġprevent ed
Ġwhisper ing
er k
Ġo dd
Ġwho ever
ĠG ray
ant astic
Ġaw ful
al th
Ġjourney s
Ġweigh s
Ġaw oke
Ġtrap s
B rrr
Ġdragon fly
Ġspice s
o ff
Ġb orn
Ġcl ip
Ġreass ured
Ġst all
iv ia
Ġarg um
Ġbean stalk
ĠM aisy
Ġbeet les
Ġautomobile s
Ġexam ining
Ġdefin itely
ic i
H op
m ine
Ġvisit ors
Ġstuff ing
Ġplayd ate
Ġwas hes
c ie
b roken
Ġwis er
Ġcustom er
em ma
ĠJo lly
up er
ĠFl op
R achel
ĠSof ia
Ġtrave lling
Ġb ou
ĠN urse
Ġhaird ress
Ġbou quet
, '
or se
bb le
Ġdecor ation
Ġt umbled
ĠE lle
Ġcamp fire
Ġbu d
Ġhonest y
v y
On ly
eb ecca
Ġb omb
Ġoffer ing
Ġwelc oming
ĠJ ax
ĠO t
ĠHe llo
Ġincre asing
Ġtrou bles
Ġocc as
Ġwe alth
Ġloud est
Ġinsp ired
Ġpar ted
ĠCh ick
Ġgro an
Ġty pe
ĠNut ty
ir ac
ĠR icky
Ġwh ales
ĠTh under
y l
Ġdecl ared
Ġcorrect ly
ook y
f us
Ġbeak s
y ler
ĠQuack y
Ġcle ared
ath an
Ġcowb oys
ĠDot ty
Ġnuzz led
Ġex ch
Ġpri zes
Ġwarm ly
Fin ny
ĠMiss ile
Ġre wards
Ġobey ed
Ġcustom ers
ĠF el
Ġcomfort ing
Sh ould
Ġsiren s
ĠFl appy
sh aped
Ġconn ect
Ġtown s
m atch
ĠM agic
ĠB ingo
Ġre ly
ĠV icky
elie ve
ĠF e
Ġown s
H oney
Ġbend s
Ġinsist ing
Ġtr igger
Ġf antastic
Ġspo iling
Ġhairdress er
Ġshare s
Ġclean s
Ġpo ses
Ġsupport ing
Ġsurrender ed
Ġp ipes
S un
ĠC ook
ren ch
Out side
Jul ie
Ġwrink led
Ġcho pped
Ġmo ons
Ġbeam ing
Ġrec order
un es
ell ow
Ġthan king
Ġsnow y
B eth
ĠWo lf
Ġenjoy able
Ġact ive
Ġexper ien
Ġsc urry
Ġc oral
ĠP iggy
Ġdoll ar
Ġenv iron
ĠK evin
Ġlo c
w orm
el ope
J e
ĠB ub
Ġstream ers
ĠM other
ĠPat ty
ud ged
ĠZ ack
ing er
Ġex amp
Su zy
Ġshort s
Ġshoo ed
Ġenviron ment
Ġ ill
T ree
Ġsc ent
Ġbru ises
ĠL uc
ust er
Ġgr at
B o
Ġhis ses
Ġsel f
Ġpl ugged
Ġsteer ing
ĠEls a
Ġwarri or
Ġvisit s
Ġexerc ises
ir l
ĠM in
ĠA r
ĠR el
sc reen
Ġcudd les
ap tain
Ġdan gers
Ġsqu ished
Ġun fortunately
Ġs igning
ĠL ight
R ay
be e
Ġdisappoin t
Ġpilot s
m unk
Ġapplaud ing
Ġgrat itude
ĠM oppy
Ġprov iding
Ġt ing
al f
ĠR ub
Ġtick les
Ġbad ger
Ġnight s
Ġju d
G row
Ġstorm s
ĠEls ie
Ġconvin ced
Ġyou n
ĠK elly
Ġrespons ib
Ġchoo sing
J oy
Ġbra ins
Ġactiv ity
Ġneare st
Ġyoun gest
A bby
Ġexplo ded
Ġarr anged
Ġcoug hed
ĠT re
ĠF ly
Ġreward ing
C laire
p r
Ġbo nd
g ood
Ġpe ep
ĠFl oppy
erp iece
Ġsun screen
M on
as ers
ĠJo an
ĠS weet
ĠTweet y
ĠK aty
ĠS al
il ities
Ġannoy ing
s n
Ġsoap y
me ow
S plash
Ġrail s
Ġlace s
Ġoff ic
ĠP ine
Ġthread s
Ġt apping
Ġappreci ated
ĠPh il
ĠP ick
bo ards
Ġemer ged
Ġwe ighing
Ġcongratul ated
Ġheart broken
Ġt in
ĠS il
D anger
Ġcrocodile s
Ġcl erk
Ġscr am
ĠN ancy
Ġattem pt
ĠA ny
Ġsn ug
Ġd ial
ĠK ay
Ġmess ed
w ater
Ah oy
Ġexamp le
Mom ma
Ġhook s
ĠJon ny
Ġtop s
Ġchip munk
Ġso ot
Ġbat hed
Ġguard ing
ĠT ippy
Ġmanag er
ort unately
ĠMic roscope
F riends
ĠD e
et ah
ĠB aa
Snow y
Ġmast erpiece
Ġer asers
Ġf et
ĠTom orrow
Ġtip s
Ġfin ishes
Ġcomm on
Ġdig s
Ġme mb
Ġnibb led
Ġtrot ted
Ġmemb ers
Ġkind er
Pe ople
Ġche etah
Ġchew s
Ġbl ond
Ġparticular ly
Ġbe ast
ir cle
Ġrip s
L izzy
Ġargum ent
Ġfa ith
at ive
ĠHelp ing
Ġearn ed
ĠJo ke
Ġobser ving
Ann e
Ġforgiven ess
ĠC ici
Ġche aper
ĠJ umpy
Ġfis hes
Ġcur l
Ġmis chie
Ġinst antly
Ġexperien ced
Ġc ages
ĠTw ist
Ġgener osity
Ros ie
Ġmischie vous
G r
Ġfo am
Ġmeow ing
B aa
ĠA g
Ġstore s
m ered
Ġgrand d
C indy
Ġmatter ed
etch up
Ġte les
Ġl imp
Ġp asses
Ġsleep s
S que
Ġbreath s
io let
Ġr in
end ing
ord inary
Ġgasp s
ĠFred die
et tle
Ġtr ans
G ot
Ġhat ch
ĠMom ma
Ġr umbling
o ver
ab ra
ĠHo pper
Ġaccompl ished
Ġgrass ho
Ġth ump
Ġstr um
ac ing
Ġmat s
Ġsmart est
Ġteles cope
Ġmo at
Ġwh ined
ĠI ce
Ġfarm ers
Ġj ugg
G ina
Ġscram bled
Ġdri p
ĠM ore
Ġgarden s
Rob bie
Ġsy rup
Ġcollap sed
Ġang rily
ide y
Ġforest s
Ġve gg
Ġdiscover ies
Ġsty les
ou raged
Ġexperience s
Ġto r
Ġmed als
ho le
Ġmean ing
Ġcon qu
ĠDo es
Ġotter s
Ġty pes
Ġf aint
p it
Ġf if
ac ock
Ġhard est
Ġsn apping
ad abra
er ing
Ġexpress ion
Ġmove ments
Ġch illy
Ġbubb ly
Ġsur v
Ġaff ect
Ġcour t
P inky
Ġvest s
Ġunf air
When ever
Ġscore s
Ġtooth brush
Ġextra ordinary
N ever
Ġatt itude
Ġhor ri
Ġvi br
ĠMon key
Ġblue bird
M o
ll s
m el
Ġspear s
Ġk etchup
ĠB erry
M other
Ġsoon er
Ġbehavi our
Ġgrassho pper
Ġha bit
Ġpat ches
y d
Ġmom ma
er ts
Ġaf ar
Ġpoke s
ĠAsh ley
K aren
l o
Ġsc ri
ĠF riend
Ġth ie
Ġthick er
J acob
J on
ĠF le
ĠT erry
Ġshr unk
Ġ icky
Ġsquee zes
Ġslither ed
Ġclass mates
Ġglitter ing
Ġprick ly
Ġexp ert
Ġto pp
Ġkneel ing
Ġann ounced
ĠR iri
ĠS uper
ell ing
Ġmark ing
Ġpe acock
ĠC ally
Ġcost s
ct ric
ĠA choo
Ġzigzag s
Ġwater mel
Ġthie ves
ĠA pp
Ġh ood
Ġjump er
ĠZ og
Ġact s
Ġsk irts
Ġwo lves
ĠCl oud
ĠSw im
Ġsque aky
Ġthumb s
Ġcon cer
P apa
Ġco coon
Ġbo ards
Ġwood cut
ĠBe cky
ĠEliz a
Ġser vant
id ence
aff le
Ġche ating
ĠJ ason
b u
Ġr aking
Ġtr ading
c at
Ġexplain ing
J essie
ĠE ric
ri ck
Ġtid ied
Ġb iscuit
ĠA c
Ġlunch time
Ġluck ily
ĠP uffy
an ced
Fr og
Ġspill ing
ĠD ay
F ire
ĠU se
ĠAn imal
ĠMad dy
ĠDan iel
Ġtrans form
Ġdess erts
r or
âĢ ¦
ĠM ine
ĠP ig
ĠG ill
ĠSt ill
r ough
am ma
Ġmess ages
Ġm irac
ĠC aptain
id y
Ġch ill
ĠG illy
ĠL ung
Ġbe ating
Ġwindows ill
ĠT ammy
o ot
Ġsee king
Ġa ctor
ĠL ina
ĠRain bow
ĠWill iam
it s
s se
ĠM ath
A ny
Ġfore shadow
pr il
w ar
ĠH i
ac les
ĠSt ep
Ġlean s
Blue y
ĠP inch
Ġde v
Ġcloth s
ĠT iger
F reeze
Ġhis sing
ĠFrank ie
ĠMon ster
B ounce
Ġfl ashing
rac adabra
Ġwatermel on
Ġfun n
ĠW il
Ġwind ing
Ġposit ive
Ġdisc ouraged
p op
Ġdri pped
Ġfor ts
Ġcompet e
Ġwoodcut ter
Ġtea pot
Ġpress ing
Ġdisagree ing
ick ing
Ġgl immering
Ġtidy ing
Ġtrust s
Ġkangaroo s
Ġvegg ies
ĠPe ep
Ġland ing
Ġtemp ted
ĠFl ora
Ġdo ck
Ġover w
Ġfor med
Ġsh allow
Ġr ack
Ġf ade
l ers
ĠTo oth
Ġwor st
Ġcop s
f lowers
Ġele ctric
el ing
Ġapolog y
Not hing
a i
i ving
ĠL ife
cream s
Ġsled s
ĠSil ver
Ġas s
up id
Ġcomet s
Ġsa v
ĠM ag
ĠJ elly
ĠSh ark
Ow l
Ġ 4
B ug
Ġp apa
Ġsitu ations
Ġconvers ation
Ġoffic ers
R ain
ĠR oger
ĠCh arlotte
ay e
Ġd ing
Ġsun s
st orm
ĠBut ter
âĢĿ ,
Ġpizz as
Ġzip s
Ġmill er
Ġstructure s
Ġscurry ing
Ġoverw hel
Ġf oggy
ĠAm ber
ĠH urry
ĠOl ivia
Ġgrandd aughter
ĠJane y
Z oe
Ġweb s
Ġdeser ved
R abbit
ĠY ummy
Ġcub s
ĠMix ie
ĠS asha
Ġopport unity
ĠB uster
ĠSp idey
ĠGo ld
Ġrhin o
Ġdifference s
Ġsn orted
ĠT ell
Ġquack ing
end ed
if ully
ĠBird s
F ifi
Ġhe aven
Ġunl o
Ġle vers
Ġinch worm
Ġin ter
Ġappro ach
ĠT yler
ĠB oom
Ġseagull s
Ġcooper ate
ĠRu fus
ĠFel ix
Ġpo sse
Ġposse ss
o f
Ġpo se
s ers
?âĢĿ .
rag on
wel come
and ra
ĠSm oke
Ġdisappoint ment
oc ular
Ġspeak s
Ġsneak s
Ġart work
sn ap
Ġbin ocular
Ġsc owl
Ġanswer ing
ĠSn ake
Ġsurf ed
ĠGra nd
Ġshort cut
Ġd ep
Ġs ipped
Ġrob in
Cl imb
ĠIn ky
Ġar rest
Ġre un
ss y
Ġam used
Ġribb it
ĠAm anda
Ġunwra pped
ug ar
Ġrepe ats
Ġappl ause
Ġpepper oni
ĠC ars
Ġcheck out
ĠM ae
Ġkey hole
L ia
Ġvisit or
Ġstri king
Ġpadd ling
Ġpuppet s
D eal
E at
Ġun z
Ġcro aked
Ġatt acked
ĠB rian
ĠC ircle
ĠG us
ors ie
ĠOt to
Ġsp ooky
E ach
ĠJe an
Ġgroan ed
Ġbeaut ifully
g ar
cident s
Ġcheck ing
Ġswimsuit s
Ġcons ider
u ses
ĠY ellow
Ġwater s
Ġg room
j est
ĠSque ak
ĠSl inky
y le
Ġin vent
Ġnet s
Ġexam s
L uke
et s
ot ion
Ġdry ing
ĠR ebecca
Ġl ump
ag ine
u dy
art in
ĠAunt ie
Ġshrug s
le st
s ie
Ġshy ly
Ġcheer fully
Ġshoot s
ĠS ince
Ġheel s
Ġso bbing
Ġhonk s
il i
Ġsh h
h ny
Ġch in
es ses
an ish
Ġhang s
Ġhealth ier
Ġwhimp ered
ĠM us
ic ious
M ilo
Ġcaterpill ars
Ġf ries
izz es
Ġmagnif ying
Slow ly
Ġsqu inted
ĠR atty
ĠF ind
Ġbl amed
Ġfascin ating
ch ing
ĠT ip
Ġfrustr ation
Ġsc ulp
Ġsculp ture
ou ched
Ġsh immering
ĠPen elope
Ġpo ss
ĠPe ace
ed ic
Ġs uck
Ġnumber ed
Ġple as
Sh aring
Ġnibb le
ĠW affle
am il
ell ie
oth y
Ġflow ing
Ġba a
i bbles
hing s
ĠO ff
Ġra ked
Ġgr umbled
Pe pper
th at
Ġbuild er
Bu bbles
e at
Ġgu ards
Ġpet ting
Ġfa cing
Ġsway ing
ĠWoo lly
rac ted
ĠH ar
Ġmyster ies
Ġsprink le
Ġdet ails
se y
Ġsn ort
Ġfl ock
Ġen emy
ĠBo at
Ġgood ies
Ġtable t
ĠB arry
Ġtexture s
ĠC urious
Ġw ig
Ġpo pping
Y esterday
Ġmar ve
Ġcount ries
Ġfan s
ĠJen n
Ġstack s
Ġcr ops
ĠGra cie
Ġwild flowers
h ow
Ġknob s
ĠSee ing
ĠTess a
Ġbush y
Ġloc al
Ġste w
Ġbow ing
Ġhunt ing
Ġang rier
Ġdrown ed
ĠBub u
Ġpeep ed
Ġbinocular s
Ġmap s
ĠM atch
Ġmoon light
ĠG low
Ġn iece
Ġqu izzes
ĠJohn son
ĠD eal
Ġoutfit s
O O
Ġweak er
Ġmind ful
Ġcrow ded
Ġwh oosh
Ġw rench
S qu
Ġend ings
cy cles
ĠBee f
I m
o ll
Ġhesit ation
Ġfl ashes
Ġproper ty
Ġbo il
Ġfo nd
ĠAnd rew
Ġun less
Ġcar ts
ĠO xy
Ġimagination s
Ġab ility
amil iar
get ic
Ġgl ared
ĠR ight
ĠAc cidents
Ġkn it
Ġha ven
st and
Ġfold s
Ġmic row
Ġspace s
Ġunf amiliar
ĠP et
th s
T una
Ġdirt ier
s aw
Ġresponsib ility
b ank
Ġdesk s
Ġp ouch
Ġmicrow ave
B less
Ġcrack er
ib ly
Ġd ate
Ġsw apped
rn ie
Ġmem ber
ĠO xygen
Ġast on
ĠR ing
ĠR avi
l t
ĠB un
C ra
W ant
Ġwh ine
f ree
Ġsoft ened
Ġdisappear ing
ĠHel en
Ġdoor step
ĠPe ggy
Ġre bu
ĠCh ip
Ġquack s
Ġn atur
ĠT oo
Ġlisten er
ĠF ix
sc ar
Ġwrit er
Ġpri v
ĠSp icy
Ġbl ushed
ven ir
Ġpalm s
Ġnot icing
ĠP ast
u pt
pe at
po ison
Ġsou venir
ent r
ĠT ra
ĠR es
Ġlaw s
Ġdis aster
ĠG abby
re peat
re g
st r
end ant
Ġph ones
Rob by
ĠL i
al a
ĠC ut
ĠB ert
ĠCo al
A va
Ġconf idence
Ġstir s
Ġtim id
Ġoverwhel med
ing ly
Ġfl ick
Be ing
Ġmay or
C he
gu ess
ĠMo le
ĠP retty
Ġt ugging
as mine
l or
Ġowl s
Ġmail ing
Ġsatis fa
Ġunt angle
Ġinj ured
ĠWh ite
Wh ose
ĠIm mediately
ĠB ooks
Ġconc entr
Ġsatisfa ction
F ly
ĠMar ch
ĠAnimal s
S c
Ġl im
m ers
ĠE at
M ittens
Ġpr ank
th is
ĠN ora
M abel
ĠWo nder
ĠB onnie
ĠK n
ĠP ot
ĠR un
W iggly
Ġhoo ves
ĠTri angle
ĠMel issa
ĠS ir
w ell
Ġfix er
ĠCl ose
ĠSt artled
ĠCle an
Je ff
Ġcl ut
Ġsn ar
ic ate
l ish
Ġsk ies
b ling
ĠTr ucky
Ġinstrum ent
Ex cited
Ġcap t
ĠMat ilda
ĠF aye
ĠH orsie
ad ually
Ġdisag re
Ġcre ak
Ġpe cks
ik y
Ġstain s
ĠSleep y
Ġwrigg led
Ġrin se
S usan
ĠS ing
Ġsh ave
ĠI cy
Ġbump ing
ĠHel i
ĠCra bby
ul f
Ġr uff
Ġbend ing
Ġswir l
cess ary
Ġexplor ation
Cl ose
ĠSc issors
Ġchat ted
Play ing
Ġsand pit
M ake
Ġle ver
Ġrod s
Ġfact s
S m
ĠC andy
Ġattach ing
ĠB ro
Ġfool ed
Ġbur ger
Ġglow s
Ġclear ly
Ġconcer ned
Ġcomp an
Ġsal on
Ġla va
Ġrever sing
May a
Ġcertain ly
el s
Ġsm elt
W ally
Ġcir c
Ġfet ched
Ġmotor cycles
Ġsomet ime
Ġold est
Ġpro d
Ġfiref lies
Ġt unes
Ġtr oll
R ing
Ġkiss ing
Ġchallen ges
Ġblond e
Ġwarm ed
ĠBob bie
K ayla
Ġb ound
Ġdifferent ly
Ġunlock ing
ĠL ots
Ġnatur al
s a
er g
urp le
T ara
Ġcut ter
Ġru bb
D ino
Ġdet ect
Ġcup cake
Ġconqu ered
Ab racadabra
Ġriver bank
Ġhat es
Ġall ey
ĠFl ap
Ġreal ise
s orry
Ġsend s
ĠO pen
Ġswir ls
ĠFlop sy
Is n
Ġwigg ling
Ġbang ing
ĠC ammy
Jul ia
Ġm unched
Ġsens ation
Ġf ist
Ġhipp os
Ġcl ips
ĠRel iable
Ġtopp ings
Ġst ings
Ġro be
Do ctor
Ġha lves
Ġbr akes
ĠGreen y
Ġsway ed
Ġmirac le
F ish
ĠP ink
H ope
Ġostri ches
ĠCl imb
Ġsurv ive
ul a
ber t
Ġbubb ling
Ġemb ra
Ġcr ushed
keep ers
M ichael
Ġother wise
Ġtor to
Ġtent s
ĠLook ing
an i
ĠO f
Ġrepair ing
Ġliz ards
Ġstretch y
ĠFlick er
ĠW orking
Ġvine gar
Ġrubb ish
ĠE d
Ġpassen ger
ast e
ĠWh ich
M any
Ġp ounced
Ġvibr ant
Ġtorto ise
ĠR h
ĠGr ump
Su zie
Ġscen e
g r
Ġb as
Ġgl ided
Ġmoo ed
Ġdesper ately
Ġsn ip
Ġp oop
Ġcalm er
Ġcop ied
ĠSunday s
Ġint ently
ĠLight ning
Ġma jest
n et
ra p
Ġj ing
Ġtw el
ĠP er
Ġwo ken
Ġjoy fully
Ġrag s
Ġjud ges
Ġcoo lest
Ġgl ob
ĠJo dy
Ġlecture s
sm elling
ly n
is ible
Ġh ips
Ġcous ins
Ġaston ished
ĠL u
Ġcap es
ĠOut side
un o
Ġarri ves
Ġsuccess fully
Ġspeak er
Ew w
Ġgoo ey
Ġreun ited
Ġgu esses
Ġinv isible
Ġbat s
wh y
Ġtwel ve
ur ity
Ġgood ness
Ġcomput ers
ĠCarl a
Mike y
Ġchat ting
nd ed
m ie
Ġstack ing
Ġsnowfl ake
Ġpark s
ist ory
Ġrac er
Ġcomm un
Ġpound s
Ġdesper ate
Ġreapp eared
Ġcompan ion
O l
b ed
Ġd ou
Ġan k
Ġle vel
Z igzag
Ġluck iest
Ġg all
Ġt ale
Ġd umb
Ġsell s
Ġcricket s
Ġstomach s
ĠS ugar
N ick
Ġs us
Ġwind s
igg les
Ġg ates
ĠSte ven
Ġdisobey ed
Ġdisagre ement
M ore
h ile
Ġho ses
Ġcr isp
Ġpearl s
ĠW hee
Ġaw hile
L ou
it es
Ġloyal ty
ĠOr ange
Ġpops ic
Ġso da
ĠRos a
Ġtong ues
L inda
re nt
ĠC D
us ion
Ġrid er
ĠBl ack
O oh
p an
Ġab o
Ġsure ly
ĠL aw
ĠAnn abelle
d es
Ġbu nd
col ored
Ġoccas ion
Ġst un
r um
d og
! âĢĻ
Ġchick s
izz a
Ġguit ars
ch ief
Ġintellig ence
Ġalligator s
Ġsepar ating
ĠI ron
Ġseas he
ĠR aven
ĠA pril
Ġrebu ild
Ġabo ard
F ound
Ġcre ep
Ġcro ak
ĠW inky
ĠV iolet
Ġc uc
Ġlearn er
ĠC are
ĠO ld
C atch
aid s
Somet hing
Ġcaut ion
Ġr ins
Ġwh ines
ĠUn i
Ġreveal ing
sol ut
Ġsp iky
Ġtick ling
Ġesc ap
w orking
ĠS ettle
ĠB a
ĠC oby
ĠRo ar
Ġunder water
Ġcr ouched
Ġglob e
Ġpr og
ever se
u dge
Ġbloom s
Ġ' '
Ġappear ance
!' .
J an
st op
if er
Ġle aking
Ġhat ched
se ph
Ġguard ian
ur ricane
f ived
ĠSo cky
Ġstroke s
arn ing
Ġt ant
Ġdo ves
Ġpersist ence
eal ing
Ġrout ine
Ġzoo keepers
Ġbl ame
Ġpain ful
S leep
Ġlight ing
Ġadm it
Ġqu ilt
Ġtap s
Ch icky
Sn ap
Ġsqu ashes
Ġmo ld
ĠP uff
Ġri pp
Ġdeep ly
T oys
Ah h
Ġsh attered
Ġtempt ing
Th ree
Ġthr one
gg les
ĠSp in
Ġpeek s
Ġbur gers
Ġcent re
R alph
Mat t
Ġsquir ted
Ġelectric ity
Ġsec urity
c on
em on
Ġcook s
Ġallow ing
Ġreal izing
ĠL iam
Ġl ar
ck er
o ss
ort h
us hes
Ġcho pping
Jess ica
Ġexch ange
ĠA lf
ĠR ace
Ġsweet ly
Sh are
ĠQuick ly
S ophia
ver ing
Ġsweet er
Ġglitt ered
Ġrins ed
is app
S w
ĠIn ch
Ġbuild ers
Ġmelt s
Z ero
Ġmel ody
Ġfu rious
Ġdefe ated
Ġener getic
Ġgo ggles
as y
ĠC omet
ĠCat s
Ġsniff led
Ġwa ded
Ġchoo ses
ĠOther wise
Ġtant rum
ĠG iant
Ġcompet ing
Ġcontain er
ĠM ila
b ang
ere my
ĠSh arp
ar ted
Ġh udd
Ġl ull
ĠP ark
ĠR ara
Ġprotect ion
Ġserious ly
ĠD uke
Ġund one
Ġattempt s
Ġlar ger
Ġcl uck
ĠC her
ĠWh ale
Ġbuck les
Ġhelicopter s
Ġcoo ed
Sh oo
Ġtoss ing
L izzie
ĠPinch y
ĠO ver
S weet
ĠSm o
ĠT ears
ĠH or
ĠM a
ĠD in
St ill
Ġhum med
Ġcourage ous
Sque aky
Ġd edic
solut ely
Ġgo d
Ġal oud
Ġmu ster
Ġpatient s
Every thing
Ġrac ers
Ġdeser ves
C urious
Mad dy
ĠT hings
U se
ap s
ĠSque e
ĠD ragon
ĠJ et
Ġmar vel
Ġmeet s
Ġtour s
ĠLiz a
ĠR usty
ĠR eddy
Ġwra pper
ĠH ops
Fr oggy
ĠCr usty
Ġbo oth
Ġnice st
Ġwh iskers
Ġimpro ving
ĠL and
Ġbo ld
Ġimag inary
Ġmeadow s
ĠSt arry
Rock y
S urrender
Ġob st
ĠPe bby
ĠS ummer
!' "
Tw inkle
Ġbl ades
" !
w are
Ġop t
Ġpair s
Ġrisk y
Ġstro lled
Ġcr uel
Ġpeel s
ssss ssss
s he
ĠK ind
M ina
J une
ĠJo anna
Ġwink s
ĠBra in
Ġincred ibly
O P
S ay
ic ally
me al
Ġtank s
Ġneare r
Ġsquaw k
ĠExcited ly
Ġto t
ra w
C are
Ġar my
l os
Ġmess ier
Ġlamp s
Ġpedal ing
Ġtransform ed
I ce
Ġst ur
Ġfa il
ead ing
Dave y
ĠR iley
Ġinj u
c an
k ind
ill as
Ġpe ak
Ġre ct
Jack ie
Ġfu ss
sh rink
Ġmunch ing
Ġhorri ble
A w
Ġtre as
gu ard
Ġover head
Ġholiday s
Ġn arrow
Ġunwra p
ĠSwim my
ĠK yle
Ġdry er
Ġbo iling
ĠP atient
Pipp a
Ġpuff ed
Ġpan icking
on ed
Ġho st
ĠP ass
Ġdive s
Ġposs ib
ight y
Ġoff ers
Ġsoft est
ĠBree zy
cl oth
Ġconf usion
k a
Ġmust n
Jen na
M arth
ĠJen nie
Ġun covered
Ġmarve led
Ġall erg
Marth a
al y
ĠB ell
Ġcool ed
Ġeld ers
uct ion
m o
Ġr oo
Ġsc re
ĠG u
ic iest
ĠV ery
ĠDog s
Ġd ips
J anie
Ġcur rent
Ġmuster ed
Ġgrate fully
Ġcher ish
Ġchain s
Ġrot ted
ĠSun shine
Ġcoug hing
ĠWin ter
Ġheight s
Ġgl anced
Ġank le
Ġtreas ured
id i
Ġ- -
par able
Mad die
' ?"
ĠBr uce
Ġsh aky
Ġs inking
Ġheav ily
Ġcup boards
ĠO scar
Ġenc los
Ġenclos ure
ri ce
Ġsp are
Ġm ac
Ġsle igh
S ky
ĠCro codile
ĠM artin
Ġgall op
Ġinse parable
ĠBr ad
ĠCl ay
ĠSp inny
Ġoat meal
ir ing
Ġcan v
Ġh ob
ĠF a
our ed
ipp ers
Ġl ush
M ove
Ġr iddle
Ġclub s
Ġse ction
E njoy
Ġd ashed
Ġne cessary
a fe
Ġcon v
pe ople
P rin
st antly
ĠSqu are
ĠMon a
ĠP urple
M el
Ġun st
ir affe
Ġsa x
A nt
Ġorder ing
Ġpra ise
ĠDid i
Ġglitt ery
Ġdev ast
D are
Ġzipp ers
ĠRob in
Ġrainco ats
Ġhundred s
Ġscen ery
ĠFriend ship
Ġallerg ic
ĠB ar
ĠD illy
gg ie
an tern
Ġsuggest s
ĠV al
Ġrow ing
Ġcomple ting
ĠJan et
T urn
Ġa rom
ĠCar ly
Ġconv ince
N e
Ġflo ppy
Ġmush y
Ġn ations
ĠB elle
Ġcharac ter
Ġcond ition
ate st
Ġpract ised
Ġmusician s
Ġrecommend ation
ot ch
B oom
Ġse ated
Ġch atter
P romise
is bee
ĠT idy
ĠW he
Ġskip s
ĠPot ato
all ed
Ġsl ot
sh op
Ġdri ll
ild ren
Ġborrow ing
ĠLe ah
Ġhudd led
Ġcanv as
en n
ĠH a
ĠC ould
h and
ĠP ee
ais ie
St artled
Ġexper iment
Ġsoot hing
Ġho vering
Ġlull aby
Ġdevast ated
ir ty
Ġrem o
Ġenjoy s
ĠO ak
app le
Ġgl isten
cl ock
ĠCr ane
ĠPat rick
E l
Ġre ck
Ġch ili
Ġpleas ant
ep eat
am ing
R ight
if t
Ġho ot
Ġrock y
ĠC ell
m ate
ĠN umber
ĠBr ush
ĠFl uff
Ġsp arrow
Sam antha
ĠRes pect
Ġf ulf
ĠM s
Ġshow ers
ĠS keleton
Ġvalu es
Ġairpl anes
Frank ie
Ġcomp romise
Ġtempt ation
ĠAg ain
Ġhair s
Ġro yal
Ġchalk s
Ġcond uct
Ġsus p
Ġpl at
Ġfold ers
rob es
im mered
Ġdist racted
ĠH urricane
ĠM op
ĠCl ub
ĠPaul a
Ġunf old
Ġcompl iment
F ortunately
Ġreck less
Ġre cess
Jack y
Ġhead ache
Ġmust aches
S imon
Ġactor s
ĠLi bby
Ġab solutely
Ġgor illas
Ġplat form
a ily
ic o
Ġp iled
Ġcord s
ĠY um
Ch ris
Ġconsider ate
Ġtowns people
w en
P am
ĠF un
e ven
l ike
Ġsmo king
ĠAl arm
ĠCar rot
ace y
Ġcomb s
Ġchar ged
Ġla sers
H E
r ings
Ġpant ry
ĠE ating
Ġshield s
ĠCar rie
Ġstur dy
Ġarom a
g n
d ers
So f
sc otch
Ġpe a
Ġwa nna
ĠP ar
Ġhor ror
Ġwa x
Ġas hes
Ġbeep ing
Ġdisappear s
ĠE rnie
Ġcommun icate
Ġconduct or
Ġbuy s
Ġpet al
Ġfence s
ĠLe af
ĠAl an
Ġladybug s
Ġsilent ly
Ġsp ades
P oor
Ġl un
Ġab ack
ĠSt and
Ġwob bles
Ġl en
ĠW ake
Ġy uck
Ġs ilk
L arry
Ġmagnif ic
W in
Ġho llow
Ġwarm est
Ġham ster
Al though
ĠBro ccoli
S k
ĠH ank
Ġp ail
Ġcave s
Ġmot ions
Ġmove ment
Ġload s
Ġlife guard
Ġwh ir
Ġs ly
Ġembarrass ing
Ġagree ing
Ġsn oring
H oor
ĠTh rough
Ġear rings
Hoor ay
Ġcl im
Ġbl ade
ate ful
ĠF izzy
ĠSp oon
ĠHor sy
ĠSo ar
M ix
Ġcable s
ĠMar ley
Ġais les
Ġpay off
Ġscowl ed
ĠJ asmine
Ġha re
m ark
Ġsl ight
Ġalong side
Ġpossib ilities
Ġl il
ĠC ake
Ġsign al
Ġscratch y
ĠGrace ful
ĠStan ley
Ġant lers
S ir
Ġwheel b
ĠU gly
Ġpad s
N ana
Im agine
Ġdedic ation
Ġwheelb arrow
re m
C on
oo h
D uck
Ġlook out
ĠSo ap
Ġro ast
Ġh uff
la us
ĠTuesday s
W isdom
Ġconfident ly
C hew
Ġdump ed
ĠB ark
Ġpl ank
Ġwood pe
ĠS is
i bo
ĠF ork
Ġke en
Ġhurt ful
Ġhand les
ĠR ad
Ġcher ished
ĠP anda
rey a
ĠLuc as
Ġwork shop
N G
o kay
Ġcoll ars
Cat ty
P retty
Ġco con
Ġcocon ut
Ġfly er
ĠAll ie
ĠG ert
Ġharm ony
ĠR eading
um ed
Ġcar ton
Ġco de
ian a
Ġhar vest
Ġmesmer ised
Ġsquaw ked
Ġdefe at
Ġun kind
Ġgre atest
Ġmagnific ent
ic s
B op
ĠE ver
Ġra ises
ĠBe be
Ġpro cess
Ġpistol s
P h
ow ing
Ġ âĢĿ
. âĢĻ
Ġdr oop
Ġcro sses
ĠA f
Ġg ul
ĠC olin
h orse
ĠMus ic
ĠBr uno
Ġprog ress
Ġgul ped
Ġ Ġ
st al
ĠJ am
Hi ppy
Ġmix es
ĠS chool
Ġwh ipped
Ġwhe ther
good bye
Ġfunn iest
ĠMag net
Ġsax ophone
ĠC laus
Ġdecid ing
Ġcap ture
Ġcudd ling
Ġinf orm
Ġpo llen
c ra
ĠW r
ĠT ick
F ree
O lly
Ġh oof
Ġbeg s
Ġgu ided
Ġtent acles
T e
K ing
Ġmagic ally
in ct
Ġst inky
Ġyawn s
ĠApp le
Ġglisten ing
Ġgr ump
ĠK en
ĠAm i
l ings
imb o
Ġgr uff
St ar
Ġparrot s
ĠCo ffee
Ġsle eve
A bbie
Ġclothes line
ĠC omp
Ġclim ber
Ġwoodpe cker
k i
ĠH at
Ġfl uff
ĠO ink
Ġspl itting
Ġd izz
Ġhalf way
ĠRob ot
Ġh int
Ġlil ies
ĠBe a
ĠD uring
Sh ow
Ġres pecting
Ġcraft s
Ġsleep over
ĠS andra
am i
Ġsl urp
Ġste ered
Rob ert
ongratul ations
ĠCook ies
th ur
ray s
Ġwid ely
Ġcontin uing
Ġn udged
Ġdep ths
Ġdust pan
ĠH ook
Ġrun ny
C ara
Who a
Ġtast iest
ĠRo xy
Ġachieve ment
Ġamong st
s urrender
Ġj igg
Ġmot ors
Ġshot s
ĠG emma
ry stal
' !"
But ter
ĠO uch
Ġlon el
Ġband s
ĠN ature
Ġc alf
Gr anny
ĠM amma
Any time
Squ irrel
Ġcirc led
Ġfarm s
Ġglad ly
sh irt
Ġst alk
Ġtrail er
Ġbleed s
Sp ring
ĠJon athan
ĠG inger
Ġthe at
Ġm ur
ĠC ream
ĠM ail
Ġhide out
ĠO p
Ġbend y
Ġsou l
Ġbath robes
Ġsc ience
A na
Ġvent ure
Ġdod ging
Ġfright ening
ĠCher ry
Ġpl o
ĠL ast
ĠT oy
col ate
ĠN elly
ĠN ate
St ella
Ġtrunk s
Ġwarn s
Jon ny
Ġ 9
nd y
S it
ke st
b ook
Ġsk ate
Ġcomp ared
o ors
Ġtick ing
Ġfloat y
Sad ie
Ġpan cake
Ġind oors
ce ll
us y
ĠD el
ĠCh oo
Ġbl ush
en na
Ġenter ing
ĠP romise
Ġsnar led
Ġfr isbee
C ow
Ġt ill
Ġset up
Ġgiant s
Ġstra p
Ġspirit s
boo s
ĠJu ice
Ġintroduc ing
Ġavo ided
ĠSp ider
ĠJo sie
Ġd aily
ĠB ibo
ĠAf ric
ĠW as
ĠP ir
See ing
ĠCo coa
Fo xy
Ġsolut ions
Ġexplo de
ĠFe ather
Ġlen g
Ġdin ing
ĠSt ri
Ġunz ip
Ġp ace
h nn
Ġsc ree
Ġenthusiastic ally
ĠThe rmometer
Ġwigg les
Ġsupply ing
Ġpur ring
utter ed
G ogo
Ġto ne
Ġrest oring
Ġlimp ed
Ġham mers
R A
u ise
F our
t led
ĠCh ar
Ġpres chool
Ġpro ved
Ġcontain ed
L aura
Ġsusp icious
ĠSis i
ĠM ac
Tom orrow
Ġisland s
With out
ĠCar ol
ay lor
Ġtheat re
es y
ĠT uck
ĠS urpr
Ġw etter
Ġw icked
Ġleop ards
Ġp urch
ĠDan cing
Ġlim its
Ġin n
Ġown ing
Ġroll er
Ġac cess
ĠSh ake
Ġhop scotch
hnn ie
it am
are t
ĠTe ach
ĠTre es
Ġfl ippers
g ra
Ġsl ime
en ses
Ġlast ed
Ġj aws
Ġthunder storm
g aret
T ell
ĠP ep
ar ies
B oun
os p
ustr ated
Ġaunt ie
Ġn anny
ĠSt ealing
j ust
Ġobedient ly
Ġgr adually
Ġinn oc
Ġpo les
s itter
Ġrust le
Ġbund le
ĠJenn ifer
c he
O ver
Ġwe ed
ĠJ es
ĠG ret
Ġdri es
Ġcur ve
Ġthreat ened
yd ia
ĠN ibbles
Ġsc aly
an n
Ġr ises
az ors
Ġne ighed
Al ong
Ġtwir ls
R everse
Ġroo ster
o colate
Ġv itam
F riend
Ġbl ur
Ġab and
ĠS illy
Ġvill ain
Ġcalm ing
Ġrepair man
Ġstain ed
ĠJoan ne
Ġm end
ell er
Ġag es
Ġbird ie
Ġpl us
Ġgra in
ĠF unny
P ush
Ġgr unt
ĠBe es
Ġpant ing
Ġtuck s
Ġting ling
Ġmajest ic
A r
ar on
Ġsh ame
ĠD ull
T oto
Ġur ging
ĠChe e
Ġsmo ky
ĠPr une
Ġrec ipes
ĠW ow
We e
Ġhun ger
Ġchirp s
Ġexerc ising
ĠClean ing
Ġescap ing
Ġfour th
Ġnotebook s
Ġchallen ged
ĠJo die
Ġtw itched
prin t
Ġ2 0
yl an
ĠFe eling
Ġflow ed
oy al
ac her
Ġfr ames
gg ing
Ġsmo other
Ġmissile s
te en
Ġpoison ous
Ġpeck ing
Ġstroll er
Ġrect angle
Ġbl ob
ĠT urn
ĠSh ould
ĠPat ches
Ġdod ges
ĠSing ing
? !
iss y
ĠBut ton
ĠW orm
ier ce
ĠThank fully
E ls
ud rey
el sey
T en
B et
Ġbl ed
Ġtr im
ĠS itting
Ġle aped
Ġpossess ions
oss om
Ġlight ly
Ġinv ol
al ity
Ġhandle b
Ġnotice s
Ġkneel s
Ġflood ed
Ġcomm and
Ġtipto es
Ġdetect ive
ĠG iraffe
Ġl antern
cell ent
on k
is her
Ġloo s
Ġsc ut
P op
ang a
Ġsmooth ly
ĠT ube
ĠTw isty
Ġcrisp y
Ġche esy
W o
il ar
b ur
ic al
P ick
Ġmill ion
ĠAfter wards
Ġjugg le
ĠAfric a
b s
re et
ĠD oug
Ġde vice
Ġflav our
ent ial
Ġprotect s
Ġrecord s
ĠR umble
Ro ver
Ġplo pped
Ġbaby sitter
F e
ĠT op
Ġsw at
ĠE ve
Ġbright ened
A lly
Ġchew y
Ġflashlight s
Ġtooth p
Ġdust ed
Ġstrike s
Ġpound ing
Ġrout e
T HE
Ġinst inct
Ġm itt
ĠD i
ĠL ady
ĠP a
Ġper se
Ġst iff
ĠCl are
ĠC act
Ġstare s
Ġ1 2
F ido
ĠRon ny
Ġmis chief
Ġremo ving
ĠS ly
ĠHer o
ab ella
Ġo ars
Ġstomp ing
Y ears
Ġnight stand
Ġt end
ic ated
Ġcontent ed
ĠG irl
ĠOff icer
ic ia
Ġvo l
y ield
Ġdist ract
Ġpri est
Ġturkey s
ĠFl ash
ĠDr ink
Ġbru ise
Ġreapp ear
Care ful
Boun cy
v o
Ġa id
D ing
Ġc ig
W oo
ĠA very
ĠM ill
Ġbra id
Ġde ck
J illy
or ious
P ass
Ġpers u
Ġperform ers
Ġref using
Ġund o
Ġbo lt
ĠJo seph
ĠJ eremy
Ġth irty
Ġsea horse
ĠChee se
Bet sy
y a
J ay
Ġat op
Ġeyes h
Ġquick er
Ġwag ons
Ġra is
Ġorgan ised
im ents
F iona
ĠGu ard
Con fused
Ġeyesh adow
ĠP ear
Ġright ful
ĠN ed
ĠZoom ie
Ġdisplay ing
ĠCo zy
ern ie
Ġraindr op
N obody
Ġchar ity
Ġunlo ad
Ġdisg uise
w o
ig e
ĠM ild
A ng
Ġshrimp s
Ġpr ison
Ġstud ies
Ġarrest ed
Ġtable cloth
B ra
um n
Ġun c
ĠD ream
l ock
Ġlo ser
Ġvi ol
Ġoccas ions
ĠF ortunately
Ġju iciest
Ġslight ly
Ġm ound
Ġl ur
ĠSo ft
Ġtri pping
ab eth
Ġlow ers
are tt
ĠFl ame
Ġladyb ird
Ġscr unched
ĠB elieve
Ġfif ty
Jo hny
Ġleng th
ous ly
Ġstor my
chan ted
Fo x
Wh istle
ĠMatt hew
Br own
Ġdial ed
w oo
f riend
Ġh ike
Ġla unch
Ġbirthday s
Ġfierce ly
ĠO stri
Ġso ggy
Ġcomm unity
st upid
ĠF reya
Ġlonel iness
U p
C le
ĠL a
our ce
ex it
Ġsnow ing
Ġkn itting
Ġhope less
ĠH onest
Ġdo zed
Ġinform ation
et t
re ase
ĠG ia
ĠDo ll
Ġr umbled
Ġteaspoon s
ĠD usty
ĠBess y
Ġt iring
Ġcig arett
Ġbo iled
ĠG or
ĠDo ing
Ġro amed
Ġfor ced
Ġs umm
ĠM ighty
Ġres ource
pp a
H el
Ġdi v
asp er
Ġboard ed
Ġtrumpet s
Ġunt angled
rup ted
Ġforeshadow ed
Ġen chanted
Ġg le
Ġcute st
orn ado
Ġhoney com
ĠFr an
Ġany body
ĠR ani
ĠCare fully
at ic
Ġfix es
Ġocean s
Ġguard ed
ĠSm all
Ġscru bbing
Ġwrist s
D rink
ĠDe af
ĠG reg
o d
!âĢĿ ,
r ina
ĠN icky
ĠMe ow
Mar ie
p oke
ĠH airy
p hew
Ġduck lings
Ġs im
M ind
ĠB oy
Ġdrag s
D izzy
Ġcomb ing
Ġroof s
ik a
Ġaccept ing
Ġevent s
Ġstret cher
Ġw itches
Ġne phew
B C
i or
in ting
co ver
ol ph
Ġscold ing
ĠF anny
jam in
ĠFa ith
Ġpine apple
Ġant enna
Ġat m
Ġt ul
b elt
ĠM elt
ank y
and el
Ġch amp
Ġlake s
ĠBr other
Ġpro ceed
Ġrul ed
Ġp ounce
ĠSe an
Ġer upt
ĠKind ness
osp here
Ġatm osphere
ad a
F ive
f lies
Ġcreep y
Ġaband oned
P r
g re
Ġr ay
ĠShe ll
c ies
Ġpin ches
t alk
Ġsalad s
Ġdesign er
Ġpr ops
ĠA BC
Ġpark ing
n ings
x ie
ĠS ale
Ġsnugg les
Ġbang s
ul iar
val ue
ĠM aisie
gr ateful
Ġpec uliar
S H
or is
Ġk ill
G us
To dd
Ġmis ty
Ġri cher
Ġdizz iness
Ġhandleb ars
B le
f ant
Ġwin king
ĠJo Jo
To ot
Ġba it
Ġgor ge
Ġcontent s
Sp ark
An other
Ol iver
ĠE n
Ġhow l
ess a
Ġyard s
bo om
Ġsoft ness
Dan iel
Ġemergen cies
oo ked
ĠSo ck
ĠR oy
Ġpro f
Ġvolcano es
Ġsne aking
Ġterri bly
Ġseat belt
S on
Ġpl um
ĠW orry
Ġstri ct
Ġgu ilt
Ġdest r
Ġbeg un
V elvet
ĠMat ty
Ġje ans
Ġgrandchild ren
: "
Ġwalk ie
Ġfan c
Ġtrust y
Ġfisher men
R yan
M ae
Ġmanag ing
Ġexch anged
ress ed
ĠF ather
ash ion
Ġspo ken
Ġjog s
ĠBe an
Ġpres ence
R uth
Ġsub ject
ĠBill ie
S anta
ĠJ etty
ĠFle xible
Ġclut ched
ĠG wen
Ġgorge ous
Ġli ar
g ain
ĠL ong
Ġri ches
ĠSt r
Ġwand s
Ġstri pe
ĠTim othy
Ġvitam ins
c ar
op ard
ĠG en
Ġd amp
ey ed
Ġunl ike
Gra nd
Ġvalu ing
Ġgrand k
Ġheav iest
Ġarr ange
ĠSal t
Ġforeshadow ing
ĠIn stantly
Ch ildren
Ġli f
ĠHe el
ĠW ar
ĠK at
L ove
Ġmailbox es
Ġsett ling
Ġdelay ing
Ġsh aker
C athy
ĠPass port
Ble ch
ĠA d
Ġd ia
Ġcr ust
Ġreal ity
Ġspe ck
ĠK enny
ĠT iki
l aud
Ġrhythm s
ĠMic ro
Prin cess
f er
Ġsun b
Ġad op
ĠAs k
Ġuse less
ĠSh ine
Ġener g
ĠA men
Ġblink s
Ġlad ders
Sof ia
ĠGert ie
ĠK anga
st ack
D ee
Ġkind est
Ġs izz
Ġsn atch
f low
Ġrequest s
Ġprom ising
Ġrele asing
Ġdad dies
Ġripp les
Ġunst uck
Ġcl in
Ġsun g
ous and
Ġhand y
ess ion
Ġsm ash
H olly
ĠCh uck
ol o
Ġappear s
ĠCh omp
ĠK ai
P er
on ight
v ie
ĠS ail
Ġexpl an
M aisy
Ġcomp are
Ġperform er
Ġtap es
ĠCh ippy
Ġt ales
ir ls
Ġm ashed
ĠN eed
K aty
Be ware
Sk ip
ĠMar garet
Ġinter rupted
Ġun grateful
ant s
ĠC e
Ġpudd ing
Ġf itting
Ġclo cks
Ġmeet ings
Every day
Ġsink s
Ġpra ises
Ġruff led
el ine
ĠR andy
Ġsqu irt
Ġt umbling
N ancy
Ġlun ged
Ġhoneycom b
P en
Ġd ong
Ġop er
Ġclot hing
Ġgra sp
Ġbarrel s
Ġresist ing
Ġvalley s
ĠRu d
Am elia
R oger
S l
c ri
ĠM ind
As h
ĠC ube
ĠSh iver
Ġunlock s
Ġlawy ers
Ġloving ly
Ġslam s
Ġde eds
Ġtot ally
Ġw il
ĠT ap
Ġo ink
be h
Ġread er
Ġdes ce
aw k
Bl ink
Ġpit cher
Ġann ounce
Ġho vered
Ġelbow s
b elieve
ĠMin nie
Ġsome how
Ġinju ries
Ġpurch ase
ure n
el ace
Ġstor ing
ĠOn ion
Ġac rob
ĠNo ah
Ġsurround ing
Ġreass uring
Ġtr udged
Ġproceed ed
Ġsho elace
ul ture
B ree
? âĢĻ
ĠG oose
Ġsick ness
Ġskin ny
Ġout come
Ġwra ppers
W endy
Ġyelp s
ĠJelly fish
rem ely
o k
Ġpat ting
i rework
y la
Ġinst ant
Ġcras hes
Ġatt endant
Ġlic enses
Ġhe y
Ġst ate
Ġgreat er
Ġsweet ness
Ġfl utes
ĠAlex a
hee se
Ġdar ted
Ġnibb ling
Ġbound ed
ĠSmo key
Ġr azors
Ġext remely
Ġr is
Ġball er
ouse l
ĠR a
Ġthought fully
ĠD ory
iv ated
Ġstrip ed
Ġcl ucked
Ġcur ls
ĠFu zz
ar oni
Ġch attered
Ġover flow
Ġn in
ĠI nt
Ġsh uff
Ġc af
Ġb ins
ĠBra ve
Ġconnect ion
Ġpre fer
Ġth ousand
Ġto ad
Ġv ar
i ara
Ġprice s
Ġt ippy
Ġgr anny
ĠDr op
ĠF urry
Ġseashe lls
Ġrais ins
Ġcar ousel
ĠS it
re ck
ĠF it
? ,"
Ġt ink
Ġit ches
Ġsol id
Ġkay aking
Be cky
ĠMe anwhile
Ġservant s
Ġcomm otion
Ġg n
ĠD ash
Ġnest led
Ġrad i
Ġdo dge
Ġdisgust ed
Ġstem s
f illed
Ġdou b
Ġcuc umber
ĠL emon
ĠT aylor
Ġexplan ation
D el
a way
Ġpass ion
Ġcrack ing
ĠH anger
Ġbless ed
ĠJo hny
ĠF ierce
c st
ump h
Ġele ven
r idge
Ġscar ier
Ġstream ing
Ġskeleton s
ĠD ictionary
Ġmed ium
ĠCl aw
ĠL ayla
alf way
ĠPet ey
Ġtimid ly
he arted
un ior
Ã ©
E E
r am
Ġbo ast
ĠR ick
Ġwh izz
Ġeld er
Ġbeep s
Ġconc ert
Ġsquir med
ait lyn
ĠSquee ze
oo s
L uc
f ield
ĠH ipp
Ġs ons
r ope
Gra b
Ġfresh ly
ĠIs la
Ġfl akes
Ab i
ĠNe ither
ĠOstri ch
E n
Ġsick er
ĠCat ch
Ġspeed s
Ġbo omed
Ch oose
Ġpract ising
Bird ie
Ġwrink ly
ĠGold ie
Excited ly
ĠC rystal
Ġinstinct s
Ġtrain ing
ĠC ass
ĠW ork
H enny
ĠClimb ing
Ġembra ce
ĠAr thur
Ġgrandk ids
Ġe cst
il s
ĠB ull
M oon
ĠO ct
Ġspr ings
Ġer ased
Ġcere m
R icky
ĠCar oline
Ġsal sa
ĠAl bert
t wo
ĠMelt y
ĠRud olph
Ġmac aroni
ra in
ĠS ack
Ġli king
Ġdon ut
c ip
ĠD ough
th an
uc cess
Ġlock ing
Ġcact i
Ġdrag ging
ĠSh all
Ġwaste ful
St retch
D espite
ĠPast el
ĠP izza
h aps
ĠL oyal
O ld
Ġb ould
ĠSpot ty
Ġse vent
w ee
Ġvac u
ĠH orse
Ġcompl icated
Ġballer ina
Ġwas p
ch a
ĠW ind
m ade
D ara
d ream
ock s
Ġsor row
Ġqu itting
Ġd iver
Ġcoll age
ĠM ilk
Ġl umpy
Ġob l
L ost
Ġspread s
Ġenv y
isapp ear
Ġobst acles
ĠPir ate
ĠIn fant
Ġecst atic
Ġcerem ony
k er
ĠS on
j ack
ĠTh ink
Ġad v
You ng
Ġgl oom
r imp
M atch
Ġur ges
Ġstun ned
Ġch ann
F un
get s
Ġfl am
Ch irp
Ġaw a
Ġsnail s
G abby
ĠWil ma
Ġass ist
Ġcare free
Ġp endant
Ġfavor ites
ĠS usy
Ġo gre
W he
Ġd im
Ġsn ore
Ġlo bby
Ġstation s
Ġcur ves
Ġequ ally
a ction
Ġcaulif lowers
Ġf ading
Ġsuper mark
Ġscree ch
C RA
ĠT ornado
al ia
ĠM ust
v ious
Ġmusic al
Ġsa ves
t ling
Ġcl ung
Ġdelight ful
Ġshin iest
sol ved
ĠAny thing
Ġprin cip
Ġsupermark et
d on
ĠF ore
L ion
Ġcra z
Ġhome less
Ġplay fully
ĠM ost
Ġlunch box
Ġfor wards
Ġsnugg ling
Ġscoop ing
Ġweight s
ĠD ora
Pat ty
Ġcut ters
ĠH ilda
Ġting le
ĠL ydia
Ġcr anky
i w
c ted
Ġfr ant
s ery
Ġtick ly
ĠCl own
Ġre covered
Ġinvent ion
p ill
ine ma
ĠC ount
Ġgra ins
e ves
Ġprince s
Ġbal c
Ġprevent ing
Ġinclu des
Ġuns afe
ĠChar les
Ġinnoc ent
ĠGret a
ĠIs abella
Ġpor ridge
Ġday dream
h h
ĠWe st
Ġgarden ing
Ġv oy
Ġsound ly
ĠG ail
Ġcalm s
C aw
ĠR ory
Ġmop s
Ġsteam ing
Ġpriv acy
Ġcapt ured
ĠAlf ie
ĠDin ner
Ġtoothp aste
Ġd andel
Ġtight rope
Ġsle eves
Ġm id
ex i
Ġclo ak
Ġmo les
ĠP ol
umb les
arl a
ict ory
Ġindepend ence
I zzy
Ġsniff ling
Ġtroph ies
Ġremain s
Ġser vice
J ason
E va
U sing
Ġsuitcase s
Ġpriv ate
Ġgallop ed
ĠB ernie
Ġdestr uction
Ġtri umph
Ġch a
ĠC all
ball s
Ġdish onest
ĠBo x
Paul a
Ġscra pe
ĠA udrey
Ġre action
Ġnur sery
Ġc inema
ur r
it ive
Ġg ummy
Ġdoll y
Ġfull y
l ove
Ġanxious ly
Ġpony t
Ġallow ance
Ġrat tle
Ġstro lling
ĠAng ie
ĠFle a
ĠSp anish
Ġloos en
ĠA v
Ġout ing
C ool
Ġthin ner
Ġout sm
Ġswir led
ĠCro co
Ġlur king
Ġc ulture
Ġprincip al
P l
m ar
Ġto ck
w ine
M ister
oin t
Ġsupport ive
Em my
Ġdiscuss ion
sh ips
Ġgl iding
Ġadd ition
ĠOp era
oo ke
! ,"
imb a
M ila
Ġspr ung
Ġclean est
ĠAs htray
ĠSh ampoo
Ġearthquake s
Ġdog gie
Ġbank s
Ġsweep ing
Ġnuzz les
ĠPear l
Ġbalc ony
u h
Ġv ast
m ail
llow ed
K elly
ĠSt u
Ġre port
Ġpit s
Ġsteak s
Ġab ilities
R epeat
Ġbe gging
talk ie
Ġmor nings
Ġflam ingo
A R
Ġgood s
ĠD V
ĠB urt
ĠTh ree
ĠR ag
an ana
Ġunicorn s
Ġproject s
Ġcat cher
Ġdisob edient
Ġon line
ĠNe w
Ġchamp ion
Ġvoy age
Ġ 8
r it
Ġbr ake
id dy
Ġmess ing
Ġsad dle
ĠRos y
Ġadventure rs
ĠJ ellie
Fe eling
ĠDV D
u ri
H ide
Ġcho ke
Ġnumber ing
Ġsh aken
ik o
Ġphot og
Ġcr anes
ĠHug s
Ġpopsic les
Ġunfold ed
Ph il
ĠABC s
ĠH and
ĠP ain
Ġapp et
Ġhow led
Ġrepl ies
Ġmum s
Ġun iting
ĠSk ull
Ġswir ling
Ġsqueak s
Ch arlotte
ĠBo ssy
ett i
il st
ve y
Ġb udd
id ance
Ġpart ner
Ġdeep est
f lower
com ing
ĠMar cy
Surpr ised
Ġwh ining
Ġgod mother
ĠGor illa
ĠSlow poke
ĠBen jamin
Ġgu idance
in c
ĠW or
Ġp ave
Ġstr ay
Ġground ed
Ġsp ied
Ġdes ire
Ġvase s
Ġharm ful
Ġred dest
ĠV e
Ġcur ved
Ġinf ect
Ġstud io
ĠPo ke
Ġaccess ories
Ġbould er
er as
Ġsp ee
Ġra w
Ġimag in
Ġrun ners
ĠMel ody
ĠG uess
Ġbru ised
Ġstrum med
Ġjing le
Ġsh immered
Ġres umed
Ġpave ment
H ar
ĠF ood
Ġr ink
Ġfair ly
Y ield
Ġbr ats
Ġyield ing
Mmm m
Ġmotion ed
ĠSw itch
Ġcons id
Ġsnort s
Ġscre ens
ĠLe opard
Ġconf etti
Ġspee ch
D e
ĠG as
Ġsnow ed
ĠS oup
B ert
Ġscr unch
Ġregular ly
Ġskull s
E ric
Rob ot
ĠD river
Am anda
Ġpossess ion
Ġbudd ies
m oo
Ġb un
p ie
Ġboss ed
Ġsand als
Ġhall s
Ġsw itches
Ġg ulp
Ġpopsic le
ĠN orth
Ġcam eras
P o
v or
Ġpl ow
ri et
Z oo
ar ked
R el
ĠD ish
Ġgre ed
Ġfi rew
Ġt ac
Ġdis m
Ġspin ach
Ġsuc ked
up ted
ĠNo vel
gen cy
ĠG eor
o xygen
ĠSe at
ĠStep h
Ġer upted
at ue
Ġwh isk
ĠN ia
ĠDog go
Ġtarget s
Ġrepl acing
Ġhorri fied
ĠHe idi
ĠEliz abeth
ĠMust ache
ĠS id
Ġdri ven
Ġselfish ness
Z iggy
m aster
Ġcab bage
Ġgesture s
ĠB iscuit
ĠWr iting
Ġaut umn
Cle an
re x
E ver
W ater
Ġworld s
St itch
ĠWednesday s
Ġent ertain
ĠPop corn
ĠBa iley
ĠLe arning
Ġw it
V al
Ġf are
Ġcar ved
or ia
Ġgl ide
ou ble
ĠN an
Ġgl imp
Ġcareless ly
Ġaccident ly
W ednesday
ĠChick ie
Ġfist s
Ġhuff ed
Ġpot ential
k s
M in
Ġp y
ĠP ed
Ġac c
Ġfree ing
ĠC ol
Ġfew er
ĠH unt
Ġmeasure s
in nam
ĠV o
Ġcontent ment
Ġhon or
Ġfashion able
Ġgr umble
Ġchallen ging
ĠE llen
he lle
ĠAngel a
Ġwarri ors
ĠN athan
Ġscri bbled
Ġbiscuit s
P OP
ĠD ylan
Ġacrob ats
innam on
Ġto ot
Ġst ump
ĠR ound
ac le
Ġpast e
ĠN ap
Ġtag ged
ĠAl ison
ĠAnt y
ĠHipp o
ater pill
ĠH ot
A pp
ĠC al
âĢĻ .
L enny
Ġview s
Ġow e
ising ly
ĠMic key
Ġpuck er
Mon key
r upt
ĠOct o
uri osity
K n
re ak
f ect
Ġper ked
Ġsn ipped
Ġfeather ed
N urse
Ġp als
Ġrep airs
Ġstream s
Ġequ al
Ru dy
Ġscra p
F armer
ĠRich ard
h ill
ĠW ood
ĠC on
ĠWh ist
Ġimportant ly
Ġquar re
ĠLou ie
R iley
Ġdef end
Ġhung rier
ĠGl ass
Ġwob bling
ĠJ imbo
ĠWil bur
Ġresource s
F u
ro y
iver se
ush room
ĠN one
Ġjourney ed
Me gan
Ġhammer ing
Ġins pected
Ġgoal ie
ĠCarl os
ĠD ays
Ġtil ts
ĠT oni
Ġdes cri
C heese
Ġhe ed
ĠL ime
Ġcle are
Ġscarf s
Ġpeaceful ness
ĠAll igator
Ġexerc ised
Ġd ucked
hi bit
J udy
Ġc innamon
Ġa h
Ġfor ty
au ce
em o
ĠM uch
ĠM oney
Ġser ves
Ġlay er
Ġch unk
L ina
ĠD anger
Ġcase s
ĠF lowers
Ġpout s
Ġlumber jack
Ġfrant ically
Fu zzy
H o
an ked
et ime
Ġsc an
Ġsun k
R uff
th ree
Ġth irst
Ġsound ing
oe be
Ġsubject s
Ġdesce nded
Ġn or
Ġro am
Ġs ul
ĠC op
Ġhe ater
ug gy
ĠJust in
Ġp oof
Ġcop ies
Ġsunset s
Ġpun ishing
Ġbl urry
Miss y
N ora
Ġsnat ches
L a
re r
D ot
a ld
ig her
el a
ip ed
Ġbra g
az ing
Ġt ang
ĠN ight
St an
Al i
Ġhurry ing
Ġfl ipping
ĠMe asure
ĠB endy
sh oot
g iving
Brown ie
Ġantenna e
irework s
Ġinfect ion
T re
m ind
Ġcar n
t ie
t ick
ĠW ine
ĠP ill
vent ure
zz ly
Ġspin ner
ĠTom ato
sp ass
Ġsk ates
Ġjeep s
Ġben ef
Ġcur sed
Ġgrin ning
Ġpadd les
ĠJan ice
Ġgl immer
Ġgr umbling
Ġad vant
ĠH istory
Ġmitt s
ĠCact us
b ug
at ted
D own
Ġcar ve
r ant
ĠA bb
ĠAs ked
Ġjog ger
Ġpri cked
ĠJu les
Ġstomp s
Ġsuck ing
ĠVal ue
app laud
ĠBr ooke
Ġ 6
r un
Ġun e
or ant
ale b
St ir
Ġcrack ling
ĠFr ance
Ġl ately
Ġgain ing
Ġchance s
Ġfre ely
Aunt ie
ĠRh ythm
Ġped alled
ic kest
Ġcr ooked
Ġenerg ized
Ġcapt ivated
Ġlif etime
R ace
en ess
Ġwo nd
ĠO y
Ġem pt
Ġexpl os
h aw
Ġjealous y
Mum ma
ĠLeaf y
Ġhay stack
Ġy ay
al ter
Ġcl am
g ive
Ġsurf er
Bl oom
ĠCook ie
ssssssss ssssssss
s l
1 1
ĠH ouse
ĠR uffy
ĠG ear
Ġdr ople
Ġhe ated
Ġembarrass ment
Ġtax is
Ġrail ing
ĠRu de
E ddie
ĠBubb le
Ġwa vy
Ġembra ced
Ġpol ka
Ġbl ossom
Ġwil ted
Ġk iw
ĠSt atue
oo o
ĠD own
Ġtight ened
ĠZ e
op era
Ġf rag
G reen
Sh ut
Ġvan ishing
Ġcrunch ing
Ġexc use
Co pper
Ġcon str
Ġstun ning
Ġcha os
Ġadvant age
ĠShe ep
Ġfe ared
un ate
Ġbright en
Ġjoy ous
ĠBr ing
Ġtrail s
ĠMar ty
Ġbo oming
Ġrefle ct
ĠHug o
Ġpl acing
Ġbas il
ĠStr ong
Whe ee
Ġfirew ood
Ġt ed
Ġs ite
O ink
Ġin ched
ate ver
ak ers
Ġgl ist
ĠTh ough
be am
Ġpick les
Ġprot est
ĠWill ie
ĠP istol
Ġcar riage
rec ord
Ġcough s
Ġgo bl
Ġscientist s
Ġouch y
Gra cie
Ġclut ching
Ġfulf illed
S al
Ġbelie f
Ġtra pping
ĠM ars
w oof
ĠM ond
Ġseal ed
Ġmatt resses
ne w
Ġex cellent
Ġ9 11
ay a
ĠS ave
' ,"
Ġpe w
Ġtr an
Ġmust ard
Ġr ash
ĠR ush
y me
Ġr asp
ĠL ying
Ġins pect
ĠM ud
ĠUnder neath
K evin
El iz
ĠPar ty
Ġinvol ved
Ġclin ic
Ġchann el
Ġglist ened
Ġf er
Ġse le
Ġal b
a iled
Ġre ins
ĠL umber
up ert
l ife
Ġrare ly
Ġbill s
Ġpainter s
ĠPat ience
ĠG reat
Ġfl ipper
P hew
ĠI vy
Ġter ror
Ġconcentr ated
C ongratulations
ĠM ick
ĠC able
O ff
Ġbo bbed
Th row
ĠM ister
Ġqu iver
p ilot
Ġremain ing
m aker
Will iam
Ġprod uc
Ġhob by
Ġvict orious
Ġoverflow ing
Ġex hibit
in ked
ch y
Ġt ack
Ġor ch
Ġclo ver
ĠM aking
pt ion
Ġtast ier
Ġun sc
ump kin
Ġcomb ined
Ġcl asses
Ġstair case
Ġsneak ers
Ġre act
cher s
ĠJ emma
ĠPer cy
ĠPee k
Ġscut tled
b i
Ġ (
Ġh ind
Ġrun way
ĠE ng
fere nt
She lly
ĠSt art
Ġd azz
Ġsniff les
ĠD eer
ĠR ingo
Ġsh ades
Ġsurprising ly
Near by
Ġt ending
Ġunlo aded
V anish
B OO
Ġvacu um
Ġdism ay
Ġted dies
nd s
Ġun pl
Ġf ate
iet y
Ġsp itting
Ġsu nd
Ġdig ger
Ġfeed s
Ġspe edy
Ġiron ing
ĠM ason
c hest
ĠBug s
Ġeff ect
wh o
ĠC ora
Z oey
R ebecca
ĠMin ty
Ġref uses
Ġsculpture s
EE P
ĠP urr
g s
D in
Ġf ired
ĠSp ray
Ġunl ucky
Ġbeh old
Ġbreat hes
.' '
ĠR ibbit
Ġsill iest
Ġdial s
Ġsty lish
ĠBa ld
Ġqu ality
if ferent
w ow
h ide
Ġout er
Ġtr ad
Ġp ang
oc ado
Ġprotect or
ĠR ina
Ġback ground
Ġsh aving
ĠRo d
Ġcr umble
Pe anut
Ġshore line
Ġham mered
enn is
ĠI gn
Ġdia per
Ġglimp se
Ġcarn ival
ĠMond ay
ĠS a
ood le
Ġm ain
C ook
p ers
ĠF lower
Ġinterest s
ĠC elly
Ġpost s
Ġband aged
ĠDan i
Sp in
ĠJump ing
Ġconvers ations
ĠC uriosity
J u
op en
ĠS ister
Ġtw itch
Ġhow ling
ĠN at
St and
Ġpar amed
Ġkayak s
Ġspring time
ĠSnow ball
Every body
Ġgl ues
Ġinsist s
B rian
Ġopt ions
Ġstalk s
Ġshuff led
at t
n ow
Ġw oo
J ax
as c
Ġch ug
r ous
Ġbubb led
ĠSt ick
Ġlead ers
ĠFr uit
ĠPip er
M amma
ĠN ellie
Ġseashe ll
Ġcuc umbers
Butter fly
Els a
b ec
P ark
Ġco iled
ĠC ate
Ġmean er
ix ie
Ġrel ation
ord s
Ġsmo ot
p ass
c up
Ġsurrender ing
Ġfloat ies
Ġs ipping
ĠPrin t
Ġre jo
ĠFork y
ĠPed ro
c r
Ġo o
Ġp ry
v ia
Ġex ting
Ġpast or
Ġsharp en
Ġpack s
Ġbull ies
Ġcarpet s
Ġcre aked
Ġdemand s
Ġslap s
Ġgrown ups
Ġimp act
Ġle ashes
Ġnight fall
ĠWin nie
Ann abelle
Ġcaw ed
Ġappro val
Ġgo bble
Ġfet ches
ĠMus cle
ĠRad io
Ġfif teen
Ġsim ilar
ĠInt rigued
Ġmag pie
Ġdrople ts
Ġalb um
Ġexting u
A very
Look s
Ġmirr ors
Ġbaseball s
Ġignore s
z ero
Ġdare s
Ġhurried ly
Ġrust led
ĠMon ica
Ġleap ing
Ġst itched
ĠA da
ĠHug gy
ĠStep hen
Ġhard working
Ġimagin ative
ĠH im
ap es
az zy
ĠG aby
Jane y
ĠBall oon
Ġsy ring
Ġhoo ked
Mon a
Ġjigg led
Ġgl inting
ĠTri xie
Ġd il
all ing
m ill
Ġlo ss
ven ge
Ġsheep ish
St ep
Ġrug s
Ġjug s
ĠY outh
Ġc ents
Ġhesit antly
un ities
ĠFu el
ĠEl i
ĠLa uren
Ġdoub t
Ġmeat balls
Ġfare well
Ġune asy
Ġopport unities
Ġb ust
ĠF ive
Ġb urp
Ġmo ist
ĠG row
g ling
ĠBr ight
Ġcollect ions
app iness
Ġmen us
Ġbuzz es
Ġtoug hest
Sp icy
Ġbless ings
P izza
hand ed
Ġmur ky
Ġpad lock
ĠPe ppa
Ġt iara
ĠL exi
Ġwit ness
aterpill ar
Ġgobl in
Ġwond rous
Ġsyring e
y er
P ar
Ġd ut
h ave
Ġhat ing
Ġclose st
l ost
P up
Ġfor ming
ĠC elery
Ġsucceed ing
Ġsimple st
ĠMar cus
Ġsix ty
Ro llie
ĠMouse y
Ġunf reeze
Y oga
Ros a
Ġlo sers
Ġdou ble
Ġcompliment ed
Ġprop eller
G reet
Ġris en
Ġwh oos
ĠE than
ĠM ushroom
Ġsqu atted
Ġre venge
Ġpl un
Ġstar ry
ĠB us
j ump
Ġeat er
ĠO il
Ġend less
Ġl ens
?âĢĿ ,
Ġhope fully
ĠGo lf
Ġfeed er
oin ted
ĠF reeze
Ġartist s
ĠB ecca
Ġposit ion
Ġhabit s
ĠEd ward
ĠW iggles
Ne w
Hel en
O AR
n es
ĠJ ade
ĠF ast
Ġwalk er
Ġunt w
Ġpass age
T erry
ph ones
Ġclum s
Ġrid den
Ġcabinet s
Ġover night
ĠCl ar
Ġstrength s
ĠSee k
? '.
Jo jo
Ġst umbling
Am ber
Th rough
Lou ise
A gain
Ġ 7
ur f
âĢ ĺ
ĠM ara
t here
Ġforget ful
to es
Ġchest s
Ġcrack le
ĠMum ma
Ġs ips
ĠMel anie
ĠCh ocolate
Ġgle aming
ĠTr ouble
Ġdil ig
Ġte ch
Ġsp ine
az y
C andy
Ġcre aking
ĠWill ow
h appy
Go d
in oceros
Ġ Yay
Ġbo bbing
ĠK athy
m agic
Ġsecure ly
ĠAlf red
ĠJes us
ĠS imba
ce l
b el
im ate
p air
S oup
Ġban ner
ĠC ont
Bob bie
Ġyumm ier
Ġbar bec
Ġup s
Ġpl uck
e ers
Ġz ig
ĠP aper
ĠPe ach
Ġstrugg les
ĠMar co
M arry
Ġflav ours
Ġunw ell
ĠFly ing
Ġaf lo
at rice
Ġsw ift
cra ck
ĠK aitlyn
Ġtre spass
Ġaflo at
ĠM ir
ong o
ĠD ing
ĠTo ast
R est
mb ur
ĠCh ina
Re lease
Ġass ured
St upid
Ġtick lish
Ġscre ec
Jo hnnie
ĠJ unior
ĠVo lcano
at he
v an
ut o
er ie
Ġcu pped
ĠJo el
ĠM erry
ĠP ray
Ġd ying
Ġspell ing
ĠW anda
Ġun ison
Ġconf using
Ġattack ing
Ġbud s
Ġscri bbles
Ġconcentr ate
ĠSh rimp
ĠL o
Ġsm ir
M ail
Ġz one
ĠO at
ĠL ance
Ġpack et
Ġlad ies
Ġtease s
ed ience
ĠDon na
Ġleak s
ĠSc r
isc illa
Ġwrigg ling
Ġrece iving
Ġmarvel ing
A NG
ĠTre vor
Val ue
Ġexplos ion
Ġsp ir
Ġpo nder
Ġwarm ing
Ġmother s
isk y
L ife
Ġclever ness
Ġthoughtful ness
P atch
ĠPo le
L emon
ĠFeather s
ĠButton s
Ġcontented ly
T essa
Ġcleare r
Ġha mbur
Ġc y
R on
ing ing
ĠB el
Ġun b
N ate
Ġground s
iver s
ĠM ove
ĠBe ak
ĠSt one
ĠO ctopus
Ġdisplay s
Ġsent ence
ĠY og
ĠRock s
Ġadm itted
Je an
Bug gy
Ġunz ipped
col oured
Ġadop t
Greet ings
Ġd ue
ase y
Ġfo ss
Ġro les
Ġmu les
Ġspot less
R olly
Ġpl umber
Ġreg ister
Me g
erc ise
P aws
Ġawa ited
ĠThanks giving
Ġorch ard
ĠT er
t op
Ġd ice
W ink
t able
ĠDo c
Ġd ash
P ee
Ġsoap s
f ying
ĠCl ap
Ġble nd
!' '
Ġc ities
Te acher
ĠHunt er
yl via
w he
Ġth re
Ġher d
ack y
at hing
Ġla ve
ab out
Ġint r
Ġco ast
Ġmean ings
d led
Ġsecret ly
Ġbet ray
Ġwre cked
ĠSc ale
Ġcroak s
ĠD iana
Ġm uttered
Ġgn ome
Ġre solved
Ġappet ite
Ġqu ickest
Ġhead phones
Ġlave nder
Ġb on
id en
pp ly
f our
ĠIn k
T oy
Ġadventure r
Ġarm or
ĠA ren
Ġbat ch
bb ling
Ġfle x
Who ever
Ġpost ers
Ġluck ier
hel p
S asha
B elieve
Ġn ibbles
ik ki
ĠFr ustrated
Ġviol ins
Ġponyt ail
Ġobst acle
ĠUn iverse
isapp ointed
P ay
B un
ul ty
Ġpo d
Ġpe st
Ġmo an
ĠC om
z ip
d les
ĠWh ip
Ġz ap
Ġkey board
ic ense
ĠF lex
Ġdear ly
Ġgra zing
stick s
ĠSm iley
Ġha lo
Ġm ended
at a
or i
se ed
Ġlittle st
Ġne ared
Ġch ore
itt ers
Ġcow g
ĠSt ory
ĠNo sy
ĠBeep y
ĠMat ches
Ġluxu rious
Ġaim s
Ġstall s
S andra
Jan et
Ġradi os
Ġwh ilst
Ġant hill
Ġbarbec ue
U m
ll i
Ġball et
Ġsa uc
Ġor ig
Ġper ch
Ġco cked
In c
ĠR est
Ġsur ge
Ġbedroom s
Ġbull s
Ġtray s
Ġswe ating
Ġchimney s
Ġr umm
Ġ1 5
Mat ilda
Ġcollap se
ĠRub ber
Ġspat ula
Ġopt ion
Ġsunb urn
T onight
Ġhome made
j i
h ot
Ġco ck
Ġwater y
ĠE ast
t les
Ġgreen s
Ġspl in
R andy
Jo an
ĠC ross
ĠBe ary
Ġcr itter
Ġcop ying
ĠT urkey
Ġsk ating
Ġvend ors
A rr
Bird s
Ġam use
Ġsc oring
E lle
shadow ing
Ġh yd
ĠApp les
Rain bow
ĠDin osaur
ĠK elsey
ĠCube y
Ġst umbles
Ġrh yme
Ġwhoos hing
A A
ĠT ad
if ted
t ac
Ġste ad
Ġtravel er
an cing
Ġcl amber
Ġbeg ins
Fred die
Ġinsist ent
Ġscra pes
Ġpar ades
Ġtr ades
ĠT abby
Liz a
Ru fus
T yler
ĠGrand ad
Ġchatter ing
ul ously
ab rina
ĠH alfway
ĠR upert
ĠRh inoceros
E d
h op
Ġla z
al king
Ġstr ut
K ip
m aking
Q uit
Ġsu p
t est
Ġc ork
Ġprotect ive
ĠNo d
Ġchild hood
B ring
Ġwh irring
Q ueen
Ġund erest
Ġrin ses
Ġsnar ling
Ġfulf ill
ĠJ asper
Ġcorn field
CRA SH
Ġconsid ered
Ġsun beam
Ġbird seed
G l
ig ed
ax i
r op
b ag
Ġbl ind
ĠS our
b ies
G ary
Ġp uffy
Ġmean ie
F ather
e ze
Ġfl ush
arn ey
ĠZ eb
ĠL ions
ĠB iff
Ġsque aking
Ġrh ym
ĠSn ee
ĠFo ot
Ġadmire s
Ġdire ct
ĠSc ott
ĠAny a
Ġfif th
ĠEm mie
Ġstory book
Ġy anked
n ut
Ġrem ark
Ġflo pped
Ġde ath
ĠTh row
Ġarri ving
ĠN ell
Ġjourn als
Ġcollect s
Ġbull et
Ġyach ts
ĠM anny
Ġecho ing
ĠCloud y
iz mo
ĠBar ber
ĠAl icia
Ġvol unt
Ġunc ertain
Ġcigarett es
ĠB oris
Ġk o
ag ing
Ġnew ly
T ia
ĠD ark
Ġdon ate
Ġcon so
Ġfight ers
Ġar c
ol k
Ġent ers
Ġc urse
Ġd ates
Ġpost c
Ġsuggest ing
ĠP ilot
ĠP ippy
Ġstro king
Ġbra ids
Ġgreet ing
Ġspr inted
ĠHar old
H istory
Ġscreec hed
w ing
am ent
Ġre el
ĠH ard
an as
G as
W ise
Ġgra ve
Th ough
s ix
ĠH igh
n umber
ĠP aw
ra ser
Ġtag s
Ġgrown up
Ġwiz ards
ĠH anna
Ġboo st
P uppy
Ġgap s
ĠPick les
Sw im
ĠL acey
Ġsilk y
Ġquarre lling
ĠPh oebe
ĠAv ocado
Ġhob bies
Ġs om
Ġre nt
ĠE ag
Ġtra ce
Ġwild er
J elly
Ġlay ers
ĠSt ars
Ġprep ar
ĠH aving
ĠOw en
ĠFr iday
Ġdem on
ĠSm ile
Ġachie ving
R ita
Ġ10 0
Ġclip board
ĠAr chie
Ġfunn ier
Ol ivia
ĠMic helle
Ġbenef it
ĠC aleb
bel ief
Ġbetray ed
Ġobl iged
R a
Ġc it
ow s
Ġ ic
ty le
Ġany ways
K ara
Ġcook out
M ath
em ons
ĠLe arn
ĠC up
ĠN et
Ġfing ert
ĠCh alk
os quito
Ġapart ment
ĠB umble
Ġman go
ĠBeth any
ĠJack son
ĠSh arky
Pe ggy
wh oosh
A pril
ctop uses
ĠPet al
Ġplay mate
ĠN emo
Ġdiffic ulty
Ġamuse ment
j a
A P
Ġt ut
ĠT ag
Ġsw ell
w ear
Ġsmart s
Ġwild ly
ulif lower
Ġex isted
ĠFr idge
Ġregret ful
Ġvillag er
Ġclick ing
Ġt iles
Ġs ighing
ĠP aint
Dr op
Ġwh irl
Ġcooper ative
Chew y
ĠI ndy
Ġvillain s
Ġpersu ade
Ġun cover
ĠAd venture
ivers ary
N O
R oo
Ġcan n
Ġcan es
s ure
Ġst ab
Ġru by
Ġcr ump
ver ance
N umber
Ġspo ilt
t weet
Ġbe ats
Ġrake s
ĠOr iginal
E lephant
ĠRe g
ĠG uppy
ĠIm agine
Ġfond ly
mind ed
Ġkiw i
Ġrejo iced
ĠB es
ĠH ome
Ġj ay
R ia
nn ess
Ġgentle man
ar let
Ġshy ness
Ġtoug her
Ġha irsty
Ġscoot ed
Ġax es
ĠJul iet
ĠMix er
M int
ĠM iles
Ġmast ered
Ġdrift ing
ĠDe bbie
M artin
Ġprefer red
En ough
Ġtang y
Ġunsc rew
im a
P ig
Ġg al
or ty
Ġmo pped
Ġneed ing
ĠW ild
ĠK ara
Ġpar ting
Ġlion ess
Ġfruit y
S ix
K enny
Ġk ern
Ex it
ĠCl aws
Ġsqu irm
T ammy
Ġcar rier
Ġk ettle
ĠPast a
br ushes
beh aved
Ġnin ety
Ġthousand s
Ġsevent y
Ġrat tling
ĠD ifferent
Ġthre ats
Ġsup erp
Ġdemon str
Ġperse verance
m i
n s
C ould
F ore
Ġsw ish
Ġch ant
ĠJ og
ĠC and
ret ched
be ar
ious ly
Ġtrain er
Ġlo af
Ġfi zz
ri cket
Ġvis ible
ĠBl ood
Ġtid ier
Ġsuit able
Ġsauce s
Ġblouse s
Ch ange
ĠW indy
Ġeight y
ir ley
Ġpout ing
ĠR epeat
Ġgl immered
Ġad just
Ġannounce ment
Ġphotog rap
Ġbread cr
Ġdes pair
ĠCont est
Ġdis belief
Ġp oo
Ġk il
Ġwa iled
a nder
se ven
n ine
ĠF ine
ĠMax ine
ĠK e
Ġhand led
Ġstre ak
Ġcomp ost
Ġho pper
And rew
Ġl itter
ĠSp aghetti
ĠWhere ver
Ġwaist s
ĠE rin
Jen n
s plash
Cl ap
ĠDuck s
b aa
ĠKay lee
ĠJo hnnie
Bra vo
ĠDream s
Ġfanc iest
ĠC aterpillar
Ġsom ers
Ġcit iz
or nness
Ġbreadcr umb
M a
Ġd u
K ay
Ġb ay
ĠSam i
uck le
Ġin qu
ĠF our
be at
ĠDo lph
Ġch ief
Ġimpatient ly
Ġsurf ers
Ġcomb ination
Ġrecommend ing
ĠLiz ard
ĠLeave s
po le
ĠSweet ie
ĠPr iscilla
S e
Ġout st
r uck
Ġtr ous
Ġover he
Ġwait ress
ĠDo ve
Ġst ash
Ġp ier
G erry
Ġmin i
sp ell
Ġcap able
kn ob
Ġigloo s
Will ow
Ġprov ides
ĠMe i
Ġco aster
ĠFire man
un iversity
Ġdet ail
Ġmerma ids
ĠCle o
Ġbless ing
Ġfaith ful
Ġjugg ling
Ġjing led
Ġgrump iness
Ġexper iments
ĠP umpkin
in n
ĠA ri
W ind
Ġare as
ĠF ace
W illy
Ġpick y
ĠD ance
Ġthank fully
R ub
ch ors
Ġdrum mer
ent ions
oc co
l aw
ĠFo ld
ĠAn chor
al ities
Pe ace
Ġglee fully
ĠPr unes
W arning
Ġwhir led
K elsey
Ġso bs
Ġdazz ling
Ġreind eers
Ġphotograp her
Ġstubb ornness
Ġoutst retched
Ġdoor knob
W r
K it
F el
al i
or get
e ight
Ġmo ss
ro ll
ĠHe art
St ri
Ġg arl
Ġcloset s
Ġnorm ally
ĠSome where
Ġcamp s
lu de
j ected
C ari
ĠRo ly
Ġt umble
Tr uck
Quick ly
Ġdump s
Carl a
ĠDo lls
ĠButter fly
Ġsi bling
Ġprod uct
gra ndma
Ġcompl iments
ĠGl oria
Ġsheepish ly
an anas
Ġann iversary
Ġtrous ers
S T
z er
Ġlong ed
B ess
Ġru ins
S pid
Ġquarrel s
d anger
Ġpers isted
Ġrecogn ised
Ġslipp ers
Ġf res
ĠM oe
ĠM isty
Ġsi xt
Ġhen s
ĠSqu ash
ĠPo ison
no vel
B iggie
U ntil
Ġinju ry
St even
Fr ustrated
Ġgrunt ed
Ġremark able
n or
y um
L ong
ĠS pl
Ġgreen er
s ized
Ġround ed
Ġside ways
Ġp unch
igg le
ĠTh umb
Ġmo pping
ert ime
ĠBe et
ĠPe ppy
Ġgl ory
Ġdis res
Ġpoison ed
Sp ray
B arky
Fl op
Ġsquaw king
ĠRel ax
Ġcheetah s
Ġbull ets
Ġtul ips
Ġempt ied
Pee k
Ġcr itters
Ġ $
Ġre qu
Ġsnow s
g row
Ġpol icy
ĠC ord
as ons
D ina
Ġ3 0
Ġshiver s
Ġcolour ing
Ġrecommend ations
ĠSpark les
Ġins ides
Ġthrill ing
Ġbl ues
Ġyouth s
ĠCra bbie
Spe ed
Ġsens ible
ĠKn owing
Ġwind mill
ĠLaw yer
ĠAg nes
ĠMir anda
a uliflower
orget table
Ġ .
H ot
Ġy e
ĠM uffy
Ġtight en
ĠC ee
D ance
Ġpaw ed
Ġdrum ming
Ġm ult
O xygen
ĠK ippy
rr rr
ĠU sing
ĠListen ing
Ġplug s
Ġwrigg le
Ġdroop y
Ġdilig ently
Ġb ared
Ġun ra
Ġsafe st
Ġpond s
sh ake
Ġm ash
umb ly
Ġdist ress
Ġrecord ings
ĠO aky
Ġch ugged
Ġbri ef
Ġoutdo or
ĠCra w
Tw ist
Ġatt racted
Ġr ushes
ĠMad eline
Ġassist ant
Ġdandel ion
ĠB EEP
Ġround about
Ġdirect ly
Ġbreadcrumb s
Ġunf orgettable
Ġs is
ĠS et
Ġg ad
Ġn ug
ĠF ar
Ġfast ened
Ġfo il
to ot
let e
Ġsupp ose
Ġcool ness
Ġmoder ation
Ġsuggest ions
Ġlight house
Bu bb
Ġsl edding
G inger
Ġscri bble
or othy
Ġble nded
ĠSquee zy
ĠStand ing
Ġdi aries
ĠJes se
Ġsizz le
Pen elope
ĠPain ting
ĠSteph anie
Ġparamed ics
Ġe erie
Ġclamber ed
Ġo ctopuses
S ing
ri p
ĠL y
Ġne g
Ġpl ump
Ġcle ve
Ġam bit
ĠG ri
al ance
ere k
Ġloop ed
Do do
Le ah
Ġdra ped
Ġgu iding
Ġslither ing
Ġteam mates
Ġmeaning ful
He idi
ĠBar b
Ch ocolate
ĠA llowed
ĠF ireworks
Ġunpl ugged
Ġan chors
Ġsumm ertime
O t
o le
Ġj ig
ur ly
H ank
ged y
ion ate
Ġgarden ers
Ġmix ers
ĠS eth
Ġtired ness
Ġpri zed
Ġador ed
Ġmechanic s
ric anes
Ġsqueal ing
ĠAnn abel
ĠMoo Moo
Fl o
Ġsurv ived
G reg
Ġhoot ed
Ġvol ume
Ġcaf Ã©
ĠAbb i
ĠBe atrice
ĠNet work
ĠI nd
Ġwas her
ar ch
Ġbo ing
Ġsp out
ish a
Ġsn oo
ĠP al
ĠP ri
ĠP illy
ac on
Ġcr ad
Ġbuy er
Ġlay s
ot ions
Ġdr unk
era ld
ĠTr unk
Ġcro aking
ĠZ ebra
Ġple a
Ġsome place
Ġtornado es
B arry
ĠHo pp
Ġencourag es
ig uel
Ġapproach ing
Jo sie
ĠC ongratulations
Ġtul ip
Ġs ession
Got cha
er gency
ĠWood y
ĠPill ow
ĠD ennis
sc apes
N AP
L A
om i
ar r
own er
Ġal as
Ġal ph
less ly
o ses
Ġpast ure
ere al
Ġm oose
iff y
Ġeld est
Ġshoot er
Ġimag ines
ĠTh inking
ĠE specially
Ġble ated
Ġpeel ing
S kelly
ĠR eal
ĠS eal
F rosty
Ġcoop eration
Ġcact uses
ĠGr adually
f ashion
ĠFore st
ĠHar riet
ĠE raser
Ġem otions
L i
s un
ĠH ide
Ġwa ry
ĠHe ather
ra ph
P ol
Ġsear ches
Ġsw arm
osaur us
ĠDon ny
Ġsplit s
ĠT utor
Ġd ents
Mar ch
ĠC elia
ĠGl ue
ĠNe igh
Ġlimp ing
ĠPa ige
ĠCount ing
Din ner
Ġdan gling
Ġgal ax
Ġcamps ite
it z
Ġpr ed
M ick
ab et
i qu
ĠG un
Ġslow s
ott ie
Ġm ower
Z ee
ang les
ale y
Ġpath way
Ġeager ness
Ġyogurt s
Ġfe ature
b ecause
Sh ake
Ġbar bers
ĠTry ing
Ġbeam s
ĠPen gu
ĠIs abelle
ĠBaa Baa
Ġwhimp ering
ĠPig e
J asmine
ĠRe ggie
ĠCass ie
Ġspeech less
ĠBob bi
Ġconso le
Ġfingert ips
Ġland scapes
in i
K en
ach t
al ie
Ġsw er
ive ly
Ġv ig
P ull
ort ing
Ġim it
Ġf ished
asket ball
Ġfl icked
Ġer ra
Ġbee keeper
Sh adow
Ġcrow s
Ġfort une
ĠCra zy
ĠP ingo
Ġple ading
ĠTra in
Ġdetect ives
ĠD raw
ĠMill er
Ġgrasp ed
ĠBl ocks
ĠS auce
Ġoo hed
l icense
Ġre asons
f r
f or
ĠT am
ig o
Ġv ain
us age
Ġpar ach
ĠP an
Ġopen er
zz le
ec ord
Ġpre y
irr or
oph ones
ĠBear s
Ġin ser
Ġlow est
Ġhelpless ly
ĠL illie
ĠTe aspoon
B onnie
Ġmen acing
Pr ince
ĠDough y
Ġob vious
Stan ley
Ġri chest
Ġunderest imate
ĠS tyle
Bubb a
Ġalph abet
s k
C K
u le
p her
ĠB on
Ġas se
ĠD ust
ro ar
Ġgr ade
Ġwise st
row s
Ġpre c
Ġsm eared
ĠB itter
Ġwood land
Ġraven s
C ats
Ġperm itting
Ġmem or
l iest
Ġfarm house
ĠA ddy
ĠW anna
ĠJu an
Ġbak ers
ĠTrust y
Ġcomfort ably
ĠSt acy
ĠSal ad
Ġtor ch
Jo seph
Mel issa
Ġprison er
Ġob edience
Ġko ala
Ġg own
ag on
ĠF ake
ĠL ara
iz er
Ġpot ty
zz z
ĠSo cks
R ory
Ġwonder land
Ġmarry ing
ĠCl ucky
Will ie
ĠSm iling
Car ly
Ġcigarett e
ĠGen ie
Ġcraz iest
Ġscrap s
Ġsund ae
R OAR
Ġinser ted
ĠH ay
ent er
id get
Ġcan ce
d own
ĠT own
Ġfind er
R ick
au nt
ail a
ĠR at
Ġsho ved
Ġgl ance
ĠBl u
Ġbelie ves
Ġn umb
oop ed
ĠC ray
ĠAl so
c atch
Ġl atch
Ġcr umbled
Al most
ĠV an
Ġbad ges
M indy
Ġhandful s
M uffin
ĠL acy
Br other
ĠAny time
Ġconqu er
Ġbold ly
Ġtot al
ĠA aron
Ġspeck led
Ġwhizz ed
Min nie
Kn ock
Ġout run
Eliz a
ĠG izmo
ĠSh irley
Ġj er
Ġco z
W as
ĠP in
az el
ĠG ame
ster y
Ġtrain ed
Ġel ves
ĠP ush
Ġsharp ened
ĠCh oose
h ony
Ġappear ing
Ġstitch ing
Ġpause s
Ġsprink ler
ĠT ouch
rink les
Ġmeasure ments
ĠT igger
Ġwhimp er
ĠNe ck
Ġsprout ed
Ne igh
ico le
Ġskate board
Ġst ressed
ĠCall ie
Ġheed ed
Ġgri zzly
Ġcock pit
ĠS er
Ġt ad
Ġ ome
ĠL ill
s omet
ĠA rm
b owl
ĠP art
Ġcl ang
ĠZ oo
ĠL unch
eter n
Ġbored om
ĠSn appy
Ġscatter s
ĠDan cer
Ġm mm
Dog s
Ġchuck le
ĠN ala
Ġlong ingly
Ġmajest y
Ġun even
ĠNeed le
Ġwild life
Ġtech n
le nd
ĠD en
Ġim m
epend able
id den
ĠBu ry
ĠBu d
Ġav ail
ĠK arl
Ġtrick ing
Ġcra fted
Ġshut ting
Ġfl ushed
ĠG arry
aa ah
Ġclick s
Ġsm ashing
Ġrain water
Ġflick er
Ang el
Ġdiv ided
Ġup coming
Ġtac os
Ġtack le
Ġbust ling
Ġ etern
Ġt it
D ay
en ch
ĠB ack
ave s
Ġrun g
ess or
em s
Ġro sy
Ġmin ty
to ed
any a
ĠSh iny
Ġscar iest
Ġcalend ars
T uesday
Ġbeat en
A ha
ĠCook ing
Ġjugg led
J imbo
ĠMail man
reck les
Ġring master
BOO M
Ġcrump led
Ġcitiz ens
danger ous
h am
ĠT all
se e
Ġbr ist
Ġstory t
m ary
ĠB ike
Ġal ike
Ġpass er
Ġv irt
art ment
Ġw ilt
aff y
Ġbehave s
ĠSh op
Ġwhip s
Ġsym p
ĠWh ippy
K athy
ĠMic rophone
L iam
Ġramp s
ĠCow y
Ġsnug gly
ĠGrand mother
ĠTr udy
ĠSurpr ise
Ġtrim med
ĠW alter
ĠBes ides
Ġdisres pect
' !
g ent
Ġsaw ing
B oy
ĠG um
Ġcl ient
ĠGo ing
Ġmic r
ĠG host
Ġambulance s
ĠO asis
ĠCo dy
ĠCo le
ĠN apping
Sh all
F etch
Ġlap s
ĠIs abel
B elle
F ighting
Ġocc ur
Ġo val
V iolet
yd ney
Sh oot
J eremy
Aw w
Ġjigg le
Ġculture s
Ġsplin ter
Ġstead ily
Ġtra gedy
p ing
M ic
c are
Ġch am
er ous
ch ant
bb it
Ġfar my
ob ble
Ġpick le
ic ity
Ġmatch box
Ġfright en
Ġshoe box
Ġmum bled
Ġinc ident
Ġvill ages
Ġspell ed
Ġarr anging
ĠC onnie
Ġoutsm arted
ĠB ongo
Ġoverhe ard
Stri ke
Ġmicr ophones
m it
Ġbo l
Ġf ain
ĠS ign
R ich
ĠH oop
Ġlay ed
Ġfine st
Ġrep ay
Ġdisturb ance
Ġbasketball s
Ġcur ry
Ġ Yuck
Ġpolice men
B rr
ir cus
Cl uck
ud ges
Rob o
ĠF aster
bl ue
Sn ake
Th under
ĠCro cky
Els ie
Ġh uh
Ġvar iety
Ġped alling
ĠM osquito
Ġnug gets
a omi
Ġfarmy ard
T ick
ast ing
ĠR ice
Ġlo lly
Ġatt end
Ġey eb
Ġwet ness
Ġpun ched
Ġfaucet s
Ġfest iv
ĠRo ary
Ġrecogn izing
ĠMel inda
ĠSam uel
Ġarri val
udy ing
Ġroast ed
Ġhand ker
ĠH appiness
ĠFr isky
ĠN ikki
Ġunder wear
Ġimm ense
Ġhandker chief
h oo
ve re
Ġt ur
il ia
Ġco ax
Ġpo ll
Ġeven ly
m aybe
ipp ee
Ġjoy s
sp icy
ĠMar c
Ġzigzag ging
Ġapolog izing
Ġspl attered
ĠG inny
Ġswallow s
Mo le
Che ers
Sweet ie
Ġplum s
Ġprof ession
Ġvar ious
ĠSurpr isingly
Ġpor cup
t re
ot or
H oo
Ġsaw ed
Ġbo b
T ag
Ġbr im
uc ted
qu ack
Ġhand c
Ġf les
ĠP age
ĠB aking
b aby
Ġmad der
ĠK not
ork y
Ġpump ed
Ġcl asp
H ours
ĠS aid
ĠAn cient
Ġo oh
Ġboom s
Ġreply ing
p itched
ĠD awn
Car ol
Ġsens ed
Ġpe ering
Ġprod uce
ĠS issy
d isappear
ĠVe ggie
ĠEx ercise
ĠE lli
arlet t
ĠR occo
Ġhandc uff
Ġfles h
T a
Ġr um
Ġex ist
ant ic
ĠS af
Ġround s
ĠTo e
Ġfr ol
Ġd itch
Ġha unt
Ġnew est
ĠN ation
isp y
iv id
ĠSn ail
M anny
ĠMo llie
Ġto sses
An imal
Ġmoo ing
ĠP uzz
ĠSl ide
Ġrec ently
ĠG rey
ĠSte ak
Ġbaa ed
Ġthe rap
ĠR everse
Ġfail ure
ĠLast ly
ĠCe ce
Ġshoelace s
Luc as
Ġter rit
Ġsp arked
Ġconstr uction
ĠBeet le
Ġhur ricanes
Ġfish bowl
Ġbrist les
ri bbit
ll er
ĠT en
Ġc ack
Ġp ure
ish y
owl ed
Ġhas n
ire s
Ġsmooth ie
kn ow
ĠC ory
Ġpress ure
Ġengine er
per ation
Ġmass ive
Ġpo sed
No ah
ĠLe go
Ġtodd led
G emma
yl ie
Mon ths
Ġflick ered
J udge
I gn
Ġbound aries
ĠGeor gie
Ġspir al
ĠB arney
Ġkern els
ĠY acht
Ġvirt ue
g a
ĠH am
Ġde w
Ġfell ow
ĠC orn
Ġsho ve
Ġd art
iz ation
Ġwag gy
w ord
arm ed
Ġjuice s
Ġsug ary
Ġcold est
ĠTr ina
g reen
ĠSn ip
Ġgolf er
Ġreplace ment
Ġgentle men
Ġt ipping
Or der
Ġtipto e
Ġwadd ling
ĠSte am
Ġencount er
Ġbill boards
ĠĠ ĠĠ
ĠH onk
Ġseatbelt s
Ġsul ked
Ġcowg irls
Ġbat tles
Ġstrut ted
Ġome let
C r
Ġ `
ĠThe o
F le
T ra
Ġre v
ap on
ag ged
ĠS and
A lf
ĠJ em
um bo
ĠP ower
ĠGra pe
Ġsl ope
Ġcollect or
ĠCl ock
Ġharb our
O ther
Cl are
ĠCar ty
irt een
ĠPl an
Ġhumming bird
ĠOt ter
ĠChick en
Ġjud ged
K ai
ĠKn ives
ĠBra ndy
ĠM ika
ĠF ashion
Ġdash board
ĠS ylvia
ĠS abrina
Ġv ows
z el
Ġbr ow
if ic
ret t
Ġeven ings
ill ip
Ġbutter y
Ġslow ing
Ġcool s
Do ll
Ġleaf y
ord an
ĠCh air
Ġswings et
c ling
Be a
Ġneigh s
Ġsmooth ness
Every where
Ġitch ing
Ġcaptain s
Ro ll
Ġwhist ler
B ingo
the w
H onk
Ġfort unate
ĠEng lish
irac ulously
Ġtut u
ĠSa usage
Ġporcup ine
Mat thew
se l
Ġbr at
l ie
ir us
Ġto urn
Ġbed side
ĠShe ila
N avy
Her b
ĠGra b
Ġph ra
t ract
Ġlate st
Ġsu pper
Ġjudge ment
Ġspeak ers
Ġhi ked
ĠR iding
Ġcamel s
ĠJeff rey
ĠPl us
Y ellow
Ġill ness
ĠPine y
ĠMag gy
ĠShark s
T hings
Ġlim it
ĠG iggles
sl ap
Ġn ailed
Ġsmoot hed
Ġextingu isher
Ġuntw ist
Fore shadowing
Ġcham bers
d i
ĠS at
Ġg ig
ut er
Ġg ur
ĠS ec
Ġgir ly
M op
Ġbe ings
M ara
ach ine
ĠF air
ac am
He aring
Ġatt ent
ract ice
ĠBr ady
Ġfootball s
Ġmath s
Ġveil s
Ġchess board
Ġalarm s
Ġpur ses
Ġb umble
Ġhesit ate
Ġsqu ashed
Ġavoid ing
Sque ak
ĠSwim ming
Ġescap es
ĠSpin ning
Win ter
Ġdar kest
Ġtink ling
Ġscan ned
ĠIt chy
acam ole
g h
ĠT y
ĠS P
or ay
Ġdo c
ist ic
L ast
Ġche m
Ġman ner
Ġpol it
ĠP itch
Ġmark ings
Ġb oop
Ġfear less
Ġgrill ed
Ġappl ied
ĠSm elly
ĠHoot y
ĠSw ans
ĠSw an
ĠSl ippy
Ġscen es
Bo at
ĠCl over
Jon athan
Ġrain storm
ĠL otion
Ġcoconut s
ĠA iden
Ġint entions
Ġterrit ory
Ġgu acamole
Ġh y
w is
J am
ĠB er
Ġtre et
ĠG ab
ĠT ape
Ġfl itting
Ġlo cket
ĠZ ac
M erry
Ġa ward
Ġweak ly
Ġcalm ness
Ġpro ven
ĠO ats
Ġevery time
ar ium
ĠBoun cing
ĠS ari
Ġfurt hest
ĠRock o
Cl oud
Bee f
ĠSte el
Fl ora
Ġsav ored
Ġscowl ing
Sm ile
ĠL ula
ĠCh ildren
ĠStri pe
Ash ley
D isappear
Ġrece ption
Ġsh ifted
Ġspec tac
ĠD orothy
ĠH en
L ad
ĠS el
Ġre se
âĢ ĵ
Ġcr op
amp s
ee e
ier re
eter ia
Be es
p ensive
ĠBlue berry
Ġ ident
ĠA corn
Ġrhin ocer
night mare
Ġdog house
ĠRo ll
Ġseesaw s
Ġnood le
ĠPe bble
ĠF rench
Ġg inger
ĠPhil ip
Gr umpy
ĠFran c
ĠJ ada
ĠButter flies
Ġfanc ier
ĠS uccess
ĠPol ice
Ġinter rupt
ĠWh atever
Ġkil os
Ġgad gets
know ingly
Ġspectac ular
L u
im id
W il
ĠA ly
ĠB ook
Z ap
ĠD es
ĠSo ld
Ġkeep ers
Ġc av
ren ce
ĠAfter ward
Ġt icked
Ġstamp ing
Ġcoo ing
Go ld
Ġmight iest
Ġfre es
ĠM oral
ĠH umble
ĠTe a
ĠCloud s
Ġje well
ĠWhe at
Ex cellent
ĠOy ster
ĠScr uffy
Lemon ade
Ġwh inn
ĠC urly
Ġpred ator
Ġfeature s
ĠB asketball
ĠD ependable
Ġdisrespect ful
Ġdoc um
Ġcaf eteria
Ġint imid
Ġwhinn ied
Ġ ir
Ġsaw s
D oug
ĠB ab
ĠE le
ad dy
re lease
Ġwatch ful
Ġtail or
Ġstorm ed
Ġpin ec
Ġstri ve
Ġmedic ines
Ġshort ly
Ch ild
V icky
Mom ents
Ġear ring
ĠAm ie
ĠSc reen
ĠEl isa
?' '
cl oud
ĠWoof y
the y
Ġwrink les
Ġpound ed
Hmm m
Danger ous
Ġexplo des
ĠSmo oth
ĠWorm s
Wo nder
ĠSt reet
ĠNeed les
is itive
ĠB anana
Ġpy jamas
Ġdescri bed
ĠC ricket
Jenn ifer
Ġparach ute
Ġpasser by
Ġv irus
Ġpolit eness
R R
l ong
ĠF all
ĠL og
ĠB itty
ger y
or gan
Jo Jo
ow der
Ġtal ons
Ġschool s
ĠM itch
ĠLe an
Ġwheel ed
Ġash ore
Ġp ity
Ġcom ment
Ġhaircut ter
ou rage
Al an
Ġashtray s
Ġsting ing
Ġfabric s
Ġar cher
?' "
ĠTe am
ĠTruck ie
ĠTruck o
Ġting ly
ĠDe an
Any thing
ere sa
ĠMail box
Ġdaydream ing
Ġtran sp
Ġrelation ships
Ġponder ed
Ġvolunt eer
Ġcann on
Ġhairsty le
Ġsomers aul
Ġqu alities
ĠC auliflower
ass ionate
ĠC ereal
Ġinqu isitive
st one
Ġsl ings
B ro
Ġover c
Ġsa les
ĠR ep
Ġbuild s
Ġbreak able
in ated
Ġwhe e
he althy
Ġmar ches
Ġmost ly
Ġlast s
Ġchalk board
Ġnight time
ĠY ield
Ġcheek y
Ġstrang ely
Ġpu bl
Ġsent ences
ĠPl ant
Ġaim ing
Ġsoot he
Ġconcer n
O scar
Ahh h
ĠHonest y
ĠV ictory
ĠLady bug
ĠTer ri
Ġpostc ard
Ġic ic
ĠS NAP
Ġetern ity
Y ippee
Ġprofession al
N ed
T ri
H ug
Ġwh is
ĠJ ed
Ġd ise
t urn
h ate
Ġad ver
ĠK iss
ĠH orn
s pe
Ġre cy
ĠSp ace
Ġsn arl
Ġbright ness
Ġsword fish
Be aky
ĠMar io
Le ft
ĠSk ipping
P iggy
Ġfasc ination
Ġrefle ctions
cl ap
Ġre eds
Ġthreat ening
Ġsh rie
ĠLuc a
Sweet heart
ĠPar rot
ĠF isher
ĠDi amond
Ġapp oint
ĠNovel s
ĠL azy
Ġtrespass ing
whe el
Ġtit le
ĠF reckles
M s
Ġb id
en e
Ġs ke
Z ack
L ight
ĠD is
en ched
st age
ĠW ool
Ġstrong ly
ht aking
Ġad j
co ot
ather ine
Ġri pping
Ġvan s
aw r
Ġpay ment
Ġt ilt
ĠS hip
Ġed uc
Ġsupport s
Ġcomplain ts
Ġow ie
Ġprice less
uxu ry
Ġa ah
ĠQ uit
ĠF ancy
Ġexcept ion
Ġch ugging
ĠBlack y
Ġdis like
Ġperson ality
G irls
Ġm akers
ĠBalloon s
Be have
Ġrhym es
Ġheart beat
ĠGun s
Ġbol ts
Ġth irteen
Ġun knowingly
Ġbreat htaking
O p
se a
ound s
Ġro le
f ight
Ġno is
Ġwe ave
Ġab s
r ist
ĠC am
M ild
, âĢľ
ĠJo se
Ġdra ins
Ġd read
Ġpers pect
T iger
Ġle aked
Ġsteam y
N icky
Ġsprink ling
Ġa choo
ĠMe ena
Ġdin ners
Ġ ĠĠĊ
Ġbut cher
Ġmer cy
Ġforce s
ĠW ashing
ĠV inny
B ooks
Ġshr ugging
Ġtransform ation
Ġswim mers
Ġeng ulf
w orth
Ġslurp ed
Wo ah
V ictory
inc rease
ĠBel inda
ĠSp rinkles
Ġher mit
Ġunh armed
0 0
w ed
W ar
Ġsa m
om en
Ġp es
T ess
d ough
Ġyellow s
Ġne ater
Ġcool ing
Ġgrow th
Ġfrog gy
Ġcow ard
? !âĢĿ
um sy
Ġsel ves
Ġint ense
Ġsuper vision
ĠHel per
Ġaw ait
Ġflood ing
Ġreal ising
ĠGr uff
Ġrul ers
Ġobe ying
Ġgest ured
Car rie
Ġconvin cing
ĠSal ty
ĠSt upid
az ingly
raw berry
ĠDi ane
Ġwhizz ing
b reak
aut iously
Ġcarp enter
Ġtourn ament
Ġgig antic
Ġslings hot
Ġadj usted
Ġpes ky
Ġst am
ĠA round
st ream
Ġm az
Ġspl at
ĠD ale
ĠT alk
ĠSt inky
Ġhunt ed
ĠBl aze
Ġin tern
Ġstaff s
ĠLou is
ĠCh airy
Co ffee
Ġexpress ing
ĠPen cil
Ġmatey s
Ġret rie
ĠBee bee
Ġtopp led
Cra b
ĠBlack ie
Ġblossom s
Ġreflect ing
ĠP ixie
Rest ore
ĠPray ing
ĠB athing
Spid er
Ġcleve rest
Ġprof essor
Ġfain ted
Lad ies
K at
Ġo ar
er al
ĠT ug
ĠA ir
or my
Ġb ul
Ġe ss
Ġre fe
ow ers
ĠP u
oy d
oy o
ĠT uffy
hn ess
art en
Jo ke
Ġsea side
Ġd iet
Ġf ang
Ġpr os
Ġsharp er
Be st
Ġche ery
St e
Ġpool s
Ġraft s
ĠC arry
at ience
Ġpe aked
Ch ick
fere nce
ĠE aster
Ġmer rily
S uper
Ġdrip s
v anish
Ġplank s
Ġfour teen
Ġgl orious
ĠT onight
Ġoutsm art
Pl ant
Ġpy ram
ign orant
Ġdrum sticks
ĠJog ging
Fel ix
ĠCon nor
em ergency
ĠPige on
Ġstoryt eller
Ġpass word
Ġrhinocer oses
Ġrefe ree
y s
u a
Ġin h
Ġsh im
Ġwh om
i us
Ġlong ing
ĠP ay
p ower
Ġpat s
Thank fully
ile ts
ĠCh ug
Ġpin ned
ĠCl uck
ĠK ari
Ġmention ing
Ġrel uct
ĠB aker
ĠJul ian
Ġsn ored
Jen nie
Ġgl int
Ġpuck ered
Ġsm udged
Ġbl oss
i ya
ĠGeor g
B ANG
ST OP
Ġmaz es
s u
f y
y ay
nt er
all s
ĠA h
k ie
ĠM ist
Ġr ap
Ġa qu
P ink
Ġsn out
g ies
Ġsl iced
ir ation
Ġpat ched
Ġsmo ked
Ġpot ions
Ġtent h
Ġobser ves
? !".
Ġgrand ad
Ġcelebr ations
ĠSn akes
ĠCar ley
ĠUp on
Ġunt idy
Ġh ula
Ġhot dog
ĠE asy
G wen
ĠCarrot s
ĠSh aron
ĠCol ors
Per fect
ĠH igher
Ġtrad ition
Ġsmir k
Ġhambur ger
Ġdemonstr ated
Flop sy
ĠM iguel
Ġshe pher
ĠAnt hony
p le
S end
C ake
b ack
f ty
Ġscared y
ĠE ar
ĠB and
ĠF ree
Ġsw ished
At t
Ġrest s
Ġs outh
Jo lly
v ation
Ġpart ied
Ġba les
ĠGo at
Ġpoor ly
Ġfountain s
Ġshut s
Ġfive s
ĠV ict
Ġflood s
Sh ark
ĠGood night
ĠPrin ty
ĠAnt s
ro lled
ĠE ggy
Am i
Ġnuzz le
Ġpleas antly
Tim othy
Ġdiv ide
aff od
ssssssssssssssss ssssssssssssssss
Ġtwitch ing
Ġpest s
Sque eze
Ġgarl ic
Ġty ping
Ġeyeb rows
Ġpubl ic
Ġintern et
Ġshepher d
B a
w in
ck ing
ri ve
ĠM ack
ĠF er
or ny
Ġla pped
udd le
ro l
C ro
st em
in ished
ila h
ĠM art
Ġcast ing
st ance
ĠZ ed
Ġwar s
ub s
Ġseat ing
ur ray
Ġdream land
keep ing
Ġcre vice
Ġcontain ers
Ġsh immer
Ġaccomplishment s
Ġla unched
B uster
Ġglo ssy
ĠRun ning
Ġappearance s
Ġrat tled
Ġtriumph ant
App le
ĠWhist ling
Ġbon fire
Ġhyd rant
ĠB ananas
ĠD erek
Ġjig saw
Ġerra nds
somet imes
A aaah
worth y
t r
o il
I nt
ĠHe ad
The o
Ġre ve
ur s
G ret
Ġfish y
Ġgl are
ĠR ot
Ġdr ool
Ġflower y
Ġru d
Jo dy
ĠC amp
ĠL olly
S ister
Ġsk ated
ĠBl ow
Ġcho ppy
Ġback up
oc key
Ġmel o
ĠW ipe
at ops
t aker
on ica
Sp arky
R aven
ĠG ently
ĠLuc ie
Ġsoot hed
Ġheaven s
D ragon
E rnie
Ġbund led
M aisie
I NG
Ġtend er
Woo ly
Ġoper ations
Ġreassuring ly
ĠWhist ler
H igher
Ġrumm aged
Ġstab bed
Ġsur gery
Ġoverc ame
Ġdise ase
Ġfang s
Ġrud ely
Ġmelo dies
Ġb i
ar is
h at
ĠM is
Ġsp a
Ġl ure
Ġold s
D ream
ĠF ear
Ġar f
ĠB est
Ġboss ing
Ġlast ing
Ġfi ery
Ġreturn s
Ġer asing
Ġhouse work
Ġwe aving
Ġapolog izes
Ġtug s
ĠFrog s
Ġcontin ues
Ġsting y
ĠWatch ing
go ing
Ġt amb
Ġun ne
Ġsouvenir s
Ġmold s
Ġgod s
Ġwhir red
ĠCan ada
Ġper haps
Po ison
ĠJ azzy
Ġto ns
Ġvig or
Ġshrie ked
Ġeduc ation
Ġretrie ved
d is
d ened
Ġc ure
y uck
le as
g ged
ĠWe ar
Ġjust ice
M aking
Ġcan ary
ĠG reed
Ġcr an
ĠR oom
Ġto ken
ĠLe a
ĠT est
D aughter
Ġfig uring
ĠMar ry
ĠOr gan
ĠQu iz
Ġband ana
ĠCra sh
Ġo int
ĠSc rew
ĠMatt ie
Tweet y
ĠP iece
ĠAm elie
J emma
Sun shine
Pat rick
Ġext ended
Ġn udge
ĠPee king
Ġdandel ions
ĠNight mare
Ġdut y
Ġpar cel
ĠC acky
Gl ad
C ircus
Ġinstr ucted
Ġtherap ist
ĠPlan et
ĠSold ier
Ġun healthy
Ġappoint ment
Ġd affod
Ġtamb our
Ġs id
M an
P et
al t
Ġf al
F ood
Ġt us
ump ed
ool ish
It s
itt ered
pec ts
L oop
P ray
Ġbrilliant ly
Ġfa bul
ĠM arian
Ġrece ip
Ġpur s
Ġconf ron
Ġzigzag ged
Ġble nder
Bl ast
ĠD eep
Ġpol ishes
Ġy eah
D ora
Ġran cher
Ġperformance s
Ġhung rily
C aptain
H oot
ĠTra cy
Ġpar lor
ĠKn ife
Ġprotest ed
Ġproduc ed
Ġwoo lly
Ġsatis fying
Ġen sure
ĠCraw l
ĠM iraculously
Ġsub tract
Ġadver t
b a
Ġa a
m in
Ġo ily
ent ed
ĠM er
Ġf ry
Ġn ick
ust ing
id ers
R em
ĠG oo
ĠJo in
Ġsho pped
Ġfight er
Ġarm our
Ġin ner
Ġcho ked
Ġdra ined
ĠC oop
Ġun ity
Ġhelpful ness
f ragile
Ġstubborn ly
all ory
C olin
ric ia
Ġgener ations
Ġgaz es
Tweet ie
Ġrow boat
Ġgr ades
Ġmoo s
Ġaddress ed
C omp
Ġform s
Ġattem pted
Che ck
Ġdev oured
Ġant enn
Ġlun ches
D ylan
Pop corn
Ġadop ted
Ġrefle cted
ĠA uto
Ġsauc ers
ĠL emons
Ġunscrew ed
Ġoccur red
ĠS ydney
ĠP orky
Ġhandcuff s
ĠWe apon
Ġske pt
Ġoint ment
Ġfabul ous
Ġantenn as
E R
it or
Ġg ut
! !"
! ?"
Ġlike ly
Ġbe ady
L ee
ĠS ully
Ġwild est
Ġh ars
W ork
Me et
Ġgum ball
Ġpermit s
ĠKeep ing
Ġsteep er
Ġcontro ls
Mar ley
ne ck
the less
Ġtweet ing
Ġpuff ing
Ġcr unched
Ġdisobey ing
Br ad
Ġresponsib ly
ĠL ili
Ġunt ouched
Cra sh
Ġn orth
Ġwash cloth
ĠBl ossom
Wo lf
ĠM arla
ĠStu art
ĠOy sters
Ġfer oc
ĠC asey
Ġflag pole
Ġbrief case
Ot to
ĠFel icity
ĠSqu ishy
ĠT eresa
ĠFisher man
Ġengulf ed
Ġshim m
leas ant
D i
Ġw ed
im et
ĠM al
Ġsw um
at ers
Ġa ched
v able
ĠSo ary
ĠL ock
Ġboat man
ĠZ ane
Ġspin ny
Ġsn oop
Ġfor mer
Ġhonest ly
Ġreg ard
Ġfair ness
Ġste als
Ġrelax ation
Ġharsh ly
Ġdisturb s
Ġteleph ones
ĠFl ip
op eration
ĠE ddy
Jo anna
Ġcrowd s
ĠPup il
r ude
ĠO aty
Ġt attered
Mat ty
Ġtrot ting
Ġconnect s
ative ly
Ġstra nded
Ar thur
Ġdec rease
ĠEn ormous
olo getic
Ġmis beh
uccess ful
Ġadv ised
ĠSun flower
Ġtac o
ĠD isappointed
ĠLy nn
ĠP ierre
Ġreluct ant
Ġinsp iration
Ġsafe keeping
Ġunne cessary
Ġconfron ted
t a
p re
m on
ĠT ow
ĠB ath
Ġdark en
Ġshow ered
Ġtreat ing
ape st
ĠL ord
ĠL ead
Ġb ale
ĠCat y
ĠSt ore
Ġignor ance
C hip
ĠSh ape
ĠEvery time
rn old
S ummer
Ġapolog ise
ĠFl it
Ġrecogn izes
Ġallow s
Ġ vers
ĠBubb ly
ĠLu isa
ĠMa jest
Ġsp iciest
Ġslurp ing
Ġperse vered
ok o
ĠL yla
Ġsw iped
Ġrasp berries
Ġplun ge
ĠClar issa
Ġorig ami
ĠKe ith
ĠB uckle
Ġjer sey
ĠH azel
ĠSP LA
Ġreception ist
R awr
ĠY oyo
Ġimp atience
Ġpre ference
Ġaqu arium
Ġtrust worthy
Ġcent imet
Ġap ologetic
re a
v is
l ot
R es
ch ug
Ġsk id
ink s
Ġeach other
Ġproud er
Ġsp ool
le ct
Ġey el
Ġdark ened
o ken
Ġdri er
Ġelse where
D ead
ĠLe on
Ġto pping
Ġlight est
Ġclever ly
Ġkick ball
Ġcost ly
Ġrag ing
ind eer
ĠKim my
Ġdo omed
Ġd ipping
Ġfetch ing
Or ange
len ess
ĠEl ena
T iti
ĠSh awn
Ġwadd le
P inch
Ġru bble
ĠWil son
Ġsav oring
ĠGold y
h istory
ĠRa j
H alfway
Ġentertain ed
ĠGrow ly
ĠReg ret
Ġsixt een
Ġcrad led
ĠNat alie
ĠL aila
ĠSt ormy
Ġvigor ously
Ġreceip t
Ġunp leasant
Ġbe ck
ĠT ob
ĠF il
M us
iz i
P ear
M uch
ri lly
Ġar ch
Ġcre st
ren ched
Ġel ated
Ġamazing ly
red ible
J umpy
Ġgreen est
f aced
Ġgold fish
f ume
iv a
ob web
Ġdelic ately
ĠM icky
Ġsew s
ud ging
ĠL ana
Ġthro ats
ĠDuck ie
ĠHold ing
ĠC uppy
ĠSl im
Ġtuck ing
Ġsharp ening
C ici
Ġdri bble
Ġbomb s
G irl
Ġrack et
Ġshortcut s
K yle
Ġcluck ing
Ġbe llowed
Surpr isingly
Ġo inked
ĠYog urt
Ġfoss ils
Ġped dled
Jelly fish
Ġunra vel
Ġrect angles
il izer
Ġfestiv als
ĠSat urn
ĠCl umsy
Ġstam mered
Ġto ilets
Ġcare taker
Ġpreference s
O U
B on
ĠT id
am s
O il
Ġm ould
Ġf ame
ss a
K ick
Ġhe ap
G illy
aught ers
b ike
ĠP erry
ĠP umpy
Ġpr oc
Ġdepend ing
Ġspeed ed
ĠSh ock
Ġatt aches
d ictionary
ĠV era
Ġskill ed
ĠT reat
Ġappreci ating
Bl inky
E rin
ĠP urry
ĠGreen ie
ĠPr un
ne el
Car oline
Ġargum ents
Ġpr anced
ĠPinch ing
Ġripp le
ĠComp y
Ġspace ships
Rel uctantly
Rel ax
Dot ty
Ġfrag rant
Ġmilk shake
Ġb acon
Ġimit ate
ĠDraw ing
ĠT anya
Ġrose mary
Ġphra se
Ġbumble bee
ĠLe wis
Ġsomersaul ts
Ġess ential
ĠSp iders
Ġche apest
ĠMajest y
F a
C her
ĠB re
ĠF am
Ġkne ad
Ġbro ad
ĠB ucky
Ġbrown ies
Ġcr ush
ĠBl ake
Ġbat ted
ĠD ella
Ġslow est
ĠG rill
Ġknowing ly
l iness
ric ate
Ġday time
Ġimprove ment
Ġregret s
ĠSk ye
Ġcar go
T ouch
Ġhead band
C ammy
Ġkn itted
ĠSw ing
Ġp ulp
t ails
Ġsnow storm
St ealing
ĠBrush y
Ġbas ics
ĠTe acher
ĠGuard ian
Ġre cover
Ġg iddy
Ġpe gs
ĠBen ji
ĠS orting
Ġdep artment
U gh
ĠFranc is
Ġsy stem
1 0
Ġ ou
Ġp i
E le
S il
ot ic
ap le
ro ck
P ast
ot hes
Ġl ane
K iss
Jo in
Ġtower ing
Ġround er
Wh ale
Ġon board
Ġfat ter
ic als
ĠSh ade
Re al
Ġgrill s
stri ke
Ġspoil s
Ġdelay s
d ges
Ġfash ions
Ġtwink ly
ĠBo ot
B iggy
Ro xy
ĠSplash y
Ġban ners
Miss ile
Ġunf ro
sm ith
Ġgr ouch
rest ore
Ġkinder g
Ġv iolet
Ġposs ibly
Ġflick ering
Ġconcentr ation
Ġdroop ing
Ġscree ching
Ġrace car
Ġprog ram
B anana
Ġacc ord
ĠW ords
Ġy olk
ĠDolph in
Ġtus ks
ĠLance lot
Ġd renched
Ġint ricate
Ġkinderg arten
r id
ĠB ri
ĠB ry
B ally
ro se
ri ving
Ġfo l
ĠK id
Ġbra ked
ĠP ret
p aper
der n
Ġbl ister
ĠCh ad
Ġbelong ing
eb ast
Ġp iling
Ġser ver
to gether
Ġfr amed
ĠF izz
Ġstra pped
Ġcro iss
Ġhospital ity
Ġwallet s
Ġthunder ing
ĠA head
P eep
ĠChe ap
ĠJu ly
Pat ience
ĠMake up
ĠGl ove
Ġjud ging
F aye
ĠCD s
D raw
Turn s
gra ndpa
Ġcommand s
ĠE vie
Ġclums iness
ĠFlex i
rop ri
ĠSnee zy
Ġprepar ation
Ġpaint brushes
ĠN aomi
t asting
ĠJ ordan
ĠComp uter
Ġtreet ops
Ġrese arch
ĠComp assionate
Bro ccoli
ĠS coot
ĠL uxury
Ġsuperp owers
Ġsl umped
Ġchem icals
Ġblack smith
ebast ian
Ġl l
it er
ĠL ay
ĠH ad
Ġp ul
op her
o ise
Ġjump y
ro ve
ĠP ort
ĠR em
Ġey ed
ĠG il
ly de
Ġsnack ing
Ġspoon ed
ĠLe ila
ĠN O
Ġth aw
Ġdifficult ies
Ġmuff led
Ġtrumpet ed
Ġcamp ers
Ġbe aches
Ch ar
Z ippy
ĠSt ories
ĠTw ink
Rob in
a vers
Ġpa using
Ġtiss ues
Ġcor als
ĠBe aver
ĠS urrender
Ġspark lers
Cra ck
Ġinvol ve
Del icious
Ġpre vious
Ġover coming
Wh atever
Sal t
ĠS urf
ĠE van
ĠR ecord
Ġcance lled
ĠN icole
ĠSc arlett
Ġtambour ine
Ġpig tails
A v
Ġsa p
Ġ" '
Ġman t
ty ard
ight ened
Ġch or
S our
Ġtr ink
T urt
s pl
p ool
Ġkid n
th ump
ĠL aug
orm s
ĠE gg
Ġb alm
ĠCat ie
Ġsplash y
Ġpract ise
ĠWith in
Ġboard ing
ĠN appy
Ġorder ly
el ines
Ġham per
ĠR ino
ĠJess y
ĠEarth quake
ĠP uddles
ĠOl af
Car rot
Ġamount s
Ġsill ier
ĠT asty
Ġrep orter
ĠSe aty
Ġplay mates
po les
Mon ica
Ġu lt
gr oup
ĠP rice
Ġclass mate
ĠPir ates
ĠHand le
ĠBald y
athe t
Ġreel ed
ĠPengu in
Ġno zzle
ĠGen erous
ĠSt udying
Ġsaf aris
ĠFr ightened
Ġsid elines
Ġm am
oo oo
d ad
w ould
Ġfor ked
Ġsh ack
ag s
o iled
ress ive
ĠG arden
g led
, âĢĻ
Ġhold er
We ee
app ily
r ont
unk y
sp in
Ġlad le
Ġret ri
ek s
Ġtravel ers
la im
Ġbookshe lves
Ġmass aged
ĠPaul ine
ĠJen kins
Mar ty
Ġswoop ing
ĠHoot ie
ĠSc ore
ĠOther s
ĠNear by
ĠPl ane
sol ve
Ġbouquet s
Ġcur vy
ĠSp ooky
Ġresponsib ilities
ĠL ala
ĠInch y
ĠSt acey
Ġgrump ier
Ġfluff ed
Ġh ilar
ĠCact i
Ġhide away
Ġcraz ier
ĠP oint
Ġbun s
ĠPer fect
fort unate
Ġtran qu
Ġp oodle
Ġrecy cling
Ġperspect ive
Ġunf inished
Ġaw oken
Ġapp ropri
V o
Ġd un
Ġso f
." .
w ill
ic he
Y ep
g as
Ġsw ore
ĠD O
Let s
ĠP ull
T ock
Look ing
ĠH air
Ġn av
M oney
ĠS ix
orm al
ĠK itten
ĠLe ft
Ġhand ling
G ray
Ġcab oose
Ġfoolish ness
Ġpres ident
ĠAl ina
Ġdepend s
Z ebra
Al ison
M oe
Ġclub house
Bl ack
ah h
Ġstraight ened
ĠKing dom
Ġgri nd
Ġf itted
ib ility
Ġrespond ing
ĠCle ver
Ġsurf boards
Ġaffect ion
âĢ¦ âĢĿ
ĠSome how
Ġjing ling
ĠSm udge
Ġmold y
Prin t
l antern
Mix y
ĠWr ite
Ġdragon flies
ĠDish washer
iped e
ĠYog i
Ġmemor able
Ġst ooped
S ounds
Ġreve als
Ġcentimet ers
Ġmotor bike
Ġhe dges
Ġbe avers
Ġcour tyard
Ġconf ront
Ġhilar ious
A d
E S
b ig
ĠM or
Ġc al
pp ort
Ġapp ly
C ount
if ied
Ġcont ra
arp er
ourn al
N elly
Ġfil th
Ġemb ark
ĠSt ir
Ġbalance s
ĠK night
ĠChe l
ĠMo dest
ĠHer bie
ĠSc ary
cl ick
Y awn
F uel
Sam uel
Ġill um
Ġfunn el
N ellie
Ġbl ushes
Sw ing
Care fully
Spark le
Ġbar gain
Ġsnatch ing
Par ty
Par rot
Ġfoss il
Ġpod s
Ġbarbers hop
ĠM otor
ĠElli ot
Ġv ivid
Alf ie
Ġjewell ery
Ġback stage
Ġdislike s
Op era
Ġsad dened
D is
is m
Ġin it
ce p
f un
Ġso b
oo ch
d ong
W ine
Ġfo e
L ady
ĠC ool
Ġcla im
pe w
st art
Ġgra ze
A llie
ch airs
Ġcareless ness
ĠP ipe
b ulb
Ġbump er
Ġu gl
ĠFl our
Ġtri cer
Ġsqu ishing
ĠSp ud
ĠJe wel
bl ock
Grace ful
Ġripe st
ĠRain y
F airy
Ġpuff s
Ros y
Ġunlo ading
Ġst uttered
Ġsim pl
Ġsens itive
Har riet
ĠCol or
Ġmar chers
ĠL ori
ĠChalk y
CRA CK
ĠDen ise
Ġn udges
ĠJ umbo
Light ning
Ba iley
Ġtad poles
Ġplay group
Ġs cep
Ġtricer atops
P a
ĠH an
ĠL il
ad s
ĠM u
ĠM id
ug s
ec or
B ark
ĠW ay
ĠF ia
k ick
ĠB ump
ĠC ane
ĠP ia
Ġad am
Ġst uffy
m ath
a ac
Ġpink y
Ġtouc an
Ġcou ches
ĠBrown y
Ġheal er
aff les
Ġre cycle
C elery
Ġwre st
Ġwre cks
Le af
ĠRo ot
ĠFr anny
Cl ock
ĠJoy ce
Ġgent ler
Ġpartic ip
Ġerase s
ĠBo ots
Do lls
Ġsm udge
ĠEl mo
ĠS afe
Ġcon stantly
Ġpow ders
D iana
ĠDel icious
L ydia
ĠZe bby
Ġfrag rance
pers on
Ġpin ata
Ġye ast
ĠPri ze
Ġpredator s
Ġsymp athet
Ġun fortunate
Ġscep ter
L o
I nd
l in
." ,
al ed
ill s
Ġsp an
Ġn ook
Ġsun r
Ġsn or
As k
W ear
Ġt art
Ġsoup s
Ġcorn s
ĠP alm
Ġc ert
G ert
Ġafter ward
ing erly
Ġtoast y
Ġscr uffy
Ġpro ving
Ġpost ed
Ġhut s
ĠOr der
ĠFl ute
B illie
Ġperf umes
ĠQu iet
Ġmotion less
Ġfriend lier
ĠCra ck
Ġentire ly
V ivi
Ġstrum ming
ĠN aps
Ġmarvel ous
Ġgallop ing
ĠRad ish
ĠDi ary
Ġscut tling
Wr ite
O peration
su pply
Gret a
Ġskept ical
Ġchor us
d s
re p
Ġhe e
J et
ĠB in
D es
Ġbird y
ĠA ut
Ġc ore
N ight
ĠJ ing
qu it
Ġfast en
Ġcl ink
Ġran ge
Ġfi ret
ĠP ie
Ġsun ning
Ġwet ting
ren e
ĠW ord
ĠW itch
Y up
Ġpig let
isp er
Ġpian os
Ġsh atter
Ġstream ed
Ġloop ing
Ġa ye
Ġc urb
Ġcre aky
Ġmarket place
ĠK angaroo
Ġcomfort s
Sh iver
Ġhesit ating
Ġwe aved
ud ers
L ayla
ĠEl mer
M iles
ĠAng us
ĠR ae
Ġreass ure
Ġch omp
ĠIm p
ĠAr row
lest e
Ġsnort ing
Che ap
ĠStri pes
Ġassist ance
Ġtriumph antly
De af
Ġrelation ship
Ġhaunt ed
Ġabs or
ĠFer ris
urs day
g usting
ĠZ izi
Ġsnor ke
Ġfiret ruck
z o
Ġn on
N an
ce y
C all
ĠL in
ad en
ĠT ide
F ill
op ed
N ap
t ap
ine a
Ġclimb ers
ĠIn c
t ree
Ġh ired
bo ve
Ġsa cked
Ġwe bbed
ĠT ower
Ġwonder fully
Ġpoin ter
ĠD ead
ĠW ire
L unch
Ġspin es
eter red
T est
N ope
k ward
aw are
ĠD rag
iff any
ĠF ragile
ĠU r
Ġadventur ing
Ġvo lcan
Ġraft ing
Ġtruth ful
Ġwheel chair
ĠMar sh
Ġcliff s
Ġport al
M ason
ĠWould n
Ġincrease s
om ped
ĠSqu ir
Ġprop osed
ĠJe alous
Ġspark ler
F aster
Ġjog gers
Ġwr inkle
ĠEl ise
Ġlamb s
Ġraccoon s
Ġ5 0
Ġgl inted
Ġtin iest
ĠJoke s
ĠAg ent
Ġthump ing
Ġwig s
Cra zy
ĠBark ley
Ġgrunt s
Bra ve
Per haps
Ho pper
Wheee e
Ġpin chers
Ġdut ies
Ed ward
Ġmult ip
Ġphotog raph
Ġgalax ies
ĠMis erable
Ġd aughters
Ġappropri ate
ĠChel sea
Ġsimpl er
Ġadam ant
Ġgu inea
Ġaw kward
' '
Ġ ,
Ġl itt
D one
J ade
ast le
ri ff
qu iz
ĠR ac
ĠFin s
Ġupset ting
Ġpath ways
ĠN ad
Ġsnee zy
Ġsmoke s
Ġrecogn ise
ĠUn known
Ġintroduce s
ĠRock et
C act
Cl ass
th ud
Ġsting er
o vers
ĠI ggy
A da
Fl ick
Fl oppy
Sm all
Ġtroll ey
Ġcourageous ly
Sof ty
A udrey
Ġ12 3
Butter flies
Sl ap
Ġre new
Ġsele ction
Ġdia pers
D isappointed
ĠT axi
inc lude
Ġde jected
ĠHam mer
ĠHen ri
arl ene
Ġbloss omed
Ġover alls
Ġregard less
Ġvers ion
ĠSPLA SH
Ġgrouch y
Ġflex ibility
ĠTh ursday
se at
ĠH al
ĠL oud
Th ink
ĠC ard
aut iful
P ress
ac ty
Max ine
ĠHe aring
ĠL amp
Ġmin ers
ĠC ub
z ens
Ġfoot ing
ĠBu ild
E mer
C ars
ĠC aw
c aw
Help ing
Ġco als
A ye
Ġcomplain s
kay la
Ġgate keeper
P anda
Ġsec ured
Ġrep res
ĠTw ig
Sp ace
Ġcrumb ly
ĠMad ison
Bu bble
Ġf rench
Che ss
Ġmur al
Ġstrap s
ĠSte vie
T rain
Ġsele cted
Ġscri bbling
nut s
Ra ise
ĠG erald
Ġstore owner
Ġprec aut
ĠPo ems
Ġtent atively
Ġgent leness
Turt le
Ġlight bulb
p ay
Ġp om
Ġg e
P ot
Y et
pp o
ill e
Ġcar ri
ĠF an
ure en
R ep
Ġfe at
ĠJ ak
Ġpar ad
s que
rot ect
in ts
Ġfur row
t ale
ic ier
C alm
St art
Ġfeather y
ĠSp ell
Ġun imp
ĠBu bby
em ory
ĠJ ungle
Ġcompet ed
Ġsw ipe
Ġgum s
Ġspend s
Ġdeliver ies
Ġquestion ing
Ġle aky
ĠPe aches
Ġpinch y
Ġwre ath
!' ,
ĠHop sy
Ġboo ed
Ġgra sses
P oke
ĠStretch y
B ecca
ĠM acy
ĠTruck s
Ġwealth ier
Im mediately
ĠFluff les
Ġacc ur
Ang ela
Ġqu ench
Ġgem stone
Ġaa hed
Ġf rilly
Ġou chie
Ġnav ig
Ġarm chairs
Emer gency
v i
h an
ĠT an
g le
Ġm il
ĠI an
st ay
ry er
st ore
ight ed
ĠW all
ĠW et
C ally
Ġstor k
iz ard
Ġr age
az ed
Ġcount ers
er os
Ġcreat es
Ġt arp
ĠA mer
b arrass
ser ve
Ġcol ony
Ġter m
Ġpray s
Ġham m
com es
Ġtoast ed
Ġa uth
ĠR oby
Ġresc u
Ġled ge
av ailable
Ġyield s
aud ia
Ġport s
ĠMo del
ha ired
Jo die
Ġspong es
Ġhair brush
Ġburst ing
Ġexha ust
Ġcon cl
Ġ2 5
ĠSe a
Ġobser vant
Wh oosh
Beth any
ĠF inger
ĠKay a
W affle
S ugar
Ġa ching
Ġprank s
ĠMa ia
Ġsquawk s
Ġremo ves
O ooh
T aylor
ĠTuck er
Ġawa iting
ĠT roy
La uren
Ġrasp berry
Ġcy cle
Ġintr u
ĠCom fort
T axi
M irror
Ġen chant
Ġrequ ires
ĠJosh ua
ĠAnd rea
Ġsof as
Ġun aware
Ġparad ise
ar f
N at
ri el
Ġtre k
w ood
ĠJ or
S ave
ĠD ry
ess y
Ġgr ime
av in
Ġdin er
r ated
Ġfa ire
un ches
Ġshap ing
Ġent r
Ġlarge st
Ġmap le
Ġcrawl er
Ġdeliver s
ĠSh ar
Ġpost box
ĠCl iff
Ġhon our
mm m
if act
Mar riage
R avi
Ġopp on
E llen
Un iversity
ĠT igers
Ġblack bird
ĠSl ip
T oni
Ġfocus ing
G inny
ĠCro c
ĠPl anes
Bo x
Ġsnug ly
ĠW rap
ĠWhe els
ĠR ico
che ck
Ġboast ful
ĠO mar
App les
Ġburp ed
Ġhambur gers
f olk
Animal s
Ġcor rid
Ġll ama
Ġcent ipede
Ġvolcan os
Ġshe riff
Ġhamm ock
r d
A c
R ot
Ġbo ar
Ġp el
Ġsc or
ĠW ing
Ġfind ings
ĠD ive
Ġv en
Ġhand i
uff ing
se ct
ĠA ppy
Ġbaby ish
Ġch art
Ġele g
ass age
col m
b read
ĠB read
Ġf ert
den ess
ĠWh ose
Ġsc ars
ĠMy a
Ġnervous ness
Ġmeant ime
Ġed ged
Ġgrill ing
Ġfest ive
Ġlid s
Ġkid do
ĠT ino
E arth
Sp irit
Sp aghetti
ĠStitch y
io lets
ne igh
the se
Ġwilling ness
Ġmagician s
G ently
Mat ches
Ball oon
Any a
Ġem otion
P urple
Ġalley way
Ġdisagreement s
E asy
ĠWhe ther
enn el
Ġro aming
Te ach
ĠC ami
Ġmur m
S usy
Ġswat ted
Ġsizz ling
Ġclin ked
Phil ip
ĠDish y
Ġbl azing
Ġsauc er
Ġprepar ations
Ġdu o
Ġasse mble
Ġcack led
ĠSec ond
ĠP addy
ĠAm azingly
le gged
ĠOrgan izing
ĠA rnold
Res ist
ĠCl othes
Ġintr uders
Ġdo zens
Ġz eros
Ġout comes
Ġauth or
Ġtowns folk
Ġhandi work
Y o
w w
Ġl ou
Ġ ver
ld a
Ġha st
Ġfor b
Ġis s
Ġred s
ul ous
P ause
Wh ite
ip ing
ĠP ing
ĠP ress
Ġcut er
bo ing
ĠW avy
Ġmat es
Ġf erry
Ġso lem
M ilk
ĠOn ions
Ġjam s
Ġstraw s
m ond
Ġindependent ly
Ġang les
ĠH ours
Ġdust ing
Ġexam ines
Ġrhin os
D eer
Ġpractice s
Ġrestaurant s
Ġbuzz er
Ġafternoon s
ĠSk ully
y ah
Bu y
act ly
Cl osed
ĠF ern
ĠSpring y
ĠMar go
Ġast ound
ĠMar vin
ĠSc out
ĠStretch ing
Ġtweet ed
Ġdump ing
ĠPh one
Ġslither s
M ousy
Ġdisc ount
Ġprick les
Ġearth worm
Ġoverwhel ming
Ġinvent ed
n esses
Sc issors
Al bert
G iraffe
Ġroyal ty
Ġcook book
ĠSail or
Ġobl ige
ĠNap kin
W alter
Sal ad
Ġproduc ts
Ġwitness ed
Ġclums ily
Ġobvious ly
ĠMy stery
Ġimmense ly
Ġclasp ed
Ġsunr ises
Ġhaird ryer
Ġart ifact
Ġru deness
Ġsolem n
C e
H ome
A ly
ĠF ay
y our
Ġsl ug
A bb
y ummy
T aking
Ġunt ies
D illy
Ġcr ime
Ġcr ate
ag gy
Ġdo ze
ord on
Ġde vel
ĠP ost
Ġent ry
Ġmiss ions
Ġimpress ion
getable s
ĠYour s
iv y
per ate
Ġsign ature
Ġhive s
Ġjunk yard
angu age
Ġinfant s
Ġblood y
T ippy
Ġgra cious
ĠJu de
Ġachieve ments
Ġeight een
B ibi
Br uce
Ġdef ended
Ġmarve lled
Ġseem ingly
Ġfavour ites
M ighty
Ġdroop ed
ĠSurpr ised
Ang ie
ĠSqu awk
ĠPer haps
Ġwasp s
Tre asure
Ign ore
ĠP ractice
ĠC obweb
Ġal together
Ġpul se
Ex actly
z i
m om
B ar
on a
S id
am er
st ar
ĠHe al
f ind
Ġman s
Ġf ried
l ist
ĠD ar
Ġpe ed
ĠC y
Ġte en
Ġit ched
Ġte ary
ob by
F ear
c led
Ġro bbed
Jo el
Ġso cket
ĠC alm
Ġoven s
Ġso ars
oc us
Ġreg ain
ĠWill a
Ġpow ered
Ġcoo s
Go at
Ġple ad
ĠCh urch
ĠDan a
re quest
ĠMar riage
ĠIs land
ĠTony a
ĠS omeday
Ġplain s
Ġbroom stick
Ġecho es
Ġweekend s
ĠWin ning
f uel
M acy
Ġincreasing ly
Ġleft over
Ġchill i
Ġrebu ilt
ĠRes ist
Ġgrump ily
Squ awk
Ġtink ering
Sh rimp
Ġponyt ails
Don ald
Cook ies
Ġmoan ed
ĠDinosaur s
d rop
Ġday care
tre ating
ĠJem ima
Ġpret zel
ĠPo kie
Ġeducation al
ĠCoop er
ĠK oko
Ġa rose
ĠC astle
Ġfurrow ed
Ġk ennel
O W
O N
C ut
ĠB al
M ack
Ġl ack
Ġr oug
Ġco y
arn ed
ĠA dd
Ġcl ank
Ġeat ers
s urpr
ĠT ink
Ġch urn
ent ine
ĠTh ump
l ion
G ail
ĠR ake
Ġclothes p
o de
th row
ĠC row
I cy
ĠZ ach
Ġpr oof
ĠSp r
Ġfierce st
er als
Ġang le
ĠD enny
Ġquar ter
ĠR ubby
Ġelevator s
C oby
F old
Ġsepar ately
Ġregret ting
ĠMar gie
Ġluxu ries
sh irts
Mar cus
ĠSc ared
Ġfeast ed
ĠRe ach
Ġdelivery man
Ġbud get
ĠLuc ia
ĠRel uctantly
C ircle
Ġgrandd ad
Ġroo ft
Ġharvest ed
Ġunlike ly
Grand mother
Ġoper ator
Sl ide
K aitlyn
ĠSon ia
Ġsub mar
Ġinspect ion
Ġextingu ished
Step h
Ġswift ly
ĠBun Bun
Ġbre wing
ĠEag le
ĠGri zzly
ĠH aley
ĠLill i
Ġse vere
Ġcontro ller
Ġshimm ery
ĠM aple
Ġexc laim
Ġcert if
ĠA bove
Ġrenew ed
i kayla
Ġfairy tale
Ġentr anced
n is
S is
ime e
b ra
w hen
S ell
Ġwill ow
our ing
Ġstr ate
Ġfly ers
ĠK ick
Ġgreat ly
ood les
b oy
ster ious
So ap
He ather
ĠO k
Ġchild ish
Ġgr ins
Ġcont ri
ĠB ush
p ol
sw er
Ġhero ic
Ġtra ced
P ony
Ġsign als
Ġcomb ine
L aser
ete en
Ġhall ways
h old
Ġsoak s
Ġreceive s
Ġsh aved
Ġch anted
ĠLou isa
Co coa
pl oring
Ġplayd ough
ĠR acy
ĠTre asure
ĠSweet heart
Ġass ign
ĠB OO
ĠP OP
ĠStri p
h onk
Ġtoothp ick
Ġsumm it
Ġresource ful
ĠDeaf y
ĠL olo
Ġradi ating
ĠCass y
Eliz abeth
Ġun att
Ġrid dles
Ġorig in
Rainbow s
Ġh umbly
Li bby
ĠB rett
ĠGr amps
Ġcl enched
Ġdown stream
ĠDel ilah
ĠMart a
Ġferoc ious
K neel
ĠC lyde
Ġretri eve
Ind eed
Ġg ingerly
ĠUr ge
Ġv iolets
Ġcertif icate
Ġten nis
h y
om a
Ġn ar
N ut
er ved
id ly
g um
ĠT hing
N ia
ĠJ a
ĠL au
Ġpo et
o ink
and om
ĠT ummy
ct ing
ac ted
Ġfull er
ĠO b
Ġred der
ĠW ren
Ġtreat ment
Ġstra ined
Ġbake s
ict able
Ġcrack led
Ġcere als
Ġfreez es
G eor
Ġwr iggly
ĠBo ats
H anna
Ġhi king
Ġwid en
ĠSquirrel s
Ġconn ecting
p iece
ĠSl iding
ĠSleep ing
Ġign ition
Ġcaw ing
Ġloc ation
Ġm ending
ĠFle as
Ġsav annah
Climb ing
ĠFlo ssy
Ġinvent ions
Ġlump s
Ġcommun ic
Ġsqu inting
w reck
ĠHar vey
Ġdescri be
ĠFrance s
ĠIgn orant
Cook ie
Through out
ĠSnee ze
Ġsuperp ower
ĠEm mi
Ġambit ious
ĠFr itz
Ġreal istic
Ġcav ities
Ġpinec ones
Ġwhis ked
Ġw omen
Ġbi king
Ġuns uccessful
Ġproc laimed
Ġwhirl pool
Ġch omped
Ġeleg ant
w r
! !
A Y
Ġt v
an or
E ve
B el
ic an
ong s
C omet
ag er
Ġnew er
G ia
ĠT ie
ret s
Ġh ull
ed ge
l by
Ġde b
Ġdis p
ĠM outh
ĠB art
app er
Ġmight ier
br idge
B umpy
Ġsuc ce
Ġfull est
Ġlast ly
to e
lebr ate
ĠK irsty
Ġunt ying
Ġjack s
Ġcharm ed
ĠTr uth
Ġcompl ied
im ately
rmomet ers
ĠY arn
s ides
Ġdire ctor
Ġinstruct or
Ġunp red
Ġgri pped
Co al
Z ipper
ĠJump er
ĠCow s
Fl appy
ĠSe agull
ĠCh atty
Ġoffic ial
eat en
Br uno
Ġcreep ing
Ġfl aming
Ġhoof s
Is abella
Ġsmoke stack
Ġchunk s
Am azing
Ġuntw isted
Ġterri fying
Ġlaz iness
Ġtooth brushes
Ġswer ved
ĠPh illip
ex pensive
Ġintimid ating
Wonder ful
Ġdog gies
ĠH ockey
ĠPiece s
ĠGert rude
ĠTob i
Ġunfro ze
iche ver
Ġprecaut ions
Ġastound ed
Ġr andom
Â ł
e in
ay ed
T er
Ġhe x
Ġn a
Ġl ing
ĠShe r
ĠB one
ĠJ ared
Ġw ick
Ġb ab
Ġex ited
Ġho ard
S pl
Ġgr an
Ġd ies
ng ing
ath a
Ġche ater
Ġcool ers
ĠW ash
Ġpink s
art z
Ġspot ting
Ġsto ves
Ġg ang
ĠR iver
v ity
oof y
My a
Ġloo ser
F ragile
sp ray
Ġfour s
Ġknot ted
ĠY ear
spec ial
Ġmail men
right ened
ĠSmith s
Ġsc ents
ĠMe et
Ġlo oming
Ġdeser ts
Ġswoop s
Zoom ie
Ġsurface s
ĠF eed
f ives
Quack y
Ġencouraging ly
Ġmis under
ĠSh oot
H orsie
Ġflower bed
ĠCare ful
F reya
Pen gu
Ġboast ed
E than
est roy
Ġs ooo
ĠDani elle
Ġm asc
Inc rease
Ġambit ion
ĠB alance
Ġsnoo ze
Ġpoll ut
ĠM achine
Ġicic le
C autiously
ĠM allory
Ġcroiss ant
ĠJ ournal
ĠMid night
Ġsubmar ine
Ġbe sides
Ġunpred ictable
C H
Ġher on
out s
ĠTom i
Ġsm ug
ter y
Ġal t
ĠW ave
ĠW ish
ven ess
Ġpar s
be ing
ĠR en
Ġright s
Ġve ins
i ance
A ren
ĠLila h
Ġdes ired
Ġspray er
L aw
Ġspring y
Ġrid ers
p atter
Ġsle ek
ĠB ulb
ĠPe bbles
Ġsuff ers
ĠHel icopter
ĠOlive s
do h
ĠRo ss
sp ring
ĠAm ong
F lowers
ĠSnow fl
Ġdrum stick
the l
Un freeze
ĠAngel ina
N athan
Ġloc ated
Ġdef ending
Jan ice
ooh oo
Ġstray ed
F ireworks
Ġfer ris
Ġsharpen er
Joan ne
L emons
ĠAri el
Ġfres hest
ĠSaf ety
ĠPu ss
Ġun rolled
Ġsub stance
ĠH arper
Hi ppo
ĠW izard
Ġexhaust ion
surpr ise
Ġpars ley
he y
p om
b or
H or
or o
nt h
c ul
A dd
am us
Ġlearn ers
ex am
Ġunexpected ly
or ough
ĠD ress
ĠF illy
Ġtow ered
ĠP ins
Do ve
Ġstu nt
K itten
R ead
N aughty
Ġkick er
Ġlock er
d aughter
ĠSt amp
Ġdelicious ness
ĠA ustr
Ġfoolish ly
light s
ĠP oin
Ġd ye
Ġbase s
Ġsne ered
ym bol
Ġclassroom s
Ġo ops
Ġwh ipping
ĠChe ating
Ġdo zing
ĠP ogo
ĠKeep er
Ġwid th
Fr an
Ġconsequ ence
Ġha sty
Dan i
ĠElephant s
D awn
Ġblast ed
Ġcraft ing
I vy
ĠFe el
S ettle
Ġpr edic
ĠPast els
Ġcirc ling
Ġhoot ing
Ġroast ing
Ġdizz ier
Ġpersu aded
B ernie
Ġprison ers
Ġgle amed
Ġdonut s
ĠRag gy
ĠWor ried
De bbie
Ġanx iety
Ġsmoot hest
ĠSw inging
Ġdri bbling
bag s
Ġwilder ness
Se an
aunt ing
ĠBer tha
Ġdocum ent
Ġfal se
ĠRe indeer
Ġaccord ing
Ġtrink ets
Ġillum inated
ĠCe leste
Ġnin eteen
Ġsucce sses
Ġthe rmometers
\ "
f ake
Ġlo b
ĠA le
Ġt ame
Ġback ing
ig ure
as se
Ġh ump
R ise
Ġcar ving
S ail
itt ies
Ġmet er
Ġtri o
M ac
it zy
Ġcr ink
W ash
ott le
L amp
Ġstu bbed
Ġworried ly
Ġstrange st
arm ing
sc ore
ĠTh read
it ions
ĠTV s
Ġner ves
b itter
Ġweak ness
be known
ĠCh ubby
Ġgraceful ness
Ġfi zzy
e ating
N ature
est ival
G low
Ġneighbour ing
ĠG ino
ĠChe ster
Ġcontain s
ĠAm os
Ġconfl ic
Ġlower ing
Ġint rig
ab ility
ĠTe le
Ġhand prints
Ġbright ening
ĠSil ence
ĠAny one
ĠR acing
Mo llie
Ġjo lt
Ġbas king
Sw an
ĠCrocodile s
ĠFa ucet
ĠChar ley
Ġbra gging
Ġpersu as
Ġpounce s
Ġsevent een
Ġnut rit
Tre es
Ġquiver ed
Ju an
Ġsmir ked
ĠBarb ara
Ġgalax y
ĠL ottie
fr og
Ġnois ier
Ġph ys
Ġdaffod il
Ġcr aters
Mus ic
Ġex otic
Ġbr ooch
ĠShar key
Ġsolemn ly
Ġmans ion
Ġlou nging
Ġth orough
Ġnutrit ious
l i
u u
p ow
P ack
t hen
um s
Ġsc hed
ĠW a
il ings
Ġh arn
if y
Y og
pl oy
az am
Ġey ep
ĠAll en
le af
F ix
ĠB room
Ġper man
ĠR ee
B erry
Ġrob es
ch irp
Ġseed ling
ĠJ unk
b ones
Ġhum or
Ġcold ness
Ġmis ery
Ġar ray
Ġunus ually
Ġremind ers
Ġcard inal
ĠNo se
Ġborrow s
Ġcompetit ors
Ġviolin ist
Ġrag ed
H aving
Ġsepar ates
ĠMar i
Ġcur ling
Ġcan oe
ĠSh oe
Ġcrumb ling
Ġdeal ing
Ġde fl
ĠJon as
Ġba wk
Ġcon cept
rest ed
St acy
Ġcongratul ate
H orse
ĠH alf
lo ving
th rough
ĠRainbow s
Sm o
Ġlevel s
Ġmac aw
Ġpurch ased
Ġadv is
Ġconsid eration
Ġah hed
Ġquiver ing
Ġl inked
ĠFridge y
fashion ed
Ġun iqu
ĠT affy
Mic helle
Ġfrol icked
ĠK ylie
Ġarcher y
Ġloud spe
Ġsnarl s
Ch rist
Ġawait s
Ġsales person
Ġartifact s
Ġunatt ended
Ġbubble gum
Ġhex agon
Ġce ilings
R h
I T
Ġf id
id a
an ch
re ly
ax ter
Ġpl ight
v ings
Ġst ink
uit s
Ġwet s
Ġac hes
Ġor ph
icy cle
Jo se
S chool
ass y
Ġcont ract
Ġpin es
Ġeag les
ĠA mb
Ġwin ced
ĠP lace
Ġcro c
Ġw ither
Ġexam ination
ĠTo ilet
Ġexplor ations
Ġrecommend s
ĠCl apping
Ġvac ations
Ġsn ores
Ġup right
ĠG rr
ri fied
ĠJ ana
Ġactiv ated
G rrr
Ġgrand mas
ĠToot y
ĠSl ither
Ġimprove ments
ĠTe asing
Ġantic s
Ġchar ging
ĠG iving
ĠRing y
ĠT aste
mo ving
Ġinst alled
gra nd
Ar chie
Ben jamin
J unior
ĠSon ny
Ġdesire s
Ġrem arked
Ġah old
Ġstra nds
Ġeffect s
Ġch ords
Ġlaz ily
Ġind igo
ĠFl oyd
ĠGeorg ia
Ġskid ded
Pear l
ĠPer fume
Ġre solve
ĠW affles
Ġmultip le
Ġcarri ers
Ġhyd rated
Ġt amer
nth ia
R E
A T
ĠHe y
ĠH oo
o es
t ake
K ind
Ġal er
Ġag ile
ĠB uck
Ġch ime
Ġm oth
Ġch ap
ĠH ally
ĠE st
ic ine
un gry
Ġl imb
ĠK ite
Ġlisten ers
ll ies
R oy
oom oo
re sh
pe ace
Ġem ail
Ġperfect ion
Ġboun c
ush i
Ġfire ball
Ġbl ub
ĠN aughty
S eth
M oppy
Ġmedic al
w atch
Ġpit ched
ist urb
ĠSh y
E ating
f old
Ġiron ed
Ġshrink s
Ch uck
A men
Ġkid ding
Ġpl iers
ĠBo ard
Un ite
M ud
Sp oon
ĠK ira
Ġvent uring
ch anging
Ġyelp ing
ĠRon nie
Ġspoonful s
ĠBra iny
P aint
Ġsprout s
ĠLu is
Ġopt im
ĠBrad ley
Ġinsp iring
che ss
Woo lly
Ġviol ence
Ġmel od
ĠEn vy
Grand ad
Ġenerg ised
Ġris king
ĠAm aya
Ġtrouble maker
Ron ny
Ġproduct ive
Ġlove liest
Ġtechn ique
Ġsp lend
G obble
Ġ` `
ĠC orny
Ġsun hat
Real izing
ĠS ebastian
Char les
quit os
ĠMa ureen
Ġh ints
Ġprot ein
ĠS ymbol
Ġorph an
med icine
K e
G u
L L
V an
Ġe p
st on
Ġm ent
Ġnam ing
ĠH ill
Ġg ag
ĠJ un
r us
Ġcl ump
ĠThe rm
imb le
ĠP urp
He el
ĠT ock
We st
Ġice ber
Ġrest ful
ĠT ire
ĠCh ange
Ġdo cks
Ġbus ier
ĠFred a
Tom ato
p ost
ess ert
F lower
oop y
Ġwh oop
Ġrelax es
st aff
Ġpro dded
old s
Ġm aid
Is la
xy l
Ġalarm ed
Ġlabel ed
xu ry
ĠRo ses
ĠJ eep
ĠGr ant
Or iginal
ons cious
co aster
Ġ ...
ĠA rrr
amb i
?' ,
Ġliqu ids
Jump ing
ĠNut s
Pip er
ĠI ris
Ġscamp ering
ĠFriend ly
Ġsav anna
ĠHar sh
ĠCut ting
Sleep y
L acey
ĠOp al
Al icia
Hel i
J asper
M ika
cha un
ĠPain ter
ĠWor dy
Har old
ĠCon fused
Ġor chest
ĠDolph ins
Ġsnoo zing
Ġre arr
Ġy owled
Ġattent ive
ĠTalk y
Ġinh ab
ĠNad ia
Ġroug her
Ġcoy ote
ĠBOO M
Ġrap idly
Ġcross bones
ĠTherm ie
lu xury
Ġorchest ra
f o
nd a
m at
ot y
end or
ĠM Y
Ġlo ot
ar ly
ec ked
ĠS ia
ump t
Ġsk i
ess on
Ġtw ine
ort ant
ĠT ail
be es
Ġwe ary
Ġmon k
ĠAs king
So ar
ang o
Ġbowl ing
Ġspr ite
Ġegg pl
Ġbat ting
Ġcon sc
Ġcorn ered
St u
Ġj aw
Ġmysterious ly
ĠSp iny
Ġyarn s
v als
Ġsque als
Do lph
ĠSt aff
ĠTh ief
ĠTweet s
Ġaccept s
ĠSm art
Ġworth less
ĠPip o
ĠSt ring
Ġbrid le
Ġproject or
Ġcr ouch
ĠSh rink
Ġsc ans
ĠBe ans
ĠRich ie
Rock et
Ġplayd ates
Ġn ooks
Ġexperien cing
Ġstrum s
Ġt ended
Sc ott
ĠRad ishes
Mar garet
ĠKat rina
ĠK iko
ĠDanger ous
Ġsunbeam s
ĠEag er
ĠInd ia
Ġn arr
Ġreal ization
Ġomelet te
Ġrev ved
Ġattent ively
Ġpros pect
ĠE nter
ĠVict or
Ġglare s
Dream s
Ġbeck oned
Cher ry
Ġmam m
ĠGrand dad
ĠDO NG
Ġabsor bed
Ġfert ilizer
Ġdraw bridge
Ġqu artz
i veness
W oohoo
Ġk itties
Ġintrig uing
Ġeyep iece
Ġloudspe aker
xyl ophone
n ecked
w n
! ?
V e
ĠThe a
ĠS im
F ake
P ain
Ġman es
Ġla ss
Ġco ve
ĠS us
s qu
ĠB ite
Ġsto ck
ĠB owl
Ġflower pot
Ġcr ed
sh are
She ep
cle an
Ġbu ries
de ad
Ġb ased
Ġf ract
Ġcoll e
Ġsack ing
Ġla pping
Ġexp and
us ions
ld erly
ĠB iting
Ġeggs he
Ġcompetit ions
Ġcl atter
Ġdeter red
Ġprun ing
ĠSh oo
Ġmodest ly
Ġgasp ing
Ġbother s
l ived
lu ded
f riends
Ġknowledge able
Jack son
Shh h
R usty
Ġinsp ire
Ġne ighing
Ġsquir ming
Ġdrown ing
Ġvibr ate
ĠAc ross
ĠD iving
Ġpoop ed
cra cker
ĠFel icia
Ġsizz led
Ġwil ting
L exi
Ju ice
Ġunb uck
Ġfulfill ing
Ġrhym ed
Ġchant ing
Ġcombination s
Ġsixt h
ĠHopp ie
og raph
iqu es
ĠM irror
Ġasse mb
Ġcry baby
ĠPuzz led
Ġshr ubs
ĠFam ily
Ġsympathet ic
Gert ie
ĠJ aden
ĠC acty
ĠAmer ica
Ġenchant ing
ĠM essy
ĠG ordon
F rightened
Ġem ploy
Ġroller coaster
V E
P s
! .
Ġs in
ĠT ar
H at
Ġe w
R ad
Ġg el
ul ted
op y
Ġno s
uc ch
ĠJ ug
ĠT ank
Ġsh udd
ĠC ec
Ġen s
He e
Ġbus ily
ĠG em
ered ith
e ater
Y ee
Just in
ass ie
ĠF arm
erest ing
Ġp itter
Ġscoot ing
Go lf
uc ceed
Ġpaper work
ĠV ine
K ari
Ġdelighted ly
M icky
Ġconf ess
ĠDog gie
Ġbalan cer
Ġvict ories
ĠBo xy
ĠAn ny
Ġmar cher
ĠJon ah
Ġskunk s
ĠMo jo
Ġsong bird
ĠEx cept
Ġease l
ĠSay ing
ĠGl itter
Ġappreci ative
ĠBert ie
Ġsqu iggles
S afe
ĠFr isbee
Ġbl aming
ĠSu ki
Ġaccess ory
od ore
Ġdesce nd
Ġjo ker
Ġab rupt
Ġtrad er
Ġplun ged
ĠCray ons
ĠEm ilia
Fle a
Ġpyram id
Ġsatis fy
Ġhars her
ĠLaug hing
ĠTra cey
Ġback seat
Ġbook store
ĠCl audia
Ġintru der
ĠIn sect
Ġling ered
Ġ xylophone
Ã ±
ĠB am
c ue
Ġj an
Ġcl ack
B ell
ar ty
Ġd ile
ĠF ill
us k
f ace
p ause
et urn
imb ers
P uff
J em
ĠP ack
m oon
ar rel
m ma
ur led
ĠD rew
Ġa ster
Ġsho ving
Ġbor der
ĠEm i
Ġpast ime
me asure
Ġstart le
ĠK erry
ian o
Ġmilk man
Ġtra iling
Ġproud est
oph y
ĠR ope
Ġslid er
Ġstra nd
Ġrough ly
ĠBr idge
ĠP ony
Ġbarn yard
p ipe
ĠT ubby
Ġdinner time
ĠC old
Ġd ense
ately n
ĠCo ll
Ġprevent s
.. ..
Sh ine
Ġtwink les
ĠAb ra
l isten
Bu ry
ĠMe at
Ro ses
F eed
Ġsqu int
sty le
Ġforehead s
Ġleap s
ĠJay den
H ilda
Ġflight s
Ġmum mies
ĠDina h
Ġchar ges
aw ai
Ġreun ite
G lor
R ani
ĠW aste
Ġunst able
Ġv owing
Ġs enses
Ġpol isher
Ġloos ened
ĠC asper
B oris
Ġhandy man
Ġvacu umed
ĠWor my
Ġunra ve
Ġhy ena
ĠGab e
ĠAcorn s
fight ers
ĠP uddle
Ġcran nies
Ġadvert ise
ĠSu pport
Ġforb idden
ĠAustr alia
beknown st
Ġconflic ts
ĠV endor
Ġt imbers
Ġdile mma
Ġaster o
Glor ia
F ar
g ot
ĠB it
es c
ĠL es
ĠTom y
r ug
ind er
at hed
ĠW ide
ĠL ie
en us
ĠM au
Ġsl oth
ĠF ro
Ġbl and
F ast
pl ain
pl ing
P ine
pec ial
Ġstor age
Ġsqu id
un ning
Ġb ree
Ġno ble
Ġtop ic
f ix
Ġcomp aring
Ġleg end
ĠCh ase
sc ri
ĠM ountain
B ub
ub way
Ġf rill
Ġcross ro
Ġweird est
Ġrot s
ĠMar ina
et te
ĠV i
Ġcomp lex
Ġcla imed
Ġsm acked
Ġadd resses
ĠPaul ina
ah a
ĠN anny
Ġham sters
ĠSpark ly
Ġsw ishing
Ġbroom s
ĠMo ira
w hee
Ġdent ed
ĠMon ty
In ky
Alex a
ĠRe ally
ĠJay a
Ġd iversity
Ġgl uing
ĠPlay er
Ġworth while
Snow man
Ġscamp er
L ots
Ġwealth iest
Mon ster
Ġfaith fully
Ġvegg ie
edic ine
T aste
Ġdedic ated
Ġcurrent s
Ġinnoc ently
Ġdim med
Ġappet it
Ġquarre lled
sl ide
Din osaur
S ylvia
ont osaurus
Ġf idget
lend a
Ph illip
organ ized
Ġme wed
ĠMor ris
Ġsun block
Ġtrek ked
ĠR oro
Ġsched ule
Ġlo llies
ucch ini
O M
Ġ" .
ĠTom a
G ill
Ġfl op
ist s
T ap
Ġh ust
pl ed
A ct
He al
Ġre co
co al
ĠWe aring
Sam i
sh ut
ĠT ee
ĠF olly
y ards
ĠR ead
Ġh ire
Ġpaw n
sc are
arp et
Ġt ens
Ġfle e
ish ment
Ġsol ar
B itter
i bby
Me i
ĠNo on
Ġmelt y
Ġdust er
ĠR anger
Ġenth r
Ġfilm ed
as uring
Ġpowder y
St arry
Ġaccept ance
B low
ĠCl ass
ĠV iv
ĠSk ippy
or ah
Ġcr anny
S omeday
ĠGr an
Ġinvestig ated
Tr uth
Sp ell
D uke
Mar cy
Ġcause s
Ġdar ting
ĠAl vin
C elia
ĠA ddie
Ġac cused
Ġwid ening
Ġlight ening
R atty
R iri
Ġrely ing
Ġhabit ats
d ragon
Ġsav oured
Ant s
Ġexperiment ing
Ġsuspicious ly
ĠR azors
Friend ship
lo Ã©
ĠFore ver
S imba
ĠWor ld
Ph oebe
Ju les
Ġr asc
Ġpassage way
ĠW alking
Ġpostc ards
Ġme ander
ĠGri lly
ĠGra ham
ĠHo oray
Ġtransp orted
Ġharm onica
ĠNever theless
Di ane
lect ure
ĠFil thy
Inc redible
ĠTid dles
ĠAly ssa
Fa ith
Ġclean liness
Sil ver
ĠChrist opher
Cact us
Ġleft overs
Ġorigin ally
Ġship wreck
Ġflaming os
Ġwh ichever
ĠSnowfl ake
Ġlob ster
Ġharn ess
Ġmos quitos
Ġconcl usions
Ġjan itor
Ġd usk
ĠH awai
Ġc unning
Ġfrill s
Ġbr ontosaurus
Ġha il
ow nt
Ġsh ri
Ġbr ig
ĠJ in
Ġu dd
j our
urt her
ase s
v ine
ar ate
Ġhigh way
W ild
ĠR ow
Ġone self
self ish
Ġcatch y
Ġbre w
Ġgl aring
on ely
P arent
Ġc oun
ur ance
H ang
Fin ish
ĠM unch
Ġcho ir
Ġmin us
Ġh arp
Ġm ourn
epend ent
ĠBu y
Ġtid es
Ġwh irr
Ġgenerous ly
ard robe
Ġhe als
Ġtrick ster
ĠGra pes
Ġcheerful ness
Ġcheck up
ĠV er
Ġapplaud s
en cer
S unday
Ġsk etch
Ġgu ides
Mar c
Ġhair band
Pat ches
Ġhum ility
Kim my
ĠB amboo
Ġtemperature s
Ġbar rier
Ġchipmunk s
Ġvibr ations
ab lo
f oot
ĠFind ers
OO F
Ġcompanion ship
ĠCher yl
Ġbook mark
ĠT ami
Ġmot ivated
ĠRound y
ĠB reak
ĠZe ke
ĠB ANG
Su pply
ĠRa ja
Ġpier ced
ĠG iggle
ĠBr idget
Ġcoz ier
Was n
Rich ard
Cr ane
ĠLog an
ĠMal colm
Ġginger bread
Ġmirac ulous
Bel inda
Ġgra vity
Ġsand bags
ĠF igure
Ġperman ent
Ġfid dled
ĠM oomoo
Ġs ushi
Ġwal rus
Ġfa wn
Ps st
ĠV enus
Ġz ucchini
Ġback yards
Ġenthr alled
I N
F it
D ar
Ġto ll
ot ed
et he
Ġy a
ill i
ĠI ra
op ot
M elt
p ty
Ġco il
ĠL ab
Ġd ab
ist a
ers on
Ġfeel ers
Ġrock er
ĠT ough
ĠB uffy
iss ie
Ġper p
ĠO x
ott a
P ower
Ġtw ee
Ġtw ister
il ts
Ġpower less
Ġval ve
St ars
f ork
Ġgener ation
nic orn
Ġmeasure ment
ĠW alk
Ġharm ed
W ipe
ĠFr ame
Ġplayground s
co ffee
Ġmic rosc
m arry
ĠCl ick
Ġveterinarian s
p olog
ol iday
lex ed
id ges
Ġing en
Ġwa ding
Would n
ĠMe chanic
ĠMo ving
Or gan
Ġann oun
Ġburst s
Ġover fl
cl uck
Co ver
Ġd awn
Ġdri bbled
Ġsill iness
T asty
elie ved
ĠP andas
Ġwhimp ers
ĠMagic al
Ġpeep ing
ĠKay ak
ab racadabra
ĠMag n
ĠGrand father
ĠJean nie
ĠFix er
Ġmum bling
Ġruff ling
erg us
Ġank les
p rice
Ġwhir ling
Mix ie
Pe ppa
ĠPassport s
Ġgloom iness
Ġmid night
Clean ing
ĠM uggy
D ennis
Ġsunb athe
ĠThrow ing
R ecord
ĠCray on
ĠVan essa
Ġperse vere
ĠWh ispy
Ġaward ed
Ġdocum ents
Ġir ons
Tri angle
Ġcart wheel
Att ention
ĠNightmare s
Ġtw ittered
Ġrel ented
Ġeyel ids
udging ly
ĠY OU
ĠIs aac
ĠWh isper
Ġalt ar
ak azam
ĠHawai i
ownt own
Ġoverfl owed
` `
H H
j ar
Ġ ut
J es
Ġbo a
Ġd ome
Ġlo an
d are
Ġpl op
Ġag g
un ia
Ġr ook
ist ent
D ive
ise y
J og
ara h
L ara
ĠD ex
T ip
ct ic
P uffy
Ġmess en
ag ious
Ġtrain ers
ph one
But ton
Ġpat ter
s ister
ĠH ang
ĠTo d
p ush
Ġch ipped
col n
Ġrec ite
Ġstart ling
ĠOn i
p oof
E ek
ĠSp y
Ġgreat ness
Ġhur ries
Ġterri fic
Ġday light
Ġpat io
Ġgra zed
ĠSh ut
Ġdishwasher s
K angaroo
ĠL uggage
ĠAll ison
Ġjail er
ĠM iki
M ari
Ġju icer
Ġe ffic
Ġsn ipping
ĠSpark s
C oming
ibb le
Ġpart ners
ĠPeanut s
Ġhealth iest
ĠB oring
undred s
Carl os
Ġtake off
Ġself less
Sp idey
Ġsav ings
Ġ4 0
ĠUnder stand
Fish y
Em mie
Ġoccasion ally
Ġcluck s
S even
A gn
Mix er
Ġbra vo
Ġbe friend
Ġgle am
mar riage
dest roy
Tre vor
Off icer
ĠDani ella
ĠFruit y
Step hen
C asey
Ġgl ancing
ĠPengu ins
ĠSand w
Wil ma
ĠC atherine
ĠMin eral
Ġpyram ids
ssssssssssssssssssssssssssssssss ssssssssssssssssssssssssssssssss
Check mate
Ġwed ged
ĠPret ending
Vo ice
Pot ato
Ġven om
ĠSu zi
Ġsty list
ĠShe lby
Ġdepend ability
Ġuniqu eness
Ġinhab it
esc ape
Ġcont agious
Ġt u
Ġsa c
P ir
P ow
er ve
ĠM et
am el
ĠM ug
t ra
Ġthem e
ĠH um
G um
N one
Ġsc al
Ġs ought
ĠTom as
Ġst ap
ust in
B urt
Ġbl iss
ff led
G aby
Ġmouth ful
ĠM uddy
Her o
Ġfa ctor
C ee
ul ance
Ġst ale
Ġpl ush
Ġjo ey
Ġstr ung
L ions
Ġsol ver
ĠD aughter
Ġme ek
Ġsal ute
ĠPe a
ĠPe ck
C ory
Ġpopular ity
Ġsil very
ĠB atter
Ġrestless ness
Ġmill ions
Ġpit ches
Ġscrew ed
Ġhotel s
Ġshampoo s
Ow en
Ġmet res
Ġhel ium
Ġup wards
ĠD icky
Ġrequest ing
do or
Cl ick
R ud
Ġl ining
Ġspin ners
Ġ1 8
ĠMix ing
Ġty ped
Fl ap
Ġcooper ating
ĠK ris
ĠPick ing
Ġhabit at
Ġev idence
ĠB rick
Frog s
T idy
Ġconsider ing
Che er
R eading
ĠWhe el
sh ift
ĠPar is
Duck s
Ġharvest ing
Ġm owing
ĠPep e
Ar f
Ġtend erly
ĠR olo
Ġsa cri
ĠA yla
c heese
Ġchann els
Ġun solved
Ġdaydream ed
ĠAm azing
ĠFor give
Ġdet ailed
Ġparamed ic
Ġsunb athing
Ġcowg irl
Ġrumm aging
Ġun bear
Ġgarl and
Inc lude
Ġswer ve
Ġcoz iest
Ġsl aves
Ġur gent
Ġorgan ization
Ġcomment ed
Ġsnoop ing
Ġle pre
Ġinit ial
Rep lace
ĠA imee
urp hy
Ġsplend id
Ġiceber g
Ġunc onscious
fo llow
Ġnarr ower
opot amus
Ġpitch fork
Ġd owntown
ĠLin coln
Ġeffic ient
Ġsac red
Ġba ffled
Ġlepre chaun
F am
p ut
D ry
Ġt ic
arn ia
as ked
Ġy ank
Ġpret z
Ġjump ers
ĠC oo
E ast
A rm
Ġblue st
ĠB ip
ck les
iss or
if ting
ĠG er
S ign
s ign
Ġcr u
Ġar ched
Ġm ale
h igh
Ġcho king
Ġben e
Ġpers ons
ĠJen a
M ost
G oose
Ġfl ung
Ġcoin c
Ġselfish ly
Ġlot ions
H onest
sp read
a ult
Ġd aw
Ġres ume
Ġdest iny
Ġhunt s
Go al
bo ats
ĠFr own
Ġgolf ers
work er
Ġflour ished
Ġten se
Ġlend s
Ġreef s
Ġrac oon
S ari
ĠOw ly
ĠM mm
ĠRo llo
ĠMom ents
Ġflat t
ĠBo dy
ĠStar fish
ĠHo pping
ĠO oh
Ġcomm it
ĠSc are
ĠQuack ie
cl ip
ĠCrab s
ĠFl ipper
Ġins pecting
ĠG ilda
ĠMar shmallow
Ġout line
Ġocc up
Ġsquir ting
Ġlimp s
Ġatt ended
ĠKn ob
ĠSp iky
Ġbas ic
ĠLu ka
Mel ody
Ġexperiment ed
ĠGr ateful
Ġviol ent
Ġsumm oned
Ġlif el
Ġannounce ments
Ġdis rupt
Ġbenef its
L azy
ĠLo llipop
ĠScr atch
Ben ji
Ġhot test
do zer
Bess y
ĠHopp ity
Ġhome owner
Pol ice
g osaurus
Ġmer chant
ĠMosquito es
K ylie
St rawberry
Ġres pects
We eks
Y ES
ĠColor ful
Ġg ills
ĠJor ge
Ġcr unches
ĠM assage
ĠBal ancing
des erved
Ġhand wr
Ġpel ican
ĠH edge
ĠE thel
ĠB axter
Ġbrig ade
Ġmessen ger
ĠH undreds
f ed
W et
Ġm ow
ĠL en
ĠB at
ĠM ing
ome o
ĠL ind
w ind
n own
ĠJ ar
Ġfl u
al ways
ge on
Ġn urt
ĠP ic
ĠA be
ĠHer by
fore st
uit y
ĠJ ello
Ġcr im
Ġho ppy
ĠS av
Ġdream y
Ġmat ure
Ġsk ins
ĠM ask
Ġwa de
Ġl oun
im os
ri ze
Ġk ale
ĠCh ain
ol ves
Ġinc on
oop s
ĠN er
Ġtoy box
V era
com fort
G iant
Ġlab s
Ġflash y
Ġdestroy s
w ait
ons ense
ĠSome body
Ġeas iest
Ġdisappear ance
Re veal
Ġsew n
ĠSn ippy
Ġsqu iggly
Ġcher ishing
Mmm mm
Ġhow ls
Mar co
C ora
N eed
t ouch
rr rrr
Ġgaz elle
ĠF ae
ĠWise y
Ġwh inny
ĠC omb
ĠMonkey s
Ġband its
Ġjugg lers
Ġsav or
Ġinter act
ĠWhite y
Ġconcentr ating
Lou ie
Ġripp ling
ĠComet s
ĠĠ ĠĠĊ
Ġwicked ly
ĠPl ants
Ġter rain
ĠStu bb
Ġsul k
Ġkiw is
ĠIgn ore
ĠR OAR
Ġhill top
S abrina
ĠM orty
ĠCand les
est ruck
B ananas
Ġfriend liest
N icole
ĠĠĠĠ ĠĠĠĠ
Ġthunder clap
ĠSt rawberry
H urray
Int rigued
Rem ove
Ġfol ks
up iter
W orms
Hor sy
ĠPoin ty
Ġd aunting
ĠF estival
Yog urt
Ġaler ted
Ġlass o
Ġperp lexed
Agn es
Ġpretz els
Ġsc issor
Ġcoinc idence
e g
' ?
P ed
b ing
G en
Ġo d
ce st
ĠM E
nd ry
ore y
ur u
W ood
Ġla s
ell ed
an king
b ite
ĠAnd i
f ull
pl op
Ġfi ber
ĠP ow
u ary
ĠR am
Ġfe ma
Ġduck y
ĠFin a
co ld
ĠDad a
So ft
Ġb ask
ĠThere fore
ĠT ucky
ross ed
Ġshin ning
Ġnut ty
Ġquiet est
ĠB oop
K arl
Ġrespect fully
imp le
Ġb ony
Where ver
fic ial
ĠAl most
ĠSn iff
Ġthread ed
Ġalert ness
Ġthunder ous
Ġrece iver
ĠMar ble
Ġrubber y
Ġrail way
ĠBig ger
Ġpanic s
Ġboun cer
Ġskill ful
Qu iet
Ġcl inking
g reat
ĠBounce y
Ġpra ising
utter ing
Ġpad ded
Ġint act
s ided
use ly
L ana
ĠCra ig
ĠBen nie
Ġspl int
Ġcoup on
g ently
ĠShow ing
ĠPl anny
ĠRuth ie
ĠCle ar
g irl
ĠAr t
Ġfoam y
M ai
Bug s
Ġinvent ing
N ibbles
ĠCurious ly
ĠBeef y
Cra w
ĠCoal y
Ġbas ked
Eww w
Ġsus pected
ĠGu y
Mel anie
Ne ither
ĠWhe elie
che ap
Ġvitam in
Sh aron
ĠEve lyn
Ġkill ing
ĠK yla
Ġboast ing
ĠEng ine
ĠFruit s
ĠShrimp y
A iden
ĠFore shadowing
Ġcann ons
ĠCand le
b alance
Pol ish
fr uit
aunt ed
Ġtad pole
ĠSaf ari
Ġcav ity
Ġpinec one
ĠTerri fied
Ġicic les
Ġgen ius
E nter
em ple
s alt
ĠLead er
Carrot s
ĠT iffany
ĠBe autiful
sque eze
ĠM emory
Ġrescu er
ĠMac Donald
Steph anie
ĠD estroy
Ġphys ical
Ġthorough ly
Ġcar vings
ĠB ambi
Pain ting
Ġunbuck led
Ġaut ograph
Ġtechn iques
Ġconfess ed
ĠAbra ham
Ġmicrosc opes
ĠMagn ets
Ġaw estruck
Ġan cest
Ġprof usely
Ġ :
h is
G or
ĠB ed
c ent
t ry
R ice
T uck
ap t
Ġtr out
Ġgre ase
ĠJ ase
i pl
c ial
Ġclean ers
Ġthe rm
Ġturn ip
em a
Ġtra g
F unny
t oy
Ġn aught
F air
Ġdri ppy
Ġ iced
ĠD avy
ĠC ott
Ġquiet ed
R eddy
S ale
ol i
s me
Ġmad am
Ġmin es
d ling
Be an
Ġjelly be
Ġperson al
Ġdry ness
en ced
Ġbitter ness
W alk
Me asure
Ġgrass land
Ġboss iness
ĠAl ert
or iginal
Ġrag ged
Ġlime ade
Ġm obile
v iew
Ġmet eor
ĠCarl ie
ĠV ince
Ġc ement
Ġthreat en
Un i
ĠAm ira
ĠHoot s
ĠChew ing
Ġpl aster
Paul ine
en zie
nder son
ri vers
Dan cing
R ingo
ĠRobert a
Ġmer rier
ĠDe bby
lo ad
Ġtodd lers
Ġboil s
gr own
ĠSmo king
Win nie
ĠSoap y
L oyal
ĠPr issy
Ġlantern s
P ige
Ġhike s
talk ies
ĠW reck
Ġpassion ate
En c
Rel iable
Ġreflect s
Ġdismay ed
Stand ing
ĠPl uto
whe els
Kay lee
Ġcance led
tre asure
ĠHel ga
M achine
Last ly
ĠP owder
ĠVict oria
ĠF oolish
Ġmisbeh ave
ĠTow el
ĠGil bert
Av ailable
spl it
Ġchomp ing
nd eterred
ĠDrag ons
ĠRac coon
ĠZe lda
Ġiss ue
Ġ ivy
ĠCobweb s
ĠThump er
Ġdefl ated
ĠG lenda
Ġun selfish
ethe less
Ġfactor ies
ĠAmb ulance
Ġmake shift
Ġunbear able
unk nown
Ġdun geon
Ġingen uity
ĠJ upiter
A W
E nd
o pp
Ġo x
Ġt un
ĠS all
ri ch
ĠA ce
Ġre ch
S ly
Ġj ell
ĠF ur
ĠF ile
ĠMom s
ĠC ind
Ġlo ft
in ion
u bb
Ġche ep
Ġre pt
Ġst ress
ĠLet s
Ġhear ted
ĠL imes
ount ed
Ġpick er
Ġread ers
Ġdo cked
ren a
E gg
Ġsleep ier
ier ra
br is
Ġlife less
W ife
Ġpan ted
u let
ĠSp it
Ġstill ness
Ġcrown ed
Ġpe ony
ĠP ond
Ġz apped
ĠU s
Ġtid iness
V ict
Ġman ages
C ube
Ġt urb
ĠSh ield
Ġtemp les
Ġbathtub s
Ġmuseum s
loo ked
Ġband aid
ven ience
ĠUn ique
re veal
Ġinf ected
Sh arp
uct ive
ĠRabbit s
h urry
ĠB ern
K ira
ĠMon sters
ĠSc amp
ĠN etty
Ġground hog
ĠMel vin
Ġgro ans
ĠRo lling
b uzz
ĠF awn
Ġcom ments
g ae
Sp inny
Ġdeaf ening
Ġsw oosh
ĠN ails
Ġun broken
ĠFly er
Ġhatch ing
Ġreun ion
reg ret
Sc r
Sc ared
W rap
Ġhard ware
Ġnarrow ed
In stantly
Ġsparrow s
C rystal
ĠC RA
Ġhand print
Ġri bs
ĠOstri ches
T ornado
Ġch andel
Ġerupt ing
ĠEn c
ĠChomp y
Sl inky
Del iver
Luc ie
ĠJ uggy
ĠPam ela
C aleb
Ġprotest s
Ġexhibit s
pass port
Ġj azzy
S urf
ĠBel ow
Swim my
Con nor
Ġcoax ed
ĠPuzz les
P ractice
ĠFear ful
ĠSlim y
Ele ven
ĠCub ie
Ġmil king
ali yah
Abb i
Ġregain ed
Ġstrate gy
ĠWa iting
Ġident ify
ĠEst her
umpt ious
Ġunimp ortant
ĠRes cue
ĠSm arty
Ġa jar
Ġinhabit ants
Ġhipp opotamus
Ġdaw ned
Ġfema le
Ġeng rossed
j u
A N
_ _
ĠT u
s ay
in er
f le
le on
he et
Ġ" "
w ith
O oo
C oo
S her
le ad
b ad
Ġs ue
st ood
ĠA way
Ġbr on
B ook
Ġsun n
ap i
ĠB urn
Ġlist s
ĠIn a
oo by
Ġbirds ong
ĠG O
Ġcon st
ĠJ ac
Ġdel ive
Ġto cked
Ġdon ation
orm an
os ing
ĠAt t
Ġpurp les
ĠCh ild
Ġlunch room
Ġy ipped
Ġwide st
Ġc ope
Ġzoo s
Ġpan el
nic ian
Ġstar light
ĠTr ish
ĠTr ade
Ġun cles
ĠSn e
ĠN umbers
Ġtooth ache
Ġme ats
Ġal tern
Ġfrustr ating
Ġcamp ground
Ġc ured
Ġshelter s
Ġnetwork s
Ġexper ts
ĠL ecture
Ġrelease s
c ups
Ġdot ted
ĠT iggy
Ġfl urry
ĠSam son
ĠAnt on
Ġcent u
Ġcontro lled
ĠChrist ine
ĠM ammy
Ġaff ected
sw eet
ĠAn ita
ĠPl ate
Jess y
Joy ce
ĠCut ie
Ġruff les
Sm iling
Ġunwrap s
Ġsoothing ly
St acey
Ġtop ics
Ġbill owing
Ġinform ed
cra sh
Ar t
Up on
ĠD oris
Le opard
Grand father
Per cy
Bob bi
B EEP
Ġdoubt ful
Ġcan cel
Ġcl inging
AA AA
B arney
C ricket
ĠFold ing
Ġun roll
ĠSquash y
ĠSpl ish
ĠW iggle
D erek
for give
ĠHay ley
Tra cy
Ġz agged
Ġgur gling
Ġintimid ated
Ġthunder cloud
spe ed
ĠGeorg ina
Ġsam ple
Ġcrevice s
ĠMo dern
ĠSurf ing
Ġcontra ption
ĠP rotect
Ġnavig ate
Ġoppon ent
Ġrooft op
Ġassign ment
Ġult imately
Ġgran ola
Ġhead lights
Ġm asse
Ġwither ed
Ġep is
Ġemploy ee
Ġres ulted
ĠQu arrel
ĠMau rice
Ġsa pling
Ġcrossro ads
ĠM edicine
Ġreco very
ĠN arnia
Ġsomers ault
Ġflatt ened
Ġhandwr iting
Ġbene ficial
Ġtherm os
Ġjell ies
ame leon
I G
Ġ &
J ed
ou l
Ġm im
Ġh ing
ri a
ar ily
ĠS ound
Ġe el
ake st
ĠIt ch
ack s
N ell
p ick
G ab
P ep
Ġpe er
ĠC ave
ort ly
Ġhigh ly
ĠJ ail
il ary
Ġde ce
ĠR unny
S ock
ĠCan ny
B ath
ap hn
In ch
ĠHe avy
p art
ĠS ton
Ġcow ered
ĠH arm
K erry
Ġcl ipped
ĠJ eb
ĠMark y
Ġfa iling
Ġmean ness
Ġch imp
Ġbarn s
W inky
ĠBlue berries
Ġhosp it
Ġfu zz
Ġdirt iest
ĠR ef
Ġbirdc ages
H ola
ĠBow ser
Ġport ion
Ġspec ially
ĠBee zy
Ġstomach ache
ĠFl ippy
ĠSo ccer
Ġrul ing
go ers
ĠM aster
An cient
Sn akes
Ġdump ster
T abby
ĠCr unch
ĠH ooks
sn ip
Ġmirac les
ĠSun flowers
Ġexc uses
ĠMar ching
Ġsuck ers
Ġdisagre es
sa fe
ĠJack lyn
H urricane
Ġtantrum s
ĠPark er
Ġpossib ility
Ġcl ippers
ĠHa iley
ĠBark s
Ġass umed
ĠJam al
ann on
Ġfoot print
Ġtrim ming
Fe ather
Ġrais in
ĠG irls
og ram
Ġpost master
Ġsh akers
att ach
ĠYay a
Ġponder ing
Ġmirac ulously
Ġmis behaved
ĠFour th
Ġrequ ired
Ġneg ative
Ġb zzz
L aila
ĠO peration
ĠDes k
p owder
ĠParrot s
ĠC autiously
Ġpat rol
F oolish
Ġjersey s
Ġl inks
Pinch y
Ġsal iva
Ġbroad ly
Ġugl iest
ĠWay ne
Ġshatter s
Flick er
lem entine
Ġclothesp ins
M ikayla
Ġre acted
Ġna ive
ĠH ungry
Ġcred it
ĠS ubway
Ġgrape vine
Ġmourn ed
ĠU nicorn
Ġal akazam
Ġcar amel
Ġlifel ong
Ġrain forest
Ġancest ors
Ġde bris
Ġam ulet
Ġover looked
Ġscr umptious
Ġcentu ries
Ġmasse use
Ġch ameleon
aphn e
Â ´
re o
id st
Ġlo ver
es ame
Ġat h
ra il
S ack
S ec
Ġla ir
Ġag ent
ss ed
ile en
ĠS ab
us al
C and
N ine
Ġwarm s
ĠS uit
ick ered
Ġgr ater
en ix
ĠD andy
Ġje ster
' ".
or ance
Ġdelicious ly
ĠW arm
ase ball
Ġbread s
Ġflo pping
Ġround est
ĠN ail
Ġch irpy
Ġmed it
ĠS aw
ĠE scape
ic iness
ĠC live
Ġwa fted
Ġab und
ĠG enny
Ġice cream
Ġanxious ness
ĠSh ane
Ġsad dest
Ġint ention
Ġj umbled
Ġmy stic
ĠNo la
Ġpa cing
re place
W anda
Ġhut ch
Ġbookcase s
Ġshelter ed
Ġgro ve
heart ened
ĠH mm
Ġexit s
F anny
Ġemer ge
Ġgr rr
Ġgrant ing
Ġexp osed
Ġwrit ers
ĠWh ales
ĠDid n
is fied
Ġadmiring ly
Sp read
Ġb ib
C ody
Ġpig lets
ĠTurt ley
Ġbully ing
ĠRalph ie
Ġglitt ers
e off
Ġd unes
y ellow
ĠFly nn
ĠDoes n
ĠApp reci
ĠPeep s
ĠM otion
ĠMatch ing
ĠTra ffic
Fly ing
ĠFa ctory
A aron
Ġcommand ed
ĠBra vo
ĠApp laud
le cted
ĠSt arla
et itive
G iddy
Ġentertain ment
Ġbust le
Ġunb elie
Ġsquirm s
Ġre jected
ĠRelax ing
Ġtire lessly
ĠD ottie
ĠSer ious
Ġdeter gent
Ġrain cloud
Ġfres hness
Dis play
Ġside kick
Ġju icier
Ġfaire r
Ġcorrid or
Ġmurm ured
Ġweak nesses
ĠTink er
ĠEle anor
Ġlot tery
li ked
ĠR anch
Ġmelod ic
ĠBre nda
ĠSo oty
Ġcrouch ing
Ġunrave led
Ġpre scri
H aha
Ġhust le
ĠCh loÃ©
ĠW ardrobe
ĠP ablo
Ġfr idges
ĠF ergus
ĠDex ter
ĠMet al
Ġscrewd rivers
Ġunst opp
Ġdestr uctive
Ġal gae
Ġwe akest
Ġref usal
t w
" ?
ĠHe ar
ig el
M al
s ome
t ell
ĠM ice
ach a
Ġwho a
ĠE nt
s our
Z og
L og
Ġflow s
ĠL ine
Ġgr oo
em and
ane st
Ġsat ell
Ġsm ear
rew n
b ath
Ġbl aring
âĢĻ ,
ĠG ames
cle ar
Ġpr ance
Ġvis ion
Ġrel ia
ĠTo ad
Ġrob ins
Ġrobot ic
H unt
Ġs ourn
Ġteac up
Ġste amed
Ġcle ars
F izzy
ĠBe bo
Ġclown fish
Ġpump ing
Ġsmart ness
an cient
ĠU ma
ĠNo isy
rel iable
eropl ane
Ġmild er
gl ass
Ġcomplain t
Ġpatch work
Ġshort est
Ġcell ar
Ġattach ment
Ġgym n
Ġtwir ly
Did n
ĠUn ite
Ġdown wards
Qu iz
Ġequ ations
Ġp yth
A ddy
Ġble ach
Ġbur den
Ġpo cus
ĠChe f
Ġwrit ings
Ġcont act
ĠSqu ary
Ġfrost y
ĠFin ley
Ġdestination s
C uddles
ie go
Pe w
Ġgas oline
Ġse ctions
at ives
Ġcontro lling
Ġcr ushing
un freeze
v isions
Ġdesper ation
T ears
ĠPl um
Ġwrigg les
Ġrem orse
Ġgroan ing
Bo ing
Ġhe irl
pr oof
c ircle
c adabra
Ġm amma
ĠSp idy
ĠAb racadabra
ĠWil f
ĠK icking
Ġdep ar
Ġposs um
Im p
ĠBro c
ĠRh ino
ĠSam mie
ĠCake y
Ġoper as
Del ay
S uccess
Ġadv anced
Ġcon vey
Ġcleare st
Ġapples auce
For give
Ġbelief s
ĠIgn oring
Ġmain tain
Ġdisob edience
ĠSu pply
Ġflex ed
Ġperson alities
H aley
Ġorgan izer
H azel
Ġind ivid
Ġtransp ort
ĠRep air
Ġqu enched
ĠR iya
ĠLe fty
ĠFree zer
Ġfry ing
Ġapologetic ally
ĠSp oiled
ĠAut omobile
em barrass
ĠRay mond
Ġsav ouring
Ex ploring
Nut ty
ĠAg atha
Ġmasc ot
ĠB ottle
Ġpersuas ive
E arly
Ġmamm oth
Ġpi Ã±
Ġunsc athed
Ġut ens
Jes se
Ġscal p
Ġsail boats
Ġloun ge
ĠOp inion
Ġincon venience
Ġtech nician
Ġhospit als
Ġneg lected
Ġunstopp able
Ġsourn ess
Ġpyth on
Ġheirl oom
ĠpiÃ± ata
1 2
O y
l it
M ir
ĠH ig
Ġdo e
ĠMax i
m ouse
Ġex h
ot ty
re ach
W arn
Ġfe e
as her
nder s
Ġse qu
z ers
ll ers
ĠT our
Ġl ink
Ġkind a
j ail
ool s
ĠR ec
ĠS uch
Ġb ount
Ġfarm ing
B ike
Y outh
or ation
Ġwor thy
Ġriver side
re ated
ĠZ ap
ĠGra cy
ĠHe althy
app ear
M itch
H igh
Be ary
Ġcla pper
Ġb rill
B oop
St ick
After ward
Ġsl unk
we igh
ĠB rilliant
Ġlab or
Ġpro pped
O ats
Ġin ject
Re g
Ġtid iest
cu ry
Ġresist s
O stri
Don na
Ġstable s
Ġspoil er
ĠUn pack
Ġinf l
ĠSt icky
ĠCl oe
ĠOwl s
a ah
Ġstraight en
D eep
ĠGr owl
Ġvan ishes
Ġhon ored
F urry
Ġ1 6
ĠPo key
Ġf ades
F illed
erm it
ĠHug e
Ġposit ions
ĠGl ad
Ġcongratul ations
ĠH atty
ĠIce y
Ġsw elling
Ġpack ets
S eat
Ġcirc um
ĠThere sa
ĠPee ky
Ġfluff iest
ĠDel ivery
F ierce
Ġde gre
ĠBo xie
Ġhand made
Ġgloom iest
Ġsur vey
Ġscan ner
ĠR uggy
Ġbrag ged
ĠAbb ey
ĠPeach y
Ġrat tles
Ġdam aging
toot hed
ĠZebra s
M iguel
ĠH idden
N aomi
Ġtur qu
Ġpoll in
ĠOl ga
ĠJo di
ĠFair ies
Ġho oray
ĠBer ty
Ġcra fty
ĠBath s
Past a
ĠD riving
ĠN ormal
rep are
Ġsnorke l
Nat alie
Ġscor p
Ġdevel oped
ĠVe getables
Des perate
ĠL anguage
ĠMy sterious
ĠPal oma
Geor gie
Ġcommunic ating
Ġbab bling
Ġstunt s
Ġstreng then
ĠCy nthia
Ġlimb s
L esson
Ġeggpl ant
Dolph in
C assie
ĠSp encer
Ġk ibble
Ġsacri f
Ġbull dozer
Ġdis comfort
Ġur gently
Ġmystic al
Ġst rewn
Ġdegre es
e v
I S
Z e
L E
ĠT in
H ay
u is
on ing
id an
b et
R ow
Ġr am
a un
p ad
P ill
um i
R are
ĠW on
Ġp ried
l ia
W ave
Ġl us
b ump
Ġbr oth
Ġpic t
Ġho ly
K ite
c ite
B ull
ĠF og
Ġbu ff
ĠP oo
M uffy
ĠR ough
Ġplay thing
ĠG ar
Ġsun ken
un ken
Ġmar sh
m ix
k art
de le
Ġju ry
amp ed
ĠM itten
D ale
h ire
ĠK ey
ĠJust ine
to day
Ġli ars
Ġsol ves
Ġfan ned
w oman
ĠSt ation
Ġmotor cy
R ina
ĠSp read
us ual
Ġpa ced
Ġsell ers
Ġburn er
Ġblack berry
Ġde als
Ġnight light
Ġblack berries
Ġmot iv
ag ging
ĠSh out
ĠF lies
Ġtear ful
ĠA ero
L illie
om ino
ĠChe ep
ĠAb el
Ġshock ing
Ġinvestig ating
Ġhesit ates
ien na
Ġlove lier
Ġsting ers
Ġdeser ted
Ġto ler
Ġslam ming
R rrr
Ab ra
Ġflavor ful
ĠNo elle
ĠHo ho
Ġmet ho
an ne
ĠUp set
Ġunw anted
Ġsk ipper
ĠM iley
Ġexpress ions
rat ive
ĠTh omp
Ġc ulp
Ġswallow ing
Ġme erk
Ġrel ative
Ġmake over
ĠPe ering
Ġhand stand
Sc atter
Sm ell
ĠBro dy
Ab solutely
ĠBar rel
ĠMop sy
Te a
K anga
Un lock
ett a
Ġdist ressed
Ġacrob at
ĠHorse y
ĠMilk y
iw i
ĠR iko
Min ty
Ġdown hill
Ġdazz led
Ġp ixie
ĠClar ice
ĠCom my
ĠRest ing
Ġsplin ters
ĠAdventure s
ĠReg ular
Ġcleve rer
ĠE sk
ĠSer ve
ĠBike s
Mic key
St udying
Ġhotdog s
Ġsto cking
Ġsand paper
Pa ige
Ġparticip ate
ĠAut umn
ĠJing les
ĠBuild ing
Ġaccur ately
ĠG avin
ĠBush y
Ġtoothpick s
Ġcal cul
Ġpredic ted
ĠAle c
Ġo vals
Ġshudd ered
Ġens uring
Ġastero ids
ĠS pecial
Ġaston ishment
ĠF arah
ĠAr ctic
Ġste gosaurus
Ġn onsense
Ġod or
ĠCott on
Pige on
Ġcart wheels
Ġdis heartened
ĠAppreci ate
Ġme anest
Hunt er
Ġtele visions
Ġindivid ual
Ġturqu oise
Ġlus cious
Ġshr unken
ĠThomp son
S a
M u
A g
z il
ut t
se ll
ĠB ing
ĠM c
Ġbo p
er ome
n ame
s ack
ic ke
Ġb um
n ice
ĠF at
Ġpr am
ick i
Ġdec re
ĠD ra
il ant
Ġho ll
ĠC one
S and
ft en
ine se
L ate
Ġtr ough
Ġfell a
ĠR ap
L ock
Ġfin er
ch ange
Ġbe llow
Ġsh red
uff ins
Ġthr ower
Y ucky
ĠP arent
d ance
Ġwell ed
Ġbug gy
Ġliving room
Ġpush y
sc ary
Ġshr ub
ator y
C up
Ġexp ired
ĠN est
ĠN ella
ĠM arge
Ġcl unk
sp ace
Ġlad led
R oof
ĠSp ear
b ute
Ġquiet ness
Ġlog o
ond a
Me at
ĠT ory
ir cles
Ġsw atter
ĠTr umpet
ĠM aze
Ġwelc omes
Ġtruth s
Ġsurf aced
Ġis la
ed ric
ĠLook s
M arian
C arry
Ġcrib s
ĠPat sy
ĠY u
Sh ampoo
Le arn
Ġc ores
Ġble ating
ore nce
Ġover do
Ġsh aded
ĠHope fully
Me ena
ĠPe ppers
Ġinstruct ion
ĠMoo ly
ĠJ ayla
ĠS eed
ĠMatt ress
cl ack
Ġam using
ĠUp stairs
ertain ly
ĠP hew
Ġ ounce
ĠHug h
Rock s
ĠBad ger
Ġattack s
sol ving
Ġsea water
Gr an
Ġatt ending
ĠPig s
Ġsn oot
Ġw its
Ġfu ssy
s ugar
ĠL yle
ĠNo sey
ĠA rnie
str uck
ĠEd gar
Ġgall ery
Ġcaution ed
ĠRace y
Ġgre asy
Ġpract ically
Re ggie
Ġcondition er
El i
rem ain
Ġgruff ly
ĠStri ke
ĠMill i
Son ia
ĠP ants
Ġgn aw
Bl ocks
Ġgloom ier
ĠM alia
Har vey
Ġentertain ing
Ġconstr uct
Ġc asc
Be atrice
ĠT alking
Ġadjust ments
Ġpoo rer
Ġdu et
Wr iting
Spid ers
ĠEm ergency
Ġerra nd
Ġwh ooped
Ġcomp artment
Ġsm udges
Sc arlett
Ġtrave ller
owled ge
Ign orant
Ġj agged
Wil bur
ĠTe rence
ĠTeam work
Hug o
turn ed
Ġlo vable
Ġmisbeh aving
ĠTwink ie
dis gusting
v ille
Ġaccur ate
Ġgur gle
Ġterm s
An swer
ĠSher ry
ĠSlither s
Ġbounc ier
Ġorphan age
Ġadvertise ment
Ġshri ek
Ġagg ressive
Ġoccup ied
ĠR uru
ĠA nderson
Ġbutter cups
Ġkil ogram
Ġutens ils
Ġnar rative
ĠCh inese
Y e
5 0
d id
j or
ver n
Ġy o
ck n
Ġdo in
Ġtime out
The a
v ide
ĠA x
are r
ĠW ra
ĠBut ch
M ag
Ġbr ittle
ia h
ĠD ick
c ers
p ull
ĠS ink
B etter
Ġwa ft
J ail
ĠK el
ĠK o
ĠP le
Ġde le
ri ble
Ġwork b
Ġduck ies
G ather
Ġste ers
art oon
Ġarm ed
Ġcount less
Ġne cess
ĠD ully
Ġdon ated
Ġglow y
Be be
Ġsmooth ies
Ġjewel er
Ġspace man
Ġhorn et
ony a
Ġspot light
Ġstri ving
Ġf iddle
Ġshine y
ĠSh ady
se par
head ed
Ġweep ed
Ġweep s
Ġrever ses
Ġgain s
b aked
Did i
Ch air
Ġtre mend
ĠFl are
All igator
reat ive
ĠC oral
do ll
Ġbr rr
Ġappro ving
ĠSt irring
ĠDr um
ĠB oys
ĠJ ud
ĠTw iggy
Ġconf use
Ġpadd ock
Ġwound ed
Some body
ĠL amb
Ġgri ef
Ġmotor boat
cl imb
ĠRe ward
ĠP ammy
elp iece
ĠG eese
ĠH iding
ĠP ushing
Jul iet
ĠEx am
Ġsc aven
Ġwadd les
ĠT ilda
ĠHerb s
Fl ash
Ġsou ls
L acy
ĠGl immer
C onnie
Ġcooper ated
Ġind oor
Ġmischievous ly
Jon ah
Ġint ended
ĠGrand son
im agine
oll i
stand ing
Ġpriv ile
Ġj ingly
Sc ore
ĠPot ty
Sm oke
Matt ie
Ġlen ses
S issy
Ġshuff ling
ĠT alia
Sun flower
Ġemb arked
Ġsl inked
ĠD oodle
Cook ing
Ġposition ed
Ġstreak s
C auliflower
itz i
My stery
T anya
ĠGhost s
M otor
Ġrum our
Fle xible
Gold ie
Att ach
Shark s
Ġth orny
Ġdaffod ils
Pet ey
as min
Ġsal mon
Ġblister ed
Ġmant el
ĠEarthquake s
ĠSquir my
Ġdrift wood
Ac cidents
ĠMin erals
Ġcontri but
Ce lebrate
Ġhoard ing
ĠTele vision
ĠBroom y
Ġoptim istic
ĠThe odore
ĠP iano
Bub u
Ġrasc als
ĠA ustin
Rud olph
ĠW olves
Ġconvey or
Ġbrill iance
Ġcircum stance
Ġmant elpiece
y o
. )
W ay
Ġhe m
Ġha l
c oo
se en
al ent
he al
ri al
Ġh ue
ra ce
C ec
d ark
Ġh omet
ia s
T ie
Ġch is
Ġto pped
ap y
s ive
ist ant
ĠE v
p ink
ĠC or
ĠWe ird
ĠT able
Ġafter all
ild ing
ĠK ia
ĠIn ny
ĠP au
Ġimp ul
Ġmet ers
ĠR ise
ar ma
Ġwait ers
ĠTh orn
sh ade
ĠD av
sh ield
Ġnest ing
C amp
Ġcan ister
Ġsh ards
Ġbe ards
ĠE gy
Ġgi ver
Ġsu ited
Ġdangerous ly
ĠWe althy
ou ches
Ġpocket ed
Ġj ung
L ung
Ġu pper
Ġcount ert
c ars
Ġact ress
c ont
Ġchocolate y
Ġrough ness
ĠT appy
l asses
Ġmo ats
Ġgolf ing
Ġtra cing
ĠCh imney
Ġslipp er
Ġn aked
ch amber
ĠCl appy
ĠN iki
Ġregret fully
Le a
ĠP ops
ĠF etch
Ġrep orted
N anny
ĠCl osed
ĠFollow ing
ĠGr ady
ĠAn gry
Ġsqu irts
Un known
ĠB unnies
Tr ade
ĠAunt y
Ġbo sses
Fr anny
ĠPrin ter
Ġtractor s
ĠSad ness
Pe bby
ĠH anging
Tw enty
ĠBall ie
Ġden y
ĠMel ina
ĠRe lease
ĠH ans
Ġdet ached
Ġbeeh ives
Ġund id
Is abelle
Ġtight ening
ĠShe lls
Ġer ror
Ġunz ipping
Squ ash
Squ are
Sm ith
!âĢĻ .
Ġhost ess
Ġhob bled
Mel inda
ĠBar bie
Ġne atest
cra zy
Ġfluff ier
Cow s
ĠGret el
Ġerupt ion
Pr unes
Ġbegin nings
Bree zy
ĠBrave heart
Luc a
Stretch ing
b anana
Ġscrunch ing
ĠAlligator s
Pam ela
ĠHat tie
Ġth ickest
Ġempt iness
Ġt att
ĠI van
E lli
Ġblind ed
Swim ming
Ġmango es
ĠAri a
ĠR rrrr
ĠD rip
ĠPal ace
Ġem erald
ĠT igo
Ġjer ked
ĠArm chair
Ġir re
Ġup stream
Ġbul ging
Chick en
Ġpurs ue
ĠPret end
Ġs oooo
ĠMeg han
Ġhast ily
Ġfr ayed
ĠShoot ing
Smo key
ĠPurp y
g iveness
Ġsin ister
Ġabrupt ly
ĠK atelyn
Act ually
F urther
ĠVer onica
ĠPet unia
Ġstap ler
Ġsub sided
Ġepis ode
ĠQuarrel ing
Ġdis liked
Ġspy glass
ĠBra zil
Ġa ckn
separ ate
Ġhomet own
ĠEgy pt
Ġjung les
n i
j ay
is it
C am
D ig
Ġr it
e very
T ad
S el
al an
ill o
Ġl ame
ard ed
p ark
Ġ ?"
ĠT ax
Ġback f
t ag
Ġhe ave
Ġfl ed
er ick
uck oo
Ġlot us
Ġtr am
Ġtr o
ĠWe e
Ġgr ad
expected ly
w ild
Ġsc uff
pl ane
Ġsoft en
ock et
ĠG re
Ġtri be
Ġtra cked
sh a
She ila
Ġse af
Ġac qu
ĠO be
Ġs ized
Ġse ash
Ġdream er
Ġmat ted
ower ing
Ġspot ty
Ġwoods man
ĠF ee
ance s
Ġres il
op ards
b ush
C ol
We igh
D ella
br own
ĠD eb
Ġf iling
St r
Ġspe cks
ĠB izzy
F ork
st ones
Ġfear fully
ĠSt orm
itter ing
Ġbreath less
T alk
com p
Ġsleep iness
Ġtrick ling
Ġdesign ers
Ġrem edy
tt a
ellig ent
Ġvine yard
Ġed ible
Ġfu se
Ġh umbled
Ġschool work
R azor
play ing
Ġmess iest
Ġairport s
ĠB iki
ĠV alley
Ġprepare s
Ġclaw ed
ĠFl ames
Ġfier cer
ĠAl right
Ġapolog ising
Ġseason ing
ĠF ishing
Ġgust s
t oys
Ġsho ppers
m int
ĠAsh y
Ġden ied
ĠMel on
M ammy
ro lling
Ġburrow ed
Ġbl ushing
b eds
ĠJe anie
ĠY ears
eah orse
Ġgra vy
Ġill ustr
Ġoffic ially
Bo ssy
Ġnatur ally
Ġflick s
Gr adually
ĠHor ses
Ġstur d
Turn ing
ĠN ico
Ġsly ly
Ġland mark
Ġdistract ing
yl vie
ĠCe lebr
qu eline
Ġdoub ted
ĠHipp os
Ġmid st
ĠPol ite
ĠK arla
ĠAv ailable
ĠDVD s
Wh ilst
Ġtent acle
aterpill ars
ĠCal vin
ĠWood s
Ġrasp y
R upert
P umpkin
Spin ning
ĠSh apes
Ex ercise
Ġsunburn ed
W alking
Ġkern el
Ġde lete
Ġaim lessly
Ġclient s
Ġfestiv ities
Alf red
ĠSel ma
rist a
Ġbul ge
Ġth rive
Cro codile
H ockey
Ġout going
ĠPrun ella
Ġult imate
ĠHair cut
Count ing
ĠCool er
Ġsp icier
Del ighted
ĠEm barrass
ĠCliff ord
Ġcy cled
ĠA cting
ĠOb edient
CH OO
Ġbull frog
ĠSh oes
Ġassemb led
ĠM eredith
Ġchar coal
Ġtens ion
Dar ling
Ġbar ista
ĠH oliday
Ġcommit ment
Ġmisunder stood
Ġam idst
Ġsp iciness
ĠEnt ry
Ġdepar ture
Ġbount y
ĠK iwi
C ertainly
Ġworkb ench
Ġbu rial
Ġrit ual
Ġtro lls
Ġseash ore
Ġ i
P u
G O
F O
ĠS T
Ġm ir
s end
ĠB ot
ut ch
Ġ !"
he el
ow el
M ill
riend ly
Ġout w
Ġsm other
m elt
Ġst ag
ook ie
un ish
as il
ll ous
ĠSo l
Ġam en
P our
p our
Ġsor ce
Wh ist
ĠC re
Ġte e
pl ow
f rom
ip er
ĠS age
uff er
Ġbra ved
p ress
ĠR ab
ĠR y
am ble
ĠJ az
Ġhear ty
We ird
ĠG ummy
ĠJo h
Ġpe ster
ĠC aring
sh h
ĠAll an
Ġl ather
Ġmust y
Ġdin o
pe e
M art
ĠJ ee
Do or
ĠEm il
Ġgr ated
S itting
Ġcreat or
igg ling
Ġhorse y
Ġwa iling
Be et
Ġwing ed
P oof
ĠL uce
Ġgather s
Ġrare st
Ġweird er
Ġtight ness
Ġcareful ness
Ġgrateful ness
ĠHow ard
Ġmet als
met s
Ġdelight ing
Ġend anger
Ġhomes ick
Ġweek ly
r ito
Ġmodest y
Ġdetermined ly
Ġpillow case
Ġeye ing
oun cing
Al arm
Ġboss iest
ĠV et
Ġfloat ie
Le an
With in
Ġble at
Ġsn ips
ĠO ops
Ġtremb les
Bl ake
ĠIn chie
ĠLiz ards
Ġcross walk
ĠDr inking
Ġr abies
Ġvet s
ĠMo ses
Ġh ues
Cl ar
F ern
Ġpeas ant
n eed
S eal
ĠBall s
ĠChrist ina
e lephant
Ġd immer
Ġhedgehog s
Ġgr itted
ĠD elia
ĠEx pl
ĠSl apping
ian ca
Ġinc omp
ĠG ulp
Fl utter
ĠAn abelle
Ġvibr ation
Ġsprink lers
ĠM ai
Ġbrain storm
Ġgroom ed
ĠFix it
ĠTra p
Ġsh ift
ĠCh ico
Ġsp uttered
Pick les
Bra ndy
Ġunc ont
Cle o
Ġplum met
K yla
oos hed
Ġsevent h
Ġgreed ily
ĠVo ice
ĠDon ald
ĠJet tie
Ġbow tie
ĠN oodle
Ġto nes
Ġdilig ent
Sw inging
Ġblend ing
Ġmini ature
Ġm entions
Ġgo pher
ĠBon o
Ġprec ise
catch ing
un zel
ific ant
eee ase
Am azingly
Ste ak
dis play
Ġex pects
ĠT ricia
pre vent
Ġwall paper
ĠRem ain
Ġkidn apped
sp oiled
Ġinit ially
Ġwrest le
Ġund eterred
ĠWall et
ĠRoby n
Ġhast e
e arned
ĠRee f
Kind ness
Ġfract ure
Ġeggshe lls
Ġconc luded
R eturn
ĠL otta
ĠR omeo
Ġcrim inal
ĠSav annah
ĠNer vous
Ġped dling
ĠH ilary
ĠO reo
Ġabund ance
ĠEsk imos
ĠFl orence
Ġchis el
Ġlamp shade
Ġav alan
ĠS eahorse
Ġunf riendly
Ġsorce rer
Ġsnow plow
Ġbur rito
Ġavalan che
) .
S E
ĠT H
l im
ot i
M or
ut u
Ġr im
ĠS end
ent le
m ake
h ome
ĠT ur
re ted
ag u
B ab
T ank
ĠD ax
Ġc au
B ite
ĠB ink
ĠB etter
L and
ĠHis s
ĠM ate
m ber
ĠP ause
m iss
Ġun ear
Ġsand ed
P aper
Ġper k
Ġprom pt
Ġquick ened
Ġmo de
L olly
Ġhead set
p itch
llie st
Ġnut ri
br ary
ian s
Ġsal ut
Ġme ment
sp ear
Ġshadow y
Ġpump s
Ġadm itting
Ġ3 6
Ġpresent ation
ĠWe bby
Ġtoast s
Ġmist aken
Ġaunt s
iv ore
Ġswitch ing
Ġpun ct
ld ron
Ġcour te
olog y
Ġsn acked
Ġrid ges
reat he
Ġglo ss
Ġemer ging
Ġunderstanding ly
n osed
Ġsneak ily
Blue berry
Ġpeel er
Ġrip en
ĠSc oop
Sn ee
Ġhus k
Ġgross ed
Ġag ility
Ġunw ind
ĠBlue bird
ĠHe aven
Ġwrink ling
F ancy
Ġs cept
Ġpuck s
ĠShadow s
ĠSe ven
p retty
Ġchar ger
ĠPl op
ĠWh oosh
,' '
Ġexamp les
ĠMin ute
ĠTre ats
Ġsu pr
sn ake
Ġconqu ering
Ġcourt room
Ġab racadabra
Ġfl icking
Ġwith stand
Ġha lt
str id
u bert
ĠJim mie
Ġexc ites
Ġsauce pan
Ġripp led
Ġfl ushes
Ġbe ware
Ġsilver ware
raw berries
ĠMe ggie
ĠWas n
Ġleng ths
Ġaband on
Ġswat ting
Ġdistract ion
Mad eline
L yla
sh hh
reak able
ĠRon ald
Ġtang les
Ġfer ret
Ġunpl ug
D ifferent
Ġunh appiness
New s
ĠFoot ball
ĠHome work
Ġfres her
B alance
ĠPige ons
S orting
ĠTam ara
sk ating
Ġglance s
ĠRose mary
S ydney
ĠCr ispy
ĠRep lied
Ġfun eral
ĠMist akes
ĠC uddle
sp oil
Ġfal con
Ġpurs uit
ĠPat ricia
Ġst inks
ĠFam ous
ĠScoot er
Ġtranqu ilizer
Ġdun ked
Ġgrind ing
Ġcontra st
ĠMu seum
Ġinh aled
T iffany
ĠMarsh a
Ġlitt e
ĠCard y
Ġwal nuts
ĠJak ob
ĠDel ighted
ĠGab riel
Ġfaire st
Ġcorrid ors
ĠSt uffing
Ġver b
ĠSpr ite
ĠJa ime
Pengu ins
Pengu in
Ġcond itions
X IT
Ġwets uit
Ġbed post
Ġnos iness
ĠLes lie
C arpet
Ġmeander ed
ĠL onely
Ġannoun cer
R elieved
Button s
Ġpatter ned
ĠSandw ich
ĠM urphy
Ġfre ckles
Ġill eg
ĠT emple
Ġrech arge
Ġdelive rer
ĠSne aky
AAAA H
ĠSh annon
ĠIgn orance
d emand
Ġsacrif ice
ĠSh aun
Pill ow
ah lia
Ġculp rit
ĠHenri etta
Ġwaft ing
Ġtremend ous
ung lasses
Ġuncont roll
Ġneg oti
Ġnutri ents
Ġcau ldron
Ġcourte ous
Ġunb reakable
u z
Ġ 0
U N
d in
end s
Ġbut t
is ht
w ake
Ġj ut
Ġle is
ch ain
T op
al ade
pp ings
P ia
ĠF i
ank et
al ise
âĢ Ĭ
un ite
Ġcl og
le ft
Ġgr im
Ġh ip
p les
ĠP ump
ĠP it
Ġte xt
k iss
ĠR ic
Ġhands h
uit ion
Ġthink er
air a
Ġjo ll
Ġtri ke
b orn
Ġsleep ily
In k
Ġball room
Ġcont em
m ower
ic ation
de af
Ġmum ma
zz ie
ĠTo ss
im ated
ĠZ one
Ġbe gg
Ġchee ses
m ilk
ĠW ilk
irp ort
Ġrec ited
ĠD irt
ĠLe ather
Ġspark ing
ang ling
ĠM oose
Ġsoft ens
Ġcraw ly
Ġtight est
ĠM elly
On ions
sp oon
af raid
ĠW oman
pl aced
P aw
Ġcreative ly
Ġfool s
Ġcu bby
D ory
Ġspl atter
n ext
anger ine
Ġhe ating
ĠT ito
ĠM ention
Ġmeal time
Ġwool en
Ġtear fully
Ġvaluable s
be ef
Ġfort ress
Ġrefrigerator s
Ġb ison
ĠV olly
ĠV est
Sh y
Th inking
Ġinst all
Ġflat ten
b utter
Ġexpect antly
Ġinch ing
Ġ1 1
in nie
Ann abel
d rink
ĠQ uest
ĠMar iam
or ters
fly ing
Ġmay onna
Ġtuck ered
ĠAngel ica
Olive s
Ġform ation
Ġscrub s
Ġsprout ing
b ooks
,' "
ĠWolf y
Ġloc als
Ġant elope
Ġblack boards
Ġtin ier
Cl over
ĠAc cept
del icious
net work
o lyn
ĠJ uno
Le arning
El ise
Ġunfold ing
ĠT HE
Ġbat tled
Ġinnoc ence
Cra bs
ĠClare nce
ĠAlexa nder
Ġdoub ts
ĠSack y
Ġdiver s
ĠSid ney
Ġstump ed
spass ing
oo ooo
Ġrun gs
ĠBe have
Ġplun ger
Ġspir als
M osquito
S NAP
Ġmenacing ly
somet hing
Ġsymp athy
ĠF ribbit
Ġwhis pe
l oyd
Ġadvert ising
Ġnick ered
M allory
Never theless
ĠBre aking
Ġpi ec
ĠBry an
Ġblister s
ĠEgg s
ĠJewel ry
Lo ad
ĠInc redible
Ġphotograph s
Ġbl uffing
Earth quake
Ġdevel op
Ġgracious ly
W OW
Ġexclaim ing
pol ice
Ġtur rets
ĠD essert
Ġconsc ience
Stu art
fix ed
Ġbare foot
ĠA polog
Ġwood worker
ĠScratch y
Ġso cial
Ġtrag ic
Enc ouraged
Ġs esame
Ġsn ickered
ĠD iego
Mir anda
Ġtwee zers
Ġd omino
ĠS ienna
Ġvig ilant
Ġph arma
Ġgrad u
Ġrose bush
Ġflower beds
ĠCelebr ating
Ġmarve llous
Ġincomp lete
Ġsupr ised
isht icated
Ġlawn mower
Ġmayonna ise
ĠTre spassing
T V
L y
S P
E N
E L
P in
C re
Ġwas t
v on
y et
B ri
ĠM am
ĠM it
l ittle
h ug
ter ed
ir ly
re hen
ĠT ight
il ight
J ared
ĠJ ia
L ab
Ġbl u
ist an
Ġho ver
F og
et ched
Ġstar ving
ĠTh in
Ġspecial ist
Ġgl um
Ġd iss
Ġcook er
t imes
ĠFin ish
Ġlight en
Ġcar av
So l
ĠAll i
S ully
Ġbut ts
Ġres er
ĠP ale
Ġmail s
He althy
ic ol
ĠB igg
sw ered
Ġcoll ab
Ġb irth
ĠFred o
Ġh umb
ĠLe g
Ġhorse sh
ĠC ity
ugg le
Ġenjoy ment
ĠSt ove
Ġwh iff
ĠM arl
W orry
Ġfrown y
Ġtr und
r inky
ĠCh atter
Ġdeaf ness
Ġengine ers
Ġbl aze
Ġload er
Ġtap ing
Ġsurf s
Ġvend ing
Ġexp ense
Ch ad
ĠY ara
Ġskill fully
Mark y
ĠRu le
qu ipment
Ġsty ling
ĠT illie
f etch
Ġfashion ed
Ġbur gl
B umble
am ents
ĠMe w
Ġco ppers
ĠCo ley
Fr uit
Mar go
go al
ĠSun set
Thank you
Sn ip
cl ose
Ġsh ivery
Ġt angle
F uzz
ĠD ipper
Sh awn
Ġarr og
Leave s
Ġafford able
Ġodd s
ĠChick ens
Ġjud g
ĠPick le
ĠEric a
Ġd war
Sc are
Sc ary
Ġcreak s
Ġcirc ular
L ula
ce lyn
Ġaccom pan
Ġhe aps
Sk ipping
Ġlonel ier
r ann
Ġblur ted
Ġscut tle
ĠPa o
ĠA ya
ĠDream y
ĠN essa
Ġcrust s
ĠD rain
Ġfrant ic
Ġmid air
ĠRag s
ĠM iko
Har ley
ĠHot el
M ushroom
Ġp iped
Ġclam s
Ġtack led
Ġpluck ing
ĠT ori
Ġpr ancing
Ġlaz iest
Gl ue
Ġgrave yard
M orty
Ġunb uckle
ĠFold y
ĠFold er
Wr ong
Ġrequ ire
ĠPri ya
G erald
Ġpurp oses
ĠBon ny
Ant hony
Ġgrand baby
Ġmor sel
Ġspe wed
Ġpet rol
Cro co
Ġdrool ing
ĠGoo ey
Ġeyel ashes
ĠW ags
H appily
Is aac
ĠDrag o
Ġoppon ents
Ġp iping
Ġresourceful ness
ĠLau rie
Ġpr ongs
Ter rified
grand father
Ġstock ings
Ġant eater
Jem ima
ĠMar got
Ġreass urance
Ġgr udgingly
ĠMa isey
ĠScare crow
Ġnurt ure
ĠC orey
ĠBern ard
Ġchandel ier
Ġhing es
Ġrel atives
Ġscorp ion
Ġpict ured
Ġcr amped
ĠDra co
Ġcontri bute
Ġisla nders
T alent
Ġtram pled
ĠDeb orah
Ġsturd ier
ĠU FO
Ġmir age
Ġreg reted
Ġjo lliest
Ġuncontroll ably
Ġleis ure
Ġcarav an
Ġmult icol
rann osaurus
C y
A D
T y
p in
Ġ om
l ar
l an
F an
h or
T am
G oo
T all
ar se
Ġshe ar
al u
ĠL ake
ug ht
ry ing
d ry
t hed
L ie
ĠJ ob
l ab
Ġr uck
Ġth us
Ġp ap
Ġpo x
Ġun le
ĠE ri
Ġmo h
R ara
urt ain
Ġus her
Ġcom ic
C ream
Ġover t
ĠK ell
ĠP J
ĠP ro
Ġrem a
Ġwo ve
ĠR are
. âĢľ
t ear
uit ar
Ġcra ving
Ġb ac
Don ny
ect ar
Ġun co
e ered
Ġlight ers
S af
Ġspl ish
ac ation
Ġfin ale
ĠGra ss
R ush
Ġgra vel
ons ible
ol t
Ġplay set
ĠBl ock
F arm
m ined
if ier
ator s
Ġadventures ome
ever al
Ġt amed
Ġpri or
Ġgener al
ĠDon key
Ġsco ff
r ony
Ġdull er
K irsty
Ġsp ilt
Ġwander s
Ġghost ly
Ġdelight fully
j azz
Ġf umbled
Ġsh ushed
Ġroot ed
Ġoil s
it ney
Ġsett ings
Ġdistance s
Ġins ign
Ġshower ing
Ġel astic
Ġjam med
v eterinarian
Ġfo cuss
ĠSk unk
ĠPaul ie
E ddy
Ġbed ding
Ġvict im
Ġd une
J eep
Ġwor ship
man ship
ĠBo ing
Ġsl icing
ĠChe er
ĠH ana
ĠCar ter
Ġl anes
ĠG rrr
Ġg aa
ĠL abel
len e
st retch
Ġartist ic
b ility
D usty
W hew
ĠZee bo
-- -
ĠBee Bee
ĠT rey
Ġunwra pping
ĠSte w
Ġd ashing
ĠSe ason
ĠTri x
ĠMar issa
ĠMagic ian
ĠAr f
ĠSal ma
ĠSp ending
Ġtopp le
âĢ¦ "
Ġding ed
Che ster
Ġdetect or
Ġwh ites
Ġmold ed
Ġfurious ly
Curious ly
un can
ĠWhe ely
ĠCell s
cra ft
ĠDel i
Ġhandleb ar
J ada
Pr une
ĠC eline
Ahh hh
H uh
Ġstation master
Ġscrap ing
N emo
Ġstir rer
shoot ing
m akers
ĠGrow ing
Ġbon us
G izmo
Ġmass aging
Ġcol ander
Ġinqu ired
D orothy
C ereal
ĠB ini
ĠPan ic
B zzz
ĠSer ving
ĠBike y
A gent
Aww w
care ful
Fel icity
Lu isa
ĠBab a
ĠK atherine
ĠAh med
Ġo vation
Ġmo cking
ĠM urray
Pray ing
Ġgot ta
Ġthaw ed
Av ocado
ĠD ecor
Ġsu ds
Bar ber
Ġge ode
ĠCh arming
ĠSquir rely
d isturb
Ġblind fold
Ġwhoop ing
Ġcolle ge
ĠE lderly
O VE
Ġhoney moon
ĠBit sy
Ġudd er
ĠL issie
Jog ging
ĠStubb orn
ĠLau ndry
U ndeterred
ĠAtt ach
ĠC lementine
Ġret reated
Ġn uis
Ġdecre ased
ĠO ften
Ġounce s
Ġkilogram s
Ġp ouncing
ĠRap unzel
Ġj agu
Ġbegg ar
Ġtw ilight
Ġunear thed
Ġmoh awk
eter mined
Ġinsign ificant
Ġnuis ance
Ġjagu ar
d r
Ġwa re
h ar
ing e
P an
C or
Ġsa pp
ĠI D
B es
Ġd ime
R ound
el i
R ug
um ing
ter ia
ab oo
m us
B us
âĢ ĭ
Ġsk im
ĠF ull
Ġsor ter
ĠL etter
H and
f ine
ĠL ate
or able
it able
O ak
ĠP our
ĠP ad
Ġbu oy
ac ious
Ġbutter ed
ign ed
Ġcr ater
av a
ĠH andy
W orm
ĠG olly
Ġrel ied
Ġbutton ed
Ġele ct
Ġblanket ed
ĠCh o
ĠCh ant
Ġli vel
ere m
ll ey
ĠB ible
ĠBl ob
Ġbat hes
ra ined
Ġfur ball
Ġseem ing
U gly
L umber
To ast
ĠN ame
ĠH ose
ĠP oof
Ġgen u
Ġrub ies
Ġgigg ly
ĠT ray
Ġcab ins
Ġind ex
Ġhigh light
Ġdepend ed
Ġbl inky
ĠNo a
Ġsniff le
ĠSh irt
Ġh ushed
ĠMiss ion
Ġflour ish
Ġpal er
Ġspoke s
del ay
Ġwinter time
ian na
Ġaw fully
Ġaw ed
ĠY ork
P ippy
ĠFl ops
ĠV anny
Ġinv aded
ĠGr own
Ġa ids
Ġt act
Ġn ana
ĠL ilo
Ġ1 4
ĠAnt ar
ĠAnt sy
Ġun int
ĠSc ales
Pe ach
aa a
ĠFu dge
ha usted
Be ans
Ġdet ach
ĠCh ipper
ĠP onies
elie ving
Ġcl attered
ĠP inny
T igger
Ġcollap sing
ĠS iri
ĠB roken
ĠOt is
Ġl inger
ĠLuc inda
ctric ity
ĠUse ful
Ġve sse
Ġrack s
ĠAlex andra
Ġmarve lling
Cra bby
reg ular
ĠMax well
Ġtrou bling
Ġbound ing
ĠH ula
Ġoccasion al
con f
Ġhudd le
ĠSw ift
ĠSpoon y
rem ember
ĠMusic ian
Ġgrump iest
Ġcr uise
che t
Ġgrunt ing
Ġcol umn
Ġmound s
Ġlur ked
ĠPo ppa
Ġdire cted
ĠPol ish
ĠRag sy
ĠNew s
ĠVe il
ĠPed al
ĠCal i
Ġsul king
Ġth yme
Ġproduc ing
C aterpillar
Ġmoan ing
ĠEag erly
Ġhairsty les
ĠSpl ashing
R rrrr
Ġgad get
ĠFar ley
ĠTrunk y
ĠC ircus
Ġfrol ic
Ġspec ific
Ġinterrupt ing
ĠPlant o
Tri xie
ĠPu ppies
Ġobser vation
ĠTid ying
Past el
S ebastian
ĠTwink ly
ĠH appily
Ad venture
ĠI rene
Ġsnorke ls
Call ie
Ġrepres ented
ĠAm azed
Ġrescu ers
A riel
Balloon s
Ġsevere ly
Ġmouth piece
Ġcrink led
pow ered
Ġadvis or
ĠWin ston
Ve getables
s ucceed
Ġlife style
ĠFire fighters
Ġbree zes
ĠMe asuring
L illi
Ġdab bed
Fam ous
Arm chair
Ġbed spread
Ġwhirl wind
Ġgrape fruit
Ġjellybe ans
Ġgrassland s
Cube y
ĠLind say
eoff rey
ĠN igel
ĠS acha
Ġgymn astic
Ġmer cury
Ġsurvey ed
ĠA dele
icke l
ĠS onya
Ġapproving ly
Ġcircumstance s
Ġirre sp
ĠHaircut s
need ed
ĠT utu
Ġilleg al
Ġkey chain
Ġsam ples
Ġhandsh ake
Ġint uition
Ġcontem pl
Ġun afraid
Ġmis placed
Ġaccompan ied
Ġvolunt eered
Ġfocuss ed
Ġware house
erem iah
Ġirresp onsible
f u
k o
O b
A K
5 5
g in
J ing
L en
pp et
ĠShe p
F all
Ġnot ed
b es
B ake
ra s
ra h
ur l
Ġha ul
ĠS ong
op er
Ġbr ay
d ings
Z ach
Y arn
Ġm ile
Ġpr on
P ret
ish op
D ish
ap or
ĠD J
in ous
a fter
Ġv ow
ant i
Ġho g
Ġn our
ĠC udd
ft ime
C ate
u ate
Mom s
Ġfo al
S ort
Ġpeople s
No on
ĠH ummy
Ġpar ce
rel and
ĠR og
Ġpa c
Ġsw ear
Ġpain s
S uit
uc ting
ĠL orn
Ġhill side
Ġte ster
co at
Ġfore ign
ĠG ather
Ġarm ful
amp y
Ġsmart ly
Ġque ue
ush ion
sw ing
Ġteach ings
Ġmilk sh
ĠL ost
ĠG ator
Lila h
Ġpill ars
Ġfil ming
we ight
B iff
p any
Ġpay ed
Ġtrick led
mbre lla
Ġcr ates
L ying
Ġdisappoin ting
B atter
ĠE ither
Ġmill s
ĠR ats
ĠSh h
ĠP apers
Ġd iction
zag ged
O xy
Ġobser ver
Ġb asis
r ison
t reat
ĠD ippy
Ġover looking
ĠM aker
ĠMay or
Ġg utter
l oved
? !",
Ġkeeps ake
Ġhe aved
se ls
Ġbra ided
Ġrepeated ly
Ġboo ked
Ġrust les
wh ite
ĠLove ly
bl ack
ĠStay ing
ĠG len
Ġwat cher
Ġmu cky
Ġburrow s
Ġdef iant
Ġmaster ing
c opes
Try ing
Ġaud ition
Liz ard
Ġback fire
Ġsm ears
Ġstroll s
Ġsl ots
Mouse y
Ġdecl ined
I ris
Ġcaw s
Ġconnect ions
ĠLight s
ĠGrand child
ĠSt udy
ĠPeace ful
ĠTra ins
ĠM ala
Ġcompan ions
Ġco des
ĠOld ie
ĠCher ries
Ġsc oured
ĠA ggie
Win ning
Ġhuff ing
osp ital
ĠTurn ing
Ġdiv or
ĠCh ika
Ġund ressed
ĠGen e
ĠCe iling
En ormous
Ġsorrow s
ĠStri ker
Ġwild flower
Ġbun ches
S auce
Green y
K aya
ĠLe gs
ĠNat alia
ĠStick s
L ori
ĠBes ide
ĠSh orty
Ma ia
ĠHoop y
Ġfrol icking
Ġcack ling
Ġphra ses
RR RR
ĠC ourage
D rive
Ġneg lect
Ġmould ed
ĠLaug h
ĠSt orms
n ormal
Ġugl ier
Ġrepres ent
Ġunimp ressed
ĠSc arf
ON K
Geor g
ĠHar bor
Ġun icycle
Ġment al
squ awk
ĠMunch y
S erve
ĠCee Cee
Ġmeek ly
ĠLollipop s
Ped ro
Ġlas ag
Ġt aunted
Gor illa
ĠE sme
Ġover grown
Ġnon etheless
ĠFur ball
Ġch ubb
ĠUs ually
Scr uffy
Surf ing
Ġconst ant
ĠB IG
Ġmim ic
Ġf rail
Ġunbelie vable
Ġbeck oning
Ġmotiv ation
ĠRh onda
ĠC edric
ĠYu ki
ĠWra pping
ĠPau ly
ĠFor giveness
Ġdisc arded
Ġc owering
ĠC aterpillars
Ġmement o
Ġscept ical
ĠA strid
Ġam ends
Ġjut ting
ĠT angerine
Ġwhispe rer
Ġpharma cy
Ġapp rehen
Ġtrund led
Ġrema inder
Ġscoff ed
Ġrelia bility
Ġbac teria
Ġwed dings
Ġhal ftime
Ġparce ls
Ġpac ifier
Ġmilksh akes
Ġaccom pany
Ġdiction aries
! ,
E D
Ġ *
om y
b ar
O at
b ot
d ot
e le
Ġf ir
S et
Ġwa il
Ġpl a
ĠHe e
ĠShe et
re al
r ide
B ry
u ra
Ġcat al
ul i
b one
Ġco s
w arn
P ie
Ġmu dd
W ish
M ist
Ġpic n
ar ant
ell ers
our t
og ue
Ġsl ing
Ġf urn
ĠTh om
On ion
D ough
O ct
ĠP ap
ĠP ers
Ġha ired
âĢĿ !
ac o
ĠF reed
Ġnight ing
Ġsk ater
af a
Ġwin es
Ġbl ower
Ġarm ad
ee ase
qu iet
ĠB ully
Ġw ren
ĠM ead
Ġblank ie
ro cket
Ġbrown ie
arm en
Ġtr ove
ĠL oggy
Ġsl umber
ĠN in
Ġ irr
G rass
Ġb unk
ĠSp ort
Ġrich ness
Ġtrick le
Ġst ages
ĠO rn
G host
Ġpl atter
Ġoffice s
se ye
Ġalert ly
Ġyet i
ĠI gl
Ġthunder ed
Ġfisher s
ĠMar v
ĠShe lter
Ġtutor ing
ĠK ola
M iki
ĠSpe ak
olog ist
Ġpup s
Ġfre qu
ĠHelp ful
ĠBee bo
ĠB reeze
M isty
Ġz ippy
ĠB ippy
Ġble ats
U mm
So ccer
Ġkne aded
Ġbrid es
C atie
ĠHop ing
Ġgust o
Ġbeat ers
ĠHel ena
Ġdo zen
ĠAm ina
wh al
ĠRemember ing
Paul ina
ĠBen son
J etty
yes ha
Ġmesmer izing
Ġpleasure s
Ġele ments
Ġnur sed
Ġblast ing
Ġsl opes
Ġc ider
Ġsome what
ĠPl astic
Ġp ails
c hel
ĠB atty
Br ady
Ġrout es
ĠOt ters
ĠWolf ie
Ġloc ate
Ġhoney bee
ĠFle xy
ĠGold en
Ġshh h
ĠOff ice
ĠTra vel
are well
ĠEd na
ĠRaven s
Ġhost s
L ift
Ġreckless ly
R ico
Ġjigg ling
Ġlibr aries
Ġblob s
Fe el
Up stairs
In fant
Ġsp ooked
d ressed
il ocks
jack et
M arla
P urr
Br ooke
De bby
App laud
Kn ives
ĠRude y
Am aya
Ġsele ct
ĠClar abelle
ĠVolcano es
Ġhand bag
Ra j
ĠSc arlet
Ġfizz ed
t ruck
d rip
Ġcrad ling
Ġpleading ly
Ġrum or
J ordan
Ġchem ical
Ġtreet op
ĠSel ina
Ġcoward ly
Ġbloss oming
Ġshimm ied
ĠEl vis
Re indeer
ĠFil m
ĠGlove y
ĠScoot y
Ġkidn ap
Ġwag gled
Ġdan gled
Vo lcano
ĠImp atient
sque ak
G avin
check mate
Ac cept
ĠDes perate
Bar b
Ġclothesp in
ĠM ikayla
Ġcommunic ation
Spl it
Ġchap ter
Tomato es
Ġcolle ag
ĠCec ilia
Ġunf urled
ĠViv ian
ĠInd ependent
em pty
Pir ates
Ġefficient ly
Craw l
ĠA aliyah
Ġri fle
Ġpollin ate
Ġlily pad
ĠJ erome
Ġp ouches
Ġbackf ired
Mart a
ĠHel mets
Ġprompt ly
ĠH ubert
ĠD ahlia
Ġunderest imated
Ġrep orters
Ġdwar f
Ġleisure ly
Ġgymnastic s
Ġnighting ale
p y
F i
z a
H m
G E
Ġto n
L in
b re
Ġd re
L ay
H en
D en
z an
t or
N et
ĠL ing
H al
or ra
ack ing
Ġtre m
R ec
Ġfr ow
Ġcl ing
a ia
ĠW arn
Ġt ile
ĠF ound
ĠJ r
if ty
ump ty
Ġre ap
ĠD ri
ĠD ic
ra ise
Ġcare er
l our
D ull
d ink
Ġsl ay
h urt
ĠWe ight
c ine
ĠT ex
Ġspec t
ĠM ak
e ady
Ġgl ade
are th
Ġdis k
Ġfollow er
Ġcon co
Ġwood ed
Ġswing er
sh ot
ri pe
P art
Ġcast s
au de
ĠHe ctor
Ġwell ing
Ġgu ppy
Ġun used
H ush
ol and
m ama
Ġforever more
Ġsharp ly
Ġring er
b oop
St one
Ġfil ty
mer ged
ĠJill ian
E scape
Ġ3 8
Ġperform s
Ġcollect ors
D enny
Ġcrack les
Ġeng ra
ĠCh ief
ĠE ye
Ġrec ital
P atient
Ġch ats
ĠGo ats
Ġtemp or
O ctopus
ĠE la
I ron
Ġfireplace s
ĠP res
Ġwinter s
Ġdon ations
ĠCl ang
Ġch imed
Ġtour ist
p apa
ĠOr anges
Le on
Ġdigg ers
rec ogn
ĠRu bbing
Ġlecture r
K ippy
Ġappreci ates
ĠRock ing
Bl ub
bo ding
ĠChe t
Ġsp utter
ĠDr ake
Bu d
ĠFrog gie
' '.
ĠMo ly
Un pack
ĠAs ha
Tr ucky
ĠW anted
ct ica
Mar gie
ĠGet ting
Ab out
ĠPr an
Ġgri pping
Ru de
Ġty re
ho pped
ĠSof ie
Under ground
Ġfl itted
Ġswir ly
ĠCow ie
Ġwaterfall s
Fl our
ĠCro aky
R onnie
ĠRo ots
ĠIm ag
Ġsincere ly
ĠMin ts
Ġmasterpiece s
Ġblow hole
L ili
ĠFix ing
Ġshop keepers
ĠLu igi
ĠSqu iggles
Lou is
Ġguardian s
Aw esome
ĠGu ilty
Ġcompliment ing
O NG
Squirrel s
ĠDel icate
Ġweed ing
ĠChr issy
bur st
wo nder
ĠCat rina
Ġspr inting
Ġchamp ions
Ġoper ate
Ġsp rain
Ġsorrow ful
Ġr umbles
Tr ouble
Ġacc ount
C uriosity
Un iverse
B ald
com pass
Fr isky
Ġgo bbling
N ikki
Ġmatch sticks
Ġfat test
Ġmail bag
Ġwal nut
Fore ver
Ġpoo ch
grow ing
Ġgr umbly
ĠM iffy
ĠReal izing
Ġunt angles
ĠW obble
Ġrum ors
ĠEx pensive
asc inated
ĠYield ing
ĠCam illa
Di amond
ĠGret ta
ĠEl oise
Ġtranqu il
Ġsc aled
Ġse rene
mom my
Ġteen y
ĠAn swer
Ġdeb t
ĠFeed ing
ĠRen ee
Ġ \"
Ġcrink ly
Ġpet rified
Ġref resh
Ġrearr anged
Ġqu ilts
Wood y
ĠMack enzie
ĠSe rena
ĠS ierra
ĠSton es
ĠD aphne
Ġath lete
Ġprescri bed
ĠD asher
Ġinject ion
Ġlabor atory
artoon s
Ġnecess arily
Ġwind shield
wild ered
ĠEmbarrass ed
Ġplummet ed
lim its
ce mber
Ġsalut ed
E XIT
Ġunt angling
Ġjudg ment
Ġty rannosaurus
Ġsea hor
Ġunle ashed
ĠCho co
ac uate
Ġcatal og
Ġnar whal
Ġpar lour
Ġunst eady
ĠAntar ctica
Ġseahor ses
y y
I P
3 4
A M
U T
Ã ³
F ay
P ing
Ġbe er
ith a
d oo
ck o
st e
ily n
e es
Ġsh ar
Ġwh in
Ġwh oo
ter ing
ĠA k
ra it
end ra
ĠB ly
ĠT ic
ĠSpot s
ĠF ri
ĠJ one
ab in
ĠF ab
ĠD am
d ive
qu el
Ġsp ite
Ġpe g
udd er
Ġtr op
Ġsa ge
b urn
ĠWe re
d ate
ĠTh ird
ĠE lf
ĠL ip
Ġout age
uff s
Ġsqu ab
Ġwo ven
ĠH illy
Ġtalk er
ĠDo e
Ġtell er
d ered
ow ered
o sh
So ld
ĠO ven
Ġv amp
it ated
Ġear pl
Ġear m
Ġpast ed
R iver
ĠCh op
h ol
me g
ass ion
Ġwhite board
Ġsky sc
Ġtight ens
not iced
Ġca ved
l ery
pp ity
Ġsmooth s
ĠT elly
ĠBe ck
ĠBe au
B ones
Ġhum s
aw w
ĠCh oppy
Ġtogether ness
Good ness
Ġcr owed
Ġ3 5
ĠBr ay
port ant
p ray
Ġdiscover s
ĠB unn
Ġshore s
Ġharm ing
Ġref er
Ġtax es
Ġbull ied
Ġcandle light
T urkey
Ġtag ging
Ġloop y
Go sh
Ġshield ing
Al as
Ġfreez ers
let te
Ġrail ings
ĠCo ins
Ġart ic
Ġunh ook
ĠFl ag
Ġexpect ations
Ġorgan izes
Ġpitch ing
Ch ippy
ĠR aggie
H umble
st ring
Ġcontest s
ĠGr umble
ĠAm ir
ĠFrank y
ĠR ana
Mar io
sm all
ur ora
Mar vin
ĠPo co
ĠPr oud
Ġclo vers
ĠP iggie
ĠSm iles
ĠFire men
Moo Moo
Ġg ushing
Jul ian
Ġhawk s
R ae
Ġtil ting
parent s
Ġlipstick s
Ġanticip ated
Ġsens ing
p inch
ĠSuper hero
bu ry
p icking
Ġsav our
Ġunz ips
ĠRock ets
OO OO
ĠPet a
Ġsnow bank
w rap
ĠLu x
Lou isa
Ġbund les
ĠBe ware
P rice
Ġchatter s
enn eth
ĠThrough out
Ġf ateful
rem ove
ĠFork s
Ġcons umed
Ġprogress ed
ĠWr iggly
ĠAfric an
Ġdistract ions
ĠDream ing
Grand child
Ġgrandk id
Ġoper ating
Ġpurchase s
Ġshuff le
Ġtink er
ĠRick ie
ĠClown s
v ictory
Pl anes
p oint
Ġsp anked
ĠHouse s
Ġtrad ers
Ġtwitch y
P ixie
Ġendless ly
E van
Ġstead ied
Ġout number
ĠCup board
Ġmon arch
Ġbe acon
Pol ishing
sk ip
M ule
my stery
Sp rinkles
Ġlo aves
f essor
Ġw ispy
Ġtherap y
Ġsn agged
ho oray
Le wis
ĠFranc ine
Ġdisc ourage
Ġnois iest
ĠD ING
Ġhars hness
Ġferoc iously
Lady bug
Ġsympathet ically
ĠFrank lin
ĠDis gusting
Ġenvel oped
ĠTan ia
M assage
H ocus
Y AY
Ġpollut ion
Ġwell being
Dani elle
Gu ard
Van illa
ĠJun ie
Ġconsc ious
Rad ishes
ĠInsect s
Ġunc urled
Ġhose pipe
plain ing
ĠT ibby
Ġk arate
Ġtu ft
ĠBatter y
ĠHedge hog
lead er
Ġbron to
ĠAnton io
ĠRef rigerator
ĠE ileen
Ġwater proof
Ġtrave llers
Ostri ch
A aah
P repare
Ġin ev
Ġm utt
ĠV icki
ĠSeed s
vern ment
ĠC reative
Elli ot
ĠP ocket
ĠLe opards
Ġgem stones
Ġlandmark s
A CHOO
Ġendanger ed
Ġtechn ology
uz u
Ġhorsesh oe
Ġhair pin
ĠAs lan
Ġtw inge
Ġsp acious
Ġsp rained
ĠEle ctricity
Ġvesse l
Ġgu arant
Ġdial ogue
Ġwren ches
ĠTar zan
orra ine
Ġout burst
ĠDe cember
ab itha
Ġearpl ugs
Ġearm uffs
Ġoutnumber ed
" '
Ġ !
M er
K id
g or
ig a
m ith
ĠL ad
a es
s al
ry n
Ġb ind
ill ing
Ġdid nt
Ġre ar
Ġre x
Ġtre ad
Ġd ood
Ġout s
Ġm ul
Y ell
T ob
er ia
ĠF ight
ĠS ep
H as
ĠD u
ĠD ig
Ġv ul
c ause
ven e
s and
Ġsn ot
Ġen ab
ĠTh ick
Ġwh iz
em my
ture s
rel ax
R uffy
ĠE vent
f irst
owl ing
Ġwhere as
ĠA ma
or ange
ĠG unny
Ġtri al
Ġmon um
ve ster
Ġvo ila
Ġrepl ant
ĠJo key
Ġt ins
pe st
B art
l ucky
Ġcomp ar
E ee
ĠM ee
z ee
h ang
er ang
Ġrel ated
Just ine
ĠS imi
s chool
Ġroad side
Ġmad ly
Ġover board
Ġhat ches
d sy
br other
ĠLe ster
Ġbuck ling
Ġboss ier
ĠN or
St ore
n ose
Ġwonder ment
Ġyog i
Ġrare r
ater ina
ĠE iff
ĠSp end
Ġv ote
Ġbra ced
Ġdull ness
Ġthankful ness
Ġneighbor ing
Ġenv ied
Ġcharm s
Ġrep ut
ĠC ubby
olin es
Ġattract ions
ĠO zzy
Ġad ject
Ġink s
Ġfu ry
Ġcro aky
Ġcomplet es
Ġsucceed s
ig old
ĠDan cy
Al ert
alend ar
Ġac cu
Ġcur ator
Ġequ ation
Sh iny
Ġweight less
Ġcomf iest
Ġprinter s
Ġappro ve
ĠJul i
Ġresc ues
Cl ub
ĠC oming
Ġwoof ed
Tr ina
Ġcontain ing
il oh
Ġboo ger
ĠJan ine
ĠPo king
ĠSc atter
ĠPr im
ĠEl ina
ĠTrust ing
Ġtug boat
ĠPe cky
en ne
ĠRe veal
ach ael
Ġearn ing
Ġy ummies
Am ie
Am elie
ĠTe ase
ĠCr own
Ġfinger prints
Ch omp
Ġouch ies
ĠTri p
Ġho ots
K ris
F antastic
Ġscur vy
ĠMin i
Ġattempt ing
Ġtalk ative
Ġtor t
Ġwatermel ons
ĠP rick
T rick
Ġwebs ite
Ġoff ended
Ġdep th
ĠYellow y
Ġhorn ets
ĠP ets
St udy
Ġsuck s
ĠHar ley
ĠBert a
ĠWonder s
ĠKn ock
Ġbas in
Ġwings pan
Ġdep arted
Ġpeak s
El ena
ĠKen zie
ĠCh rystal
Ġplo dded
Ġpract ical
Ġpersu ading
ĠAli ya
Ġhoneycom bs
ĠFran nie
ĠGreg ory
Spark les
ĠAd ri
ĠH awk
F irework
ĠBrave ly
Ġrun away
Ġbattle field
Whe at
hh h
ĠPol ar
Ġimagin able
Bert ie
Ġsund own
Peanut s
Ġtrespass ers
Pr iscilla
ĠRest ore
Ġvolunt eers
ĠSe wing
Ġrent ed
Ġnin ja
Ġtut ors
ĠCand ice
Ġcitiz en
ĠSpl it
L ottie
W agon
Br idget
Po ems
Ġeyeb row
Ġcoax ing
Cr usty
ĠPolice man
Ġpin wheel
Kat rina
ĠEar ly
ĠMart ina
tr ust
Comp assionate
Ġmon itor
ĠOl iva
Sil ence
Ġcha otic
Mo dern
ĠNO T
Ġunh appily
Ġtranqu ility
ĠM arlene
P rotect
ĠDive y
Ġauthor ity
e ww
Ġrecy cled
ĠVal entine
Ġrooft ops
My sterious
W AY
ĠS ongs
Ġg oofy
ĠFr ida
Ke ith
ĠTr ophy
ĠSh rug
Bon jour
ĠRow an
Ġsketch book
ssssssssssssssssssssssssssssssssssssssssssssssssssssssssssssssss ssssssssssssssssssssssssssssssssssssssssssssssssssssssssssssssss
Ġvenom ous
ĠHum ans
Ġm uttering
ĠC AW
Ġtun ed
Ġm ounted
ĠEnc ourage
Ooo oh
ĠSc otty
cite ment
x anne
Ġdele ted
ĠL olli
Ġmisunder standing
Ġcontribut ion
bu ilding
Ġcountert op
ĠTax y
Ġillustr ations
ĠJoh anna
Ġjoll ier
Mosquito es
Ġtrans fixed
ĠApolog ize
von ne
e quipment
Ġarrog ant
ra ught
ĠI rony
har sh
Ġgenu ine
ĠI reland
ĠRog ers
ĠC ourt
Ġfurn ace
Oct o
Ġarmad illo
Ġdre ary
Ġsub merged
Ġengra ved
Ġtempor ary
Ġfore boding
Ġwhin nies
Ġport rait
Ġr udder
Ġgo vernment
Ġinter vene
Ġshar pest
Ġcompar ison
Ġboom erang
ĠEiff el
Ġtramp olines
i y
I L
Z Z
[...]
