{
  "<|pad|>": 0,
  "<|endoftext|>": 1,
  "<|bos|>": 2,
  "<|im_start|>": 3,
  "<|im_end|>": 4,
  "Ā": 5,
  "ā": 6,
  "Ă": 7,
  "ă": 8,
  "Ą": 9,
  "ą": 10,
  "Ć": 11,
  "ć": 12,
  "Ĉ": 13,
  "ĉ": 14,
  "Ċ": 15,
  "ċ": 16,
  "Č": 17,
  "č": 18,
  "Ď": 19,
  "ď": 20,
  "Đ": 21,
  "đ": 22,
  "Ē": 23,
  "ē": 24,
  "Ĕ": 25,
  "ĕ": 26,
  "Ė": 27,
  "ė": 28,
  "Ę": 29,
  "ę": 30,
  "Ě": 31,
  "ě": 32,
  "Ĝ": 33,
  "ĝ": 34,
  "Ğ": 35,
  "ğ": 36,
  "Ġ": 37,
  "!": 38,
  "\"": 39,
  "#": 40,
  "$": 41,
  "%": 42,
  "&": 43,
  "'": 44,
  "(": 45,
  ")": 46,
  "*": 47,
  "+": 48,
  ",": 49,
  "-": 50,
  ".": 51,
  "/": 52,
  "0": 53,
  "1": 54,
  "2": 55,
  "3": 56,
  "4": 57,
  "5": 58,
  "6": 59,
  "7": 60,
  "8": 61,
  "9": 62,
  ":": 63,
  ";": 64,
  "<": 65,
  "=": 66,
  ">": 67,
  "?": 68,
  "@": 69,
  "A": 70,
  "B": 71,
  "C": 72,
  "D": 73,
  "E": 74,
  "F": 75,
  "G": 76,
  "H": 77,
  "I": 78,
  "J": 79,
  "K": 80,
  "L": 81,
  "M": 82,
  "N": 83,
  "O": 84,
  "P": 85,
  "Q": 86,
  "R": 87,
  "S": 88,
  "T": 89,
  "U": 90,
  "V": 91,
  "W": 92,
  "X": 93,
  "Y": 94,
  "Z": 95,
  "[": 96,
  "\\": 97,
  "]": 98,
  "^": 99,
  "_": 100,
  "`": 101,
  "a": 102,
  "b": 103,
  "c": 104,
  "d": 105,
  "e": 106,
  "f": 107,
  "g": 108,
  "h": 109,
  "i": 110,
  "j": 111,
  "k": 112,
  "l": 113,
  "m": 114,
  "n": 115,
  "o": 116,
  "p": 117,
  "q": 118,
  "r": 119,
  "s": 120,
  "t": 121,
  "u": 122,
  "v": 123,
  "w": 124,
  "x": 125,
  "y": 126,
  "z": 127,
  "{": 128,
  "|": 129,
  "}": 130,
  "~": 131,
  "ġ": 132,
  "Ģ": 133,
  "ģ": 134,
  "Ĥ": 135,
  "ĥ": 136,
  "Ħ": 137,
  "ħ": 138,
  "Ĩ": 139,
  "ĩ": 140,
  "Ī": 141,
  "ī": 142,
  "Ĭ": 143,
  "ĭ": 144,
  "Į": 145,
  "į": 146,
  "İ": 147,
  "ı": 148,
  "Ĳ": 149,
  "ĳ": 150,
  "Ĵ": 151,
  "ĵ": 152,
  "Ķ": 153,
  "ķ": 154,
  "ĸ": 155,
  "Ĺ": 156,
  "ĺ": 157,
  "Ļ": 158,
  "ļ": 159,
  "Ľ": 160,
  "ľ": 161,
  "Ŀ": 162,
  "ŀ": 163,
  "Ł": 164,
  "ł": 165,
  "¡": 166,
  "¢": 167,
  "£": 168,
  "¤": 169,
  "¥": 170,
  "¦": 171,
  "§": 172,
  "¨": 173,
  "©": 174,
  "ª": 175,
  "«": 176,
  "¬": 177,
  "Ń": 178,
  "®": 179,
  "¯": 180,
  "°": 181,
  "±": 182,
  "²": 183,
  "³": 184,
  "´": 185,
  "µ": 186,
  "¶": 187,
  "·": 188,
  "¸": 189,
  "¹": 190,
  "º": 191,
  "»": 192,
  "¼": 193,
  "½": 194,
  "¾": 195,
  "¿": 196,
  "À": 197,
  "Á": 198,
  "Â": 199,
  "Ã": 200,
  "Ä": 201,
  "Å": 202,
  "Æ": 203,
  "Ç": 204,
  "È": 205,
  "É": 206,
  "Ê": 207,
  "Ë": 208,
  "Ì": 209,
  "Í": 210,
  "Î": 211,
  "Ï": 212,
  "Ð": 213,
  "Ñ": 214,
  "Ò": 215,
  "Ó": 216,
  "Ô": 217,
  "Õ": 218,
  "Ö": 219,
  "×": 220,
  "Ø": 221,
  "Ù": 222,
  "Ú": 223,
  "Û": 224,
  "Ü": 225,
  "Ý": 226,
  "Þ": 227,
  "ß": 228,
  "à": 229,
  "á": 230,
  "â": 231,
  "ã": 232,
  "ä": 233,
  "å": 234,
  "æ": 235,
  "ç": 236,
  "è": 237,
  "é": 238,
  "ê": 239,
  "ë": 240,
  "ì": 241,
  "í": 242,
  "î": 243,
  "ï": 244,
  "ð": 245,
  "ñ": 246,
  "ò": 247,
  "ó": 248,
  "ô": 249,
  "õ": 250,
  "ö": 251,
  "÷": 252,
  "ø": 253,
  "ù": 254,
  "ú": 255,
  "û": 256,
  "ü": 257,
  "ý": 258,
  "þ": 259,
  "ÿ": 260,
  "Ġt": 261,
  "he": 262,
  "Ġa": 263,
  "Ġs": 264,
  "Ġw": 265,
  "nd": 266,
  "Ġthe": 267,
  "ed": 268,
  "Ġb": 269,
  "Ġto": 270,
  "Ġand": 271,
  "Ġh": 272,
  "Ġf": 273,
  "in": 274,
  "ĠT": 275,
  "Ġwa": 276,
  "re": 277,
  "it": 278,
  "ou": 279,
  "Ġl": 280,
  "Ġd": 281,
  "Ġc": 282,
  "Ġp": 283,
  "ay": 284,
  "Ġm": 285,
  "er": 286,
  "Ġwas": 287,
  "om": 288,
  "ĠThe": 289,
  "Ġhe": 290,
  "is": 291,
  "ar": 292,
  "Ġn": 293,
  "im": 294,
  "on": 295,
  "Ġsa": 296,
  "id": 297,
  "ll": 298,
  "Ġha": 299,
  "Ġg": 300,
  "at": 301,
  "ĠS": 302,
  "ing": 303,
  "ot": 304,
  "en": 305,
  "an": 306,
  "le": 307,
  "or": 308,
  "ir": 309,
  "am": 310,
  "et": 311,
  "ĠH": 312,
  "Ġit": 313,
  "Ġth": 314,
  "ig": 315,
  "ĠThey": 316,
  "Ġin": 317,
  "il": 318,
  "Ġpl": 319,
  "ĠHe": 320,
  "Ġ\"": 321,
  "ow": 322,
  "ver": 323,
  "ri": 324,
  "ut": 325,
  "Ġbe": 326,
  "Ġu": 327,
  "Ġsaid": 328,
  "Ġplay": 329,
  "ith": 330,
  "Ġday": 331,
  "Ġwith": 332,
  "pp": 333,
  "On": 334,
  "Ġo": 335,
  "Ġy": 336,
  "oo": 337,
  "ked": 338,
  "Ġr": 339,
  "Ġher": 340,
  "ce": 341,
  "ĠI": 342,
  "ĠShe": 343,
  "ld": 344,
  "ĠTim": 345,
  "Ġhis": 346,
  "Ġst": 347,
  "ke": 348,
  "Ġe": 349,
  "Ġbig": 350,
  "nt": 351,
  "ck": 352,
  "Ġyou": 353,
  "very": 354,
  "st": 355,
  "ve": 356,
  "end": 357,
  "Ġon": 358,
  "un": 359,
  "Ġhapp": 360,
  "riend": 361,
  "Ġfriend": 362,
  "all": 363,
  "ily": 364,
  "ĠL": 365,
  "Ġthey": 366,
  "Ġwe": 367,
  "Ġhad": 368,
  "Ġnot": 369,
  "Ġli": 370,
  "Ġup": 371,
  "her": 372,
  "Ġwant": 373,
  "Ġof": 374,
  "ad": 375,
  "itt": 376,
  "se": 377,
  "ĠB": 378,
  "Ġdo": 379,
  "Ġhappy": 380,
  "ent": 381,
  "Ġvery": 382,
  "ĠM": 383,
  "es": 384,
  "Ġthat": 385,
  "Ġsaw": 386,
  "One": 387,
  "'s": 388,
  "ould": 389,
  "Ġmom": 390,
  "Ġfor": 391,
  "Ġsh": 392,
  "ittle": 393,
  "Ġlittle": 394,
  "Ġso": 395,
  "Ġshe": 396,
  "ch": 397,
  "ime": 398,
  "Ġne": 399,
  "Ġnam": 400,
  ".\"": 401,
  "Ġtime": 402,
  "Ġk": 403,
  "ound": 404,
  "Ġthere": 405,
  "Ġnamed": 406,
  "Ġsm": 407,
  "Ġbo": 408,
  "Ġwere": 409,
  "ĠLily": 410,
  "Ġwanted": 411,
  "Ġbut": 412,
  "out": 413,
  "The": 414,
  "Ġfriends": 415,
  "ved": 416,
  "!\"": 417,
  "ht": 418,
  "ĠTom": 419,
  "ird": 420,
  "el": 421,
  "Ġbird": 422,
  "al": 423,
  "Ġan": 424,
  "ake": 425,
  "Ġtoo": 426,
  "ome": 427,
  "ĠIt": 428,
  "ug": 429,
  "ide": 430,
  "Ġwent": 431,
  "Ġwh": 432,
  "Ġhel": 433,
  "Once": 434,
  "Ġis": 435,
  "Ġall": 436,
  "Ġhelp": 437,
  "ue": 438,
  "Ġloo": 439,
  "Ġlo": 440,
  "ter": 441,
  "ĠA": 442,
  "Ġupon": 443,
  "ry": 444,
  "ore": 445,
  "ind": 446,
  "Ġfun": 447,
  "get": 448,
  "Ġtoy": 449,
  "ill": 450,
  "ame": 451,
  "Ġas": 452,
  "Ġat": 453,
  "ra": 454,
  "Ġj": 455,
  "Ġdid": 456,
  "gether": 457,
  "Ġre": 458,
  "ur": 459,
  "Ġse": 460,
  "Ġtogether": 461,
  "ack": 462,
  "Ġcat": 463,
  "ly": 464,
  "Ġtre": 465,
  "ood": 466,
  "ic": 467,
  "ted": 468,
  "Ġdog": 469,
  "Ġcould": 470,
  "Ġcan": 471,
  "Ġtheir": 472,
  "ard": 473,
  "ec": 474,
  "ark": 475,
  "Ġgir": 476,
  "Ġplayed": 477,
  "Ġhim": 478,
  "Ġball": 479,
  "?\"": 480,
  "Ġgirl": 481,
  "way": 482,
  "Ġro": 483,
  "Ġgo": 484,
  "hed": 485,
  "my": 486,
  "Ġare": 487,
  "Ġout": 488,
  "Ġle": 489,
  "Ġfr": 490,
  "ain": 491,
  "Ġkn": 492,
  "hen": 493,
  "Ġthem": 494,
  "um": 495,
  "'t": 496,
  "ax": 497,
  "Ġsad": 498,
  "ul": 499,
  "Ġboy": 500,
  "Ġtree": 501,
  "other": 502,
  "Ġhave": 503,
  "Ġman": 504,
  "Ġcl": 505,
  "Ġloved": 506,
  "Ġlooked": 507,
  "oug": 508,
  "Ġfound": 509,
  "Ġsp": 510,
  "Ġstar": 511,
  "ĠSue": 512,
  "one": 513,
  "hing": 514,
  "Ġsc": 515,
  "Ġback": 516,
  "own": 517,
  "ĠMax": 518,
  "are": 519,
  "Ġlike": 520,
  "ful": 521,
  "side": 522,
  "Ġme": 523,
  "Ġbec": 524,
  "Ġpark": 525,
  "ight": 526,
  "ong": 527,
  "Ġcar": 528,
  "op": 529,
  "elt": 530,
  "ĠOne": 531,
  "Ġliked": 532,
  "Ġwould": 533,
  "Ġmake": 534,
  "round": 535,
  "Ġla": 536,
  "Ġfa": 537,
  "Ġfelt": 538,
  "You": 539,
  "ĠW": 540,
  "ell": 541,
  "Ġsee": 542,
  "ĠBut": 543,
  "omet": 544,
  "Ġasked": 545,
  "ag": 546,
  "Ġnew": 547,
  "Ġno": 548,
  "ice": 549,
  "ĠSam": 550,
  "ouse": 551,
  "Ġstarted": 552,
  "ared": 553,
  "Ġcame": 554,
  "ĠBen": 555,
  "Ġal": 556,
  "Ġother": 557,
  "ought": 558,
  "iled": 559,
  "Ġsomet": 560,
  "Ġag": 561,
  "Ġgood": 562,
  "Ġsmall": 563,
  "ss": 564,
  "Ġbr": 565,
  "Ġsmiled": 566,
  "Ġsay": 567,
  "ried": 568,
  "ade": 569,
  "ings": 570,
  "ĠĊ": 571,
  "ob": 572,
  "pot": 573,
  "Ġwor": 574,
  "Ġfind": 575,
  "Ġex": 576,
  "ia": 577,
  "Ġaway": 578,
  "ty": 579,
  "Ġput": 580,
  "Ġwhat": 581,
  "Ġsomething": 582,
  "Ġco": 583,
  "Ġfrom": 584,
  "Ġmade": 585,
  "Ġthought": 586,
  "ened": 587,
  "Ġhome": 588,
  "Ġplaying": 589,
  "ook": 590,
  "Ġevery": 591,
  "Ġwal": 592,
  "Ġmu": 593,
  "uc": 594,
  "ach": 595,
  "arn": 596,
  "ĠSpot": 597,
  "Ġran": 598,
  "ile": 599,
  "ĠF": 600,
  "ie": 601,
  "ĠJ": 602,
  "ave": 603,
  "Ġagain": 604,
  "Ġsome": 605,
  "Ġlaug": 606,
  "dd": 607,
  "Ġhouse": 608,
  "Ġdown": 609,
  "Ġfl": 610,
  "king": 611,
  "Ġtook": 612,
  "Ġscared": 613,
  "Ġpr": 614,
  "ny": 615,
  "ure": 616,
  "Ġtoys": 617,
  "Ġlearn": 618,
  "ĠYou": 619,
  "if": 620,
  "Ġwill": 621,
  "Ġbox": 622,
  "ick": 623,
  "ret": 624,
  "ab": 625,
  "ep": 626,
  "Ġmy": 627,
  "Ġaround": 628,
  "Ġthings": 629,
  "Ġyour": 630,
  "oud": 631,
  "Ġbl": 632,
  "uck": 633,
  "Ġwhen": 634,
  "ish": 635,
  "Ġlived": 636,
  "Ġfe": 637,
  "Ġthen": 638,
  "Ġsun": 639,
  "as": 640,
  "Ġsw": 641,
  ",\"": 642,
  "Ġch": 643,
  "us": 644,
  "pped": 645,
  "Ġab": 646,
  "ĠMia": 647,
  "ank": 648,
  "Ġget": 649,
  "ucy": 650,
  "Tim": 651,
  "ump": 652,
  "Th": 653,
  "Ġlot": 654,
  "ist": 655,
  "oth": 656,
  "Ġtried": 657,
  "ap": 658,
  "Ġknow": 659,
  "Ġsays": 660,
  "Ġgot": 661,
  "ited": 662,
  "Ġwho": 663,
  "Ġkne": 664,
  "ust": 665,
  "Ġmany": 666,
  "nder": 667,
  "Ġint": 668,
  "Ġabout": 669,
  "Lily": 670,
  "Ġpret": 671,
  "Ġdec": 672,
  "Ġany": 673,
  "Ġred": 674,
  "ĠD": 675,
  "ive": 676,
  "Ġknew": 677,
  "ace": 678,
  "ous": 679,
  "Ġmore": 680,
  "ise": 681,
  "Ġcare": 682,
  "ally": 683,
  "Ġpic": 684,
  "au": 685,
  "qu": 686,
  "Ġhug": 687,
  "ĠLucy": 688,
  "Ġlearned": 689,
  "Ġpo": 690,
  "Ġwater": 691,
  "fter": 692,
  "Ġv": 693,
  "Ġbecame": 694,
  "Ġbest": 695,
  "ause": 696,
  "Ġop": 697,
  "Ġgre": 698,
  "Ġexc": 699,
  "urp": 700,
  "ways": 701,
  "âĢ": 702,
  "Ġoutside": 703,
  "Ġlaughed": 704,
  "Ġlook": 705,
  "Ġalways": 706,
  "Ġdecid": 707,
  "Ġshow": 708,
  "Ġun": 709,
  "ant": 710,
  "ĠBob": 711,
  "Ġroom": 712,
  "fe": 713,
  "Ġdecided": 714,
  "Ġho": 715,
  "Ġbecause": 716,
  "ĠSo": 717,
  "Ġinto": 718,
  "Ġeat": 719,
  "ite": 720,
  "Ġjump": 721,
  "ĠAnd": 722,
  "Ġpe": 723,
  "Ġboth": 724,
  "ers": 725,
  "ĠMom": 726,
  "Ġdad": 727,
  "They": 728,
  "udd": 729,
  "Ġke": 730,
  "Ġone": 731,
  "nn": 732,
  "Ġthis": 733,
  "Ġexcited": 734,
  "Ġfast": 735,
  "Ġnice": 736,
  "ĠE": 737,
  "Ġfeel": 738,
  "Tom": 739,
  "Yes": 740,
  "Ġrun": 741,
  "Ġlong": 742,
  "Ġtold": 743,
  "Ġsk": 744,
  "Ġam": 745,
  "urpr": 746,
  "our": 747,
  "Ġinside": 748,
  "ull": 749,
  "Ġtr": 750,
  "Ġsurpr": 751,
  "Ġmo": 752,
  "ink": 753,
  "Ġpretty": 754,
  "iny": 755,
  "Ġsor": 756,
  "Wh": 757,
  "Ġtake": 758,
  "og": 759,
  "Ġsl": 760,
  "Ġeach": 761,
  "Ġgave": 762,
  "Ġmuch": 763,
  "Ġgra": 764,
  "lew": 765,
  "nna": 766,
  "Ġrock": 767,
  "Ġhow": 768,
  "Ġstr": 769,
  "ara": 770,
  "imal": 771,
  "Ġanimal": 772,
  "ged": 773,
  "Ġneed": 774,
  "Ġthan": 775,
  "But": 776,
  "ven": 777,
  "etter": 778,
  "Ġtow": 779,
  "Ġor": 780,
  "ĠC": 781,
  "Ġunder": 782,
  "ess": 783,
  "Ġold": 784,
  "Ġsorry": 785,
  "ge": 786,
  "ised": 787,
  "ro": 788,
  "urt": 789,
  "Ġcle": 790,
  "Ġfish": 791,
  "Ġwalked": 792,
  "Ġclo": 793,
  "and": 794,
  "Ġbear": 795,
  "ft": 796,
  "ase": 797,
  "ast": 798,
  "Ġhand": 799,
  "urn": 800,
  "ĠWe": 801,
  "Ġkind": 802,
  "ĠHis": 803,
  "Ġte": 804,
  "here": 805,
  "Ġhappened": 806,
  "Ġjust": 807,
  "Ġflow": 808,
  "Ġfood": 809,
  "Ġlist": 810,
  "Ġdidn": 811,
  "Ġanimals": 812,
  "Ġhig": 813,
  "pl": 814,
  "Ġnear": 815,
  "Ġwat": 816,
  "Ġide": 817,
  "Ġtry": 818,
  "ched": 819,
  "Ġsky": 820,
  "ine": 821,
  "Ġsn": 822,
  "ving": 823,
  "Ġfi": 824,
  "rom": 825,
  "Ġus": 826,
  "Ġidea": 827,
  "Ġbetter": 828,
  "ĠAmy": 829,
  "Ġbug": 830,
  "Ġheard": 831,
  "gry": 832,
  "Ġits": 833,
  "Ġtw": 834,
  "Ġlet": 835,
  "pec": 836,
  "ate": 837,
  "able": 838,
  "ff": 839,
  "Ġen": 840,
  "Ġcareful": 841,
  "Ġshare": 842,
  "ex": 843,
  "Ġif": 844,
  "Thank": 845,
  "Mom": 846,
  "Ġfly": 847,
  "Ġstor": 848,
  "ial": 849,
  "Ġflew": 850,
  "more": 851,
  "Ġanymore": 852,
  "ĠTh": 853,
  "Ġspec": 854,
  "Ġspecial": 855,
  "ion": 856,
  "Ġcom": 857,
  "Ġlots": 858,
  "Ġnever": 859,
  "Ġby": 860,
  "lf": 861,
  "ream": 862,
  "Ġdan": 863,
  "Ġbu": 864,
  "Ġfo": 865,
  "Ġwind": 866,
  "Ġdon": 867,
  "Ġtal": 868,
  "Ġclean": 869,
  "ort": 870,
  "Ġgr": 871,
  "Ġlove": 872,
  "rm": 873,
  "ber": 874,
  "Ġend": 875,
  "ĠThen": 876,
  "ople": 877,
  "Ġeven": 878,
  "Ġmag": 879,
  "Ġhard": 880,
  "Ġshiny": 881,
  "udden": 882,
  "Ġfore": 883,
  "Ġover": 884,
  "Ġcake": 885,
  "ak": 886,
  "Ġbook": 887,
  "Ġcol": 888,
  "Ġturn": 889,
  "Ġfam": 890,
  "Ġbad": 891,
  "Ġsafe": 892,
  "Ġafter": 893,
  "ady": 894,
  "ĠAnna": 895,
  "uddenly": 896,
  "Ġpeople": 897,
  "Ġproud": 898,
  "ĠEvery": 899,
  "Ġsurprised": 900,
  "pected": 901,
  "Let": 902,
  "Ġhigh": 903,
  "Ġcu": 904,
  "Ġhurt": 905,
  "Ġcome": 906,
  "imb": 907,
  "arden": 908,
  "Ġdoor": 909,
  "Ġgarden": 910,
  "bb": 911,
  "Ġground": 912,
  "Ġopened": 913,
  "Ġpicked": 914,
  "Ġloud": 915,
  "Ġclimb": 916,
  "expected": 917,
  "Ġunexpected": 918,
  "Ġgl": 919,
  "Ġche": 920,
  "ild": 921,
  "Ġim": 922,
  "As": 923,
  "Ġgive": 924,
  "Ġway": 925,
  "ail": 926,
  "'m": 927,
  "Ġthanked": 928,
  "Ġcolor": 929,
  "Ġblue": 930,
  "Ġstill": 931,
  "Ġever": 932,
  "Ġhugged": 933,
  "ĠFrom": 934,
  "Ġcall": 935,
  "Ġfar": 936,
  "ip": 937,
  "ĠHer": 938,
  "ĠSara": 939,
  "ĠWhen": 940,
  "No": 941,
  "Ġoff": 942,
  "Ġmagic": 943,
  "iz": 944,
  "ough": 945,
  "age": 946,
  "ummy": 947,
  "ĠK": 948,
  "Ġjumped": 949,
  "Ġshould": 950,
  "Ġfamily": 951,
  "Ġpar": 952,
  "ool": 953,
  "Ġkid": 954,
  "Ġsmile": 955,
  "hes": 956,
  "uff": 957,
  "Ġplace": 958,
  "kay": 959,
  "Ġwalk": 960,
  "Ġnow": 961,
  "ct": 962,
  "ĠIn": 963,
  "Ġgreat": 964,
  "em": 965,
  "ture": 966,
  "Ġqu": 967,
  "les": 968,
  "Ġstrong": 969,
  "Ġstay": 970,
  "Ġunt": 971,
  "Ġsto": 972,
  "aut": 973,
  "Ġforest": 974,
  "ane": 975,
  "Ġbra": 976,
  "itty": 977,
  "ĠP": 978,
  "Ġfrog": 979,
  "Ġbro": 980,
  "Ġuntil": 981,
  "oon": 982,
  "Ġbeaut": 983,
  "dy": 984,
  "Ġsqu": 985,
  "Ġstick": 986,
  "xt": 987,
  "Ġnext": 988,
  "Ġboat": 989,
  "lease": 990,
  "ning": 991,
  "Ġhappily": 992,
  "Ġlisten": 993,
  "aking": 994,
  "Ġkids": 995,
  "Ġtra": 996,
  "ies": 997,
  "iful": 998,
  "Ġbeautiful": 999,
  "Ġapp": 1000,
  "th": 1001,
  "Ġhelped": 1002,
  "Ġdra": 1003,
  "Ġshowed": 1004,
  "Ġclos": 1005,
  "be": 1006,
  "Ġimp": 1007,
  "Ġstory": 1008,
  "unny": 1009,
  "oy": 1010,
  "Ġwhile": 1011,
  "Ġtown": 1012,
  "rel": 1013,
  "pt": 1014,
  "Ġrain": 1015,
  "ress": 1016,
  "Ġpicture": 1017,
  "Ġbeing": 1018,
  "Ġrem": 1019,
  "Ġeveryone": 1020,
  "It": 1021,
  "ary": 1022,
  "ree": 1023,
  "Ġmor": 1024,
  "Ġhat": 1025,
  "Ġcalled": 1026,
  "Ġmet": 1027,
  "Ġstopped": 1028,
  "Ġad": 1029,
  "Ġgame": 1030,
  "Now": 1031,
  "He": 1032,
  "Can": 1033,
  "Ġangry": 1034,
  "ger": 1035,
  "uffy": 1036,
  "Ġopen": 1037,
  "Ġwo": 1038,
  "Ġtruck": 1039,
  "Ġkeep": 1040,
  "Ġsoft": 1041,
  "When": 1042,
  "Ġcry": 1043,
  "Ġyummy": 1044,
  "Ġlost": 1045,
  "Ġbed": 1046,
  "ĠLet": 1047,
  "ĠSally": 1048,
  "Ġwarm": 1049,
  "by": 1050,
  "vent": 1051,
  "Ġbrave": 1052,
  "Ġmouse": 1053,
  "ĠWh": 1054,
  "Ġate": 1055,
  "ĠKitty": 1056,
  "ished": 1057,
  "Ġde": 1058,
  "fore": 1059,
  "Ġdoll": 1060,
  "so": 1061,
  "Ġcouldn": 1062,
  "Ġwatch": 1063,
  "Ġleave": 1064,
  "Ġalso": 1065,
  "dded": 1066,
  "Ġfell": 1067,
  "Ġgreen": 1068,
  "Ġface": 1069,
  "Ġtwo": 1070,
  "gan": 1071,
  "iss": 1072,
  "Ġflowers": 1073,
  "bit": 1074,
  "What": 1075,
  "ĠR": 1076,
  "ble": 1077,
  "Ġnoise": 1078,
  "abbit": 1079,
  "irst": 1080,
  "owl": 1081,
  "Ġwhere": 1082,
  "az": 1083,
  "ock": 1084,
  "Ġsoon": 1085,
  "self": 1086,
  "Ġslide": 1087,
  "Ġrabbit": 1088,
  "Ġhole": 1089,
  "luffy": 1090,
  "Ġbefore": 1091,
  "irrel": 1092,
  "Ġpus": 1093,
  "ired": 1094,
  "Ġsat": 1095,
  "illy": 1096,
  "Ġhear": 1097,
  "Ġuse": 1098,
  "âĢĿ": 1099,
  "Hi": 1100,
  "Ġpa": 1101,
  "Ġkept": 1102,
  "âĢľ": 1103,
  "That": 1104,
  "Ġsquirrel": 1105,
  "ear": 1106,
  "Then": 1107,
  "ma": 1108,
  "Ġnodded": 1109,
  "Ġexpl": 1110,
  "Ġstore": 1111,
  "Ġcook": 1112,
  "Ġhands": 1113,
  "Look": 1114,
  "Ġbirds": 1115,
  "Ġpain": 1116,
  "Ġgoing": 1117,
  "Ġfunny": 1118,
  "Ġhaving": 1119,
  "day": 1120,
  "Ġsing": 1121,
  "aybe": 1122,
  "uch": 1123,
  "Ġey": 1124,
  "aug": 1125,
  "Ġcatch": 1126,
  "aught": 1127,
  "ĠCan": 1128,
  "ĠFluffy": 1129,
  "uit": 1130,
  "Ġyell": 1131,
  "Ġthink": 1132,
  "leep": 1133,
  "Ġcra": 1134,
  "Ġfin": 1135,
  "Ben": 1136,
  "Ġbre": 1137,
  "Ġfix": 1138,
  "Ġtired": 1139,
  "Ġbunny": 1140,
  "Ġused": 1141,
  "Ġlooking": 1142,
  "Ġbus": 1143,
  "ange": 1144,
  "air": 1145,
  "Ġwork": 1146,
  "Ġwr": 1147,
  "Ġour": 1148,
  "Ġpull": 1149,
  "We": 1150,
  "Ġthr": 1151,
  "thing": 1152,
  "ĠNow": 1153,
  "Ġwait": 1154,
  "Ġkit": 1155,
  "Ġsound": 1156,
  "ting": 1157,
  "Ġjo": 1158,
  "Ġhas": 1159,
  "ĠG": 1160,
  "Ġmean": 1161,
  "Ġpond": 1162,
  "ember": 1163,
  "Ġbeh": 1164,
  "Ġdr": 1165,
  "Ġsunny": 1166,
  "led": 1167,
  "Ġothers": 1168,
  "Ġask": 1169,
  "ng": 1170,
  "chen": 1171,
  "Ġkitchen": 1172,
  "Ġtalk": 1173,
  "Ġflo": 1174,
  "Ġdif": 1175,
  "rew": 1176,
  "Ġpie": 1177,
  "ĠJo": 1178,
  "Ġhead": 1179,
  "Ġreal": 1180,
  "Ġfirst": 1181,
  "Ġtri": 1182,
  "Ġmommy": 1183,
  "Ġeyes": 1184,
  "ello": 1185,
  "Ġimport": 1186,
  "Hello": 1187,
  "Ġfav": 1188,
  "ath": 1189,
  "joy": 1190,
  "Ġz": 1191,
  "Ġremember": 1192,
  "Ġright": 1193,
  "Ġflower": 1194,
  "Ġcon": 1195,
  "Ġmess": 1196,
  "Ġparty": 1197,
  "Ġcold": 1198,
  "ĠDo": 1199,
  "Ġvo": 1200,
  "Ġswe": 1201,
  "ious": 1202,
  "Ġsand": 1203,
  "ĠâĢľ": 1204,
  "ac": 1205,
  "orn": 1206,
  "Ġrace": 1207,
  "Ġcuri": 1208,
  "imes": 1209,
  "Ġimportant": 1210,
  "Ġduck": 1211,
  "Ġmoral": 1212,
  "Ġshared": 1213,
  "zy": 1214,
  "ount": 1215,
  "ĠJack": 1216,
  "Ġice": 1217,
  "Ġokay": 1218,
  "Ġadvent": 1219,
  "Ġworked": 1220,
  "llow": 1221,
  "At": 1222,
  "Ġenjoy": 1223,
  "Ġdress": 1224,
  "Ġbright": 1225,
  "Ġmaking": 1226,
  "Ġcurious": 1227,
  "Ġown": 1228,
  "Ġtall": 1229,
  "Ġdir": 1230,
  "Ġhop": 1231,
  "reed": 1232,
  "Ġhid": 1233,
  "Ġfavor": 1234,
  "Ġri": 1235,
  "hn": 1236,
  "Ġsleep": 1237,
  "Ġdis": 1238,
  "Wow": 1239,
  "Ġfavorite": 1240,
  "Ġthing": 1241,
  "Ġbegan": 1242,
  "Ġmon": 1243,
  "Ġbag": 1244,
  "Ġhill": 1245,
  "Don": 1246,
  "Ġcla": 1247,
  "Ġdraw": 1248,
  "Ġrest": 1249,
  "Ġhere": 1250,
  "Ġyard": 1251,
  "Ġtell": 1252,
  "ĠFin": 1253,
  "ster": 1254,
  "Ġwatched": 1255,
  "que": 1256,
  "Ġfollow": 1257,
  "Ġmove": 1258,
  "Ġbel": 1259,
  "ect": 1260,
  "Ġcut": 1261,
  "Ġnight": 1262,
  "Ġagreed": 1263,
  "Ġpick": 1264,
  "co": 1265,
  "Ġblock": 1266,
  "Ġhun": 1267,
  "aper": 1268,
  "lly": 1269,
  "Ġstop": 1270,
  "Ġbehind": 1271,
  "ĠThis": 1272,
  "Ġsurprise": 1273,
  "ied": 1274,
  "Ġsho": 1275,
  "Ġhot": 1276,
  "After": 1277,
  "Ġtable": 1278,
  "Ġgrass": 1279,
  "Ġworry": 1280,
  "Ġdark": 1281,
  "Ġtrees": 1282,
  "Ġvoice": 1283,
  "Ġwalking": 1284,
  "fere": 1285,
  "Ġfloor": 1286,
  "Ġfarm": 1287,
  "Ġlion": 1288,
  "Ġtop": 1289,
  "Ġdiffere": 1290,
  "Ġplease": 1291,
  "Ġru": 1292,
  "Ġsong": 1293,
  "Ġbutter": 1294,
  "Ġtail": 1295,
  "Ġsweet": 1296,
  "Max": 1297,
  "Ġshout": 1298,
  "Ġcolors": 1299,
  "Ġread": 1300,
  "ĠDad": 1301,
  "Ġlady": 1302,
  "Ġforg": 1303,
  "isy": 1304,
  "Ġleaves": 1305,
  "Ġcloser": 1306,
  "ign": 1307,
  "Ġcars": 1308,
  "Ġturned": 1309,
  "Ġneeded": 1310,
  "Ġtast": 1311,
  "Why": 1312,
  "aring": 1313,
  "Ġwood": 1314,
  "Ġcried": 1315,
  "Ġdifferent": 1316,
  "Ġlaugh": 1317,
  "Ġdel": 1318,
  "Ġpiece": 1319,
  "âĢĻ": 1320,
  "ered": 1321,
  "ĠMr": 1322,
  "Ġroll": 1323,
  "Ġadventure": 1324,
  "Ġfire": 1325,
  "Ġdoes": 1326,
  "ike": 1327,
  "Ġcr": 1328,
  "Ġhungry": 1329,
  "Ġhair": 1330,
  "ĠSuddenly": 1331,
  "Ġpaper": 1332,
  "Ġfeeling": 1333,
  "Ġyellow": 1334,
  "Ġfull": 1335,
  "bo": 1336,
  "Ġprin": 1337,
  "Sue": 1338,
  "Ġtouch": 1339,
  "ĠAs": 1340,
  "Anna": 1341,
  "Sam": 1342,
  "Ġwet": 1343,
  "Ġfriendly": 1344,
  "Ġper": 1345,
  "oom": 1346,
  "ken": 1347,
  "cked": 1348,
  "ached": 1349,
  "Ġswing": 1350,
  "Ġfruit": 1351,
  "ient": 1352,
  "Ġbroken": 1353,
  "Ġready": 1354,
  "bye": 1355,
  "ppy": 1356,
  "Ġprom": 1357,
  "ĠThat": 1358,
  "Ġanother": 1359,
  "Ġlight": 1360,
  "Ġpretend": 1361,
  "Ġdance": 1362,
  "ater": 1363,
  "Ġclimbed": 1364,
  "where": 1365,
  "Ġlistened": 1366,
  "ĠBobo": 1367,
  "Ġdanc": 1368,
  "Ġrunning": 1369,
  "Ġonly": 1370,
  "Ġplan": 1371,
  "Ġgone": 1372,
  "Ġswim": 1373,
  "bbed": 1374,
  "Suddenly": 1375,
  "sh": 1376,
  "Ġtrain": 1377,
  "ila": 1378,
  "ndma": 1379,
  "Sara": 1380,
  "ĠJane": 1381,
  "Ġclose": 1382,
  "av": 1383,
  "She": 1384,
  "Ġsmell": 1385,
  "So": 1386,
  "aby": 1387,
  "Ġamaz": 1388,
  "Ġhold": 1389,
  "Ġblocks": 1390,
  "Ġwonder": 1391,
  "ĠTimmy": 1392,
  "Ġrepl": 1393,
  "ĠAll": 1394,
  "Ġbutterf": 1395,
  "Ġsees": 1396,
  "Ġreached": 1397,
  "Ġwall": 1398,
  "Ġpu": 1399,
  "oney": 1400,
  "red": 1401,
  "Ġslow": 1402,
  "Ġhelping": 1403,
  "Ġdri": 1404,
  "Ġcream": 1405,
  "Ġcool": 1406,
  "Ġglad": 1407,
  "af": 1408,
  "Ġant": 1409,
  "Ġless": 1410,
  "Ġbeen": 1411,
  "Ġgoodbye": 1412,
  "Ġac": 1413,
  "Ġfight": 1414,
  "ather": 1415,
  "Mia": 1416,
  "Ġpushed": 1417,
  "iced": 1418,
  "Ġfair": 1419,
  "Ġmust": 1420,
  "Ġhide": 1421,
  "Ġmoment": 1422,
  "Ġwindow": 1423,
  "ĠO": 1424,
  "Ġsit": 1425,
  "Ġballoon": 1426,
  "Ġsnow": 1427,
  "Ġchild": 1428,
  "Ġexplore": 1429,
  "ĠEveryone": 1430,
  "Ġar": 1431,
  "Ġwished": 1432,
  "Ġbaby": 1433,
  "Ġdone": 1434,
  "Ġwag": 1435,
  "Ġste": 1436,
  "Ġbuy": 1437,
  "Ġstuck": 1438,
  "Ġperf": 1439,
  "Ġthank": 1440,
  "Ġmight": 1441,
  "icy": 1442,
  "Ġname": 1443,
  "ized": 1444,
  "Ġtrying": 1445,
  "Ġbit": 1446,
  "Ġcoming": 1447,
  "Ġbar": 1448,
  "Ġquick": 1449,
  "Ġfall": 1450,
  "Ġapple": 1451,
  "ash": 1452,
  "Ġscary": 1453,
  "Ġlooks": 1454,
  "Ġbuild": 1455,
  "Ġdoing": 1456,
  "Ġwin": 1457,
  "Ġunderst": 1458,
  "aisy": 1459,
  "Ġdin": 1460,
  "Ġdream": 1461,
  "Ġdirty": 1462,
  "Ġheld": 1463,
  "ames": 1464,
  "Ġbooks": 1465,
  "Ġmar": 1466,
  "In": 1467,
  "Ġbutterfly": 1468,
  "Ġleft": 1469,
  "Ġshouted": 1470,
  "Ġcount": 1471,
  "Ġreplied": 1472,
  "avy": 1473,
  "Ġreach": 1474,
  "Ġtiny": 1475,
  "Ġthrough": 1476,
  "ott": 1477,
  "Ġdro": 1478,
  "Ġwhy": 1479,
  "Ġair": 1480,
  "Ġbran": 1481,
  "Ġland": 1482,
  "key": 1483,
  "Ġthree": 1484,
  "Ġpulled": 1485,
  "Ġspl": 1486,
  "Ġgrow": 1487,
  "Ġtreat": 1488,
  "Ġbrother": 1489,
  "Ġwise": 1490,
  "Ġwoods": 1491,
  "Ġsure": 1492,
  "'re": 1493,
  "Ġchair": 1494,
  "ix": 1495,
  "Ġmat": 1496,
  "ins": 1497,
  "Ġseen": 1498,
  "Ġpink": 1499,
  "Ġclapped": 1500,
  "Ġplant": 1501,
  "ely": 1502,
  "Ġowl": 1503,
  "Ġcup": 1504,
  "ield": 1505,
  "Ġsometimes": 1506,
  "andy": 1507,
  "Ġfill": 1508,
  "Ġcloud": 1509,
  "ask": 1510,
  "Ġswam": 1511,
  "outh": 1512,
  "Ġjob": 1513,
  "Ġcolorful": 1514,
  "Ġremembered": 1515,
  "Ġbigger": 1516,
  "Ġnest": 1517,
  "Ġmouth": 1518,
  "pe": 1519,
  "Okay": 1520,
  "Ġlesson": 1521,
  "Ġjoin": 1522,
  "Ġcre": 1523,
  "ph": 1524,
  "ĠThere": 1525,
  "oup": 1526,
  "room": 1527,
  "art": 1528,
  "Ġwaved": 1529,
  "uddy": 1530,
  "Ġgrabbed": 1531,
  "Ġstayed": 1532,
  "Oh": 1533,
  "Ġpaint": 1534,
  "This": 1535,
  "Ġclot": 1536,
  "Ġcont": 1537,
  "Ġclothes": 1538,
  "Ġve": 1539,
  "ower": 1540,
  "ĠAfter": 1541,
  "Ġwaited": 1542,
  "Ġquickly": 1543,
  "cle": 1544,
  "Ġword": 1545,
  "Ġbroke": 1546,
  "ucky": 1547,
  "Ġgames": 1548,
  "Ġcast": 1549,
  "Ġblew": 1550,
  "Ġgent": 1551,
  "ĠMommy": 1552,
  "Ġenjoyed": 1553,
  "Ġnoticed": 1554,
  "Jo": 1555,
  "ries": 1556,
  "ation": 1557,
  "Ġset": 1558,
  "Ġlikes": 1559,
  "Ġpictures": 1560,
  "ton": 1561,
  "de": 1562,
  "Ġsea": 1563,
  "Ġheavy": 1564,
  "Ġmus": 1565,
  "Ġalone": 1566,
  "Ġgif": 1567,
  "asure": 1568,
  "Ġanything": 1569,
  "Ġspot": 1570,
  "Ġmiss": 1571,
  "Ġhopped": 1572,
  "Ġworld": 1573,
  "Ġturns": 1574,
  "orm": 1575,
  "Ġyear": 1576,
  "der": 1577,
  "Ġbott": 1578,
  "Ġpat": 1579,
  "Ġpot": 1580,
  "Ġpen": 1581,
  "lc": 1582,
  "Her": 1583,
  "Ġmix": 1584,
  "Ġarm": 1585,
  "Ġbike": 1586,
  "Ġtight": 1587,
  "Ġeverywhere": 1588,
  "Ġwon": 1589,
  "Lucy": 1590,
  "Ġtower": 1591,
  "Ġthrew": 1592,
  "Ġhimself": 1593,
  "Ġfollowed": 1594,
  "ĠBuddy": 1595,
  "Ġride": 1596,
  "man": 1597,
  "less": 1598,
  "Ġju": 1599,
  "Ġje": 1600,
  "amp": 1601,
  "Bob": 1602,
  "ape": 1603,
  "Ġcomp": 1604,
  "Ġkey": 1605,
  "row": 1606,
  "\".": 1607,
  "Ġwhite": 1608,
  "ctor": 1609,
  "Ġwrong": 1610,
  "ĠDaisy": 1611,
  "Ġmakes": 1612,
  "ĠWhat": 1613,
  "Ġbreak": 1614,
  "Ġblack": 1615,
  "arent": 1616,
  "ee": 1617,
  "ner": 1618,
  "Spot": 1619,
  "Do": 1620,
  "Ġdeep": 1621,
  "thy": 1622,
  "Ġmusic": 1623,
  "Ġpol": 1624,
  "Ġdelic": 1625,
  "cess": 1626,
  "ued": 1627,
  "Ġforgot": 1628,
  "Ġbee": 1629,
  "Ġparent": 1630,
  "Ġcastle": 1631,
  "ves": 1632,
  "olly": 1633,
  "Ġem": 1634,
  "iet": 1635,
  "Ġwear": 1636,
  "Ġhit": 1637,
  "ister": 1638,
  "oun": 1639,
  "Ġquiet": 1640,
  "Ġround": 1641,
  "ance": 1642,
  "Ġstu": 1643,
  "Ġdanced": 1644,
  "Ġvis": 1645,
  "ully": 1646,
  "Ġwants": 1647,
  "Ġleaf": 1648,
  "Ġmonster": 1649,
  "Ġnap": 1650,
  "ĠJohn": 1651,
  "Ġunderstand": 1652,
  "ang": 1653,
  "Ġbowl": 1654,
  "os": 1655,
  "rot": 1656,
  "ren": 1657,
  "Ġbor": 1658,
  "Ġtalked": 1659,
  "itten": 1660,
  "Ġdry": 1661,
  "Ġfaster": 1662,
  "Ġcookies": 1663,
  "Ġbrought": 1664,
  "fully": 1665,
  "Ġleg": 1666,
  "ross": 1667,
  "Ġmum": 1668,
  "zz": 1669,
  "Ġside": 1670,
  "ts": 1671,
  "From": 1672,
  "Ġsign": 1673,
  "ĠInside": 1674,
  "Ġsmart": 1675,
  "cy": 1676,
  "Ġrocks": 1677,
  "Ġsomeone": 1678,
  "His": 1679,
  "Ġpoin": 1680,
  "Ġsec": 1681,
  "Ġsharing": 1682,
  "Ġfox": 1683,
  "Ġwell": 1684,
  "Ġres": 1685,
  "Ġrel": 1686,
  "Ġhappen": 1687,
  "Ġbutton": 1688,
  "Ġbranch": 1689,
  "ĠLila": 1690,
  "Ġreally": 1691,
  "Ġfinished": 1692,
  "ence": 1693,
  "ards": 1694,
  "Ġdinner": 1695,
  "Ġsister": 1696,
  "Ġflying": 1697,
  "eddy": 1698,
  "Ġcontin": 1699,
  "Ġworried": 1700,
  "Ġele": 1701,
  "ĠTo": 1702,
  "Ġvisit": 1703,
  "ĠMaybe": 1704,
  "Ġbeach": 1705,
  "Ġque": 1706,
  "Ġsecret": 1707,
  "Ġel": 1708,
  "ĠSarah": 1709,
  "Ġking": 1710,
  "John": 1711,
  "gy": 1712,
  "Ġtoday": 1713,
  "Ġperfect": 1714,
  "Ġriver": 1715,
  "Ġeverything": 1716,
  "Ġsilly": 1717,
  "Ġshin": 1718,
  "ĠJoe": 1719,
  "Ġdanger": 1720,
  "ipp": 1721,
  "Ġchildren": 1722,
  "Ġgu": 1723,
  "ĠSoon": 1724,
  "Ġfield": 1725,
  "Ġfilled": 1726,
  "Ġfur": 1727,
  "Ġelse": 1728,
  "Ġsmiles": 1729,
  "Ġwelc": 1730,
  "ĠAt": 1731,
  "Ġwish": 1732,
  "ĠEm": 1733,
  "While": 1734,
  "Ġsang": 1735,
  "Ġgi": 1736,
  "ze": 1737,
  "Ġpudd": 1738,
  "Ġsnack": 1739,
  "Ġeating": 1740,
  "Ġrealized": 1741,
  "Ġpieces": 1742,
  "Ġpromised": 1743,
  "ord": 1744,
  "Ġspr": 1745,
  "Ġpig": 1746,
  "Ġfree": 1747,
  "Ġcontinued": 1748,
  "Ġbite": 1749,
  "ead": 1750,
  "Ġparents": 1751,
  "Ġcarefully": 1752,
  "ated": 1753,
  "Ġear": 1754,
  "itting": 1755,
  "Just": 1756,
  "Ġjar": 1757,
  "Maybe": 1758,
  "Ġcow": 1759,
  "Amy": 1760,
  "Ġblank": 1761,
  "Ġdrag": 1762,
  "stead": 1763,
  "Ġorange": 1764,
  "Ġmud": 1765,
  "Ġcrying": 1766,
  "Ġblanket": 1767,
  "Ġenough": 1768,
  "Ġrolled": 1769,
  "cket": 1770,
  "Ġsoup": 1771,
  "Ġsail": 1772,
  "Ġpurp": 1773,
  "imi": 1774,
  "Ġyes": 1775,
  "ale": 1776,
  "Ġdrink": 1777,
  "Ġsnake": 1778,
  "ses": 1779,
  "Ġboun": 1780,
  "Ġpet": 1781,
  "Ġcrab": 1782,
  "Ġlaughing": 1783,
  "Ġthrow": 1784,
  "Ġfairy": 1785,
  "Ġwords": 1786,
  "Ġamazing": 1787,
  "Ġbath": 1788,
  "ich": 1789,
  "Ġpurple": 1790,
  "ĠZ": 1791,
  "Ġwithout": 1792,
  "ire": 1793,
  "Ġbottle": 1794,
  "ĠBilly": 1795,
  "Ġgift": 1796,
  "Ġgrandma": 1797,
  "Fin": 1798,
  "used": 1799,
  "ons": 1800,
  "Ġpast": 1801,
  "Ġmoney": 1802,
  "iver": 1803,
  "fort": 1804,
  "Ġmail": 1805,
  "ĠGra": 1806,
  "Ġbarked": 1807,
  "Ġwagged": 1808,
  "Ġatt": 1809,
  "chool": 1810,
  "Ġmonkey": 1811,
  "Ġdoctor": 1812,
  "unch": 1813,
  "Ġbrown": 1814,
  "Ġmoved": 1815,
  "ises": 1816,
  "Ġasks": 1817,
  "Ġgetting": 1818,
  "Ġclosed": 1819,
  "Ġwhe": 1820,
  "Ġwelcome": 1821,
  "Ġsu": 1822,
  "Ġcandy": 1823,
  "Ġschool": 1824,
  "Ġmorning": 1825,
  "Ġowner": 1826,
  "gg": 1827,
  "Ġlon": 1828,
  "Ġmother": 1829,
  "Ġhigher": 1830,
  "Ġsitting": 1831,
  "Ġtreasure": 1832,
  ".âĢĿ": 1833,
  "Ġsmo": 1834,
  "!âĢĿ": 1835,
  "Ġdangerous": 1836,
  "Ġlonely": 1837,
  "ĠCh": 1838,
  "Ġliving": 1839,
  "Ġapples": 1840,
  "ush": 1841,
  "Ġshop": 1842,
  "ased": 1843,
  "Ġstrange": 1844,
  "vel": 1845,
  "Ġshining": 1846,
  "Ġroad": 1847,
  "ere": 1848,
  "ĠTommy": 1849,
  "Ġcreat": 1850,
  "una": 1851,
  "Ġpaw": 1852,
  "Ġra": 1853,
  "ey": 1854,
  "Ġshoes": 1855,
  "Ġpre": 1856,
  "Ġ-": 1857,
  "ible": 1858,
  "Ġstre": 1859,
  "Ġtalking": 1860,
  "althy": 1861,
  "Ġcaught": 1862,
  "Ġegg": 1863,
  "ol": 1864,
  "Ġpass": 1865,
  "me": 1866,
  "Ġlake": 1867,
  "Ġruns": 1868,
  "Ġbuck": 1869,
  "Ġletter": 1870,
  "Ġwings": 1871,
  "Ġchee": 1872,
  "fish": 1873,
  "Ġmad": 1874,
  "Ġfan": 1875,
  "asket": 1876,
  "Ġbasket": 1877,
  "ass": 1878,
  "Ġdragon": 1879,
  "app": 1880,
  "Mommy": 1881,
  "set": 1882,
  "cks": 1883,
  "Ġstone": 1884,
  "Ġthinks": 1885,
  "Ġstand": 1886,
  "Ġdelicious": 1887,
  "Ġnose": 1888,
  "Ġpuddle": 1889,
  "Ġtom": 1890,
  "ĠBl": 1891,
  "ĠMimi": 1892,
  "Ġbelie": 1893,
  "Ġfarmer": 1894,
  "Ġsame": 1895,
  "Ġyears": 1896,
  "board": 1897,
  "Ġteddy": 1898,
  "Ġbat": 1899,
  "isk": 1900,
  "itch": 1901,
  "Ġmine": 1902,
  "Ġsear": 1903,
  "Ġcoat": 1904,
  "ches": 1905,
  "igh": 1906,
  "Ġdays": 1907,
  "Ġbring": 1908,
  "Ġgentle": 1909,
  "Ġfit": 1910,
  "Ġstart": 1911,
  "Ġfinally": 1912,
  "Ġwhist": 1913,
  "Ġcray": 1914,
  "igg": 1915,
  "Ġscream": 1916,
  "Ġkite": 1917,
  "Ġpill": 1918,
  "phant": 1919,
  "arm": 1920,
  "Ġvill": 1921,
  "Ġcho": 1922,
  "Ġsinging": 1923,
  "ella": 1924,
  "sw": 1925,
  "ined": 1926,
  "Ġtasty": 1927,
  "Ġph": 1928,
  "Ġben": 1929,
  "Ġtrou": 1930,
  "Ġshell": 1931,
  "Ġherself": 1932,
  "Ġhoped": 1933,
  "Ġansw": 1934,
  "Ġwore": 1935,
  "Ġswings": 1936,
  "sy": 1937,
  "Ġhor": 1938,
  "Ġbelong": 1939,
  "Please": 1940,
  "Ġpush": 1941,
  "Ġbush": 1942,
  "iskers": 1943,
  "Ġcarrot": 1944,
  "Ġarri": 1945,
  "aughty": 1946,
  "Ġteach": 1947,
  "bow": 1948,
  "ract": 1949,
  "Ġnaughty": 1950,
  "Ġelephant": 1951,
  "Ġdropped": 1952,
  "Ġshap": 1953,
  "ier": 1954,
  "Ġcoll": 1955,
  "sc": 1956,
  "Ġteac": 1957,
  "emy": 1958,
  "Ġwoke": 1959,
  "ball": 1960,
  "Ġpile": 1961,
  "Ġhiding": 1962,
  "Ġcour": 1963,
  "isa": 1964,
  "erry": 1965,
  "Ġtouc": 1966,
  "Ġmin": 1967,
  "Ġpuppy": 1968,
  "'ll": 1969,
  "Ġseem": 1970,
  "llie": 1971,
  "Ġtwins": 1972,
  "ama": 1973,
  "Ġlunch": 1974,
  "Ġbow": 1975,
  "Ġsack": 1976,
  "Ġpers": 1977,
  "Ġcourse": 1978,
  "Ġcheered": 1979,
  "Ġshapes": 1980,
  "ĠJen": 1981,
  "Ġgrew": 1982,
  "fused": 1983,
  "Ġrope": 1984,
  "Ġvillage": 1985,
  "irth": 1986,
  "irthday": 1987,
  "Ġjuice": 1988,
  "ipped": 1989,
  "Ġrainbow": 1990,
  "Ġspin": 1991,
  "OK": 1992,
  "Ġshook": 1993,
  "Jack": 1994,
  "Ġspoon": 1995,
  "Ġbench": 1996,
  "Ġstreet": 1997,
  "Ġfence": 1998,
  "Ġcute": 1999,
  "ĠFred": 2000,
  "Ġrob": 2001,
  "Ġnut": 2002,
  "Ġcheese": 2003,
  "Ġprob": 2004,
  "Ġtouched": 2005,
  "idge": 2006,
  "col": 2007,
  "Ġjoy": 2008,
  "ĠWhiskers": 2009,
  "Ġarrived": 2010,
  "Ġseed": 2011,
  "Ġwar": 2012,
  "Ġteacher": 2013,
  "Ġcorn": 2014,
  "Good": 2015,
  "Ġable": 2016,
  "Ġforever": 2017,
  "Ġbell": 2018,
  "Ġfew": 2019,
  "Ġcarry": 2020,
  "Ġmost": 2021,
  "Ġplane": 2022,
  "ĠBlue": 2023,
  "lem": 2024,
  "Ġeas": 2025,
  "Ġsounds": 2026,
  "lla": 2027,
  "Ġdes": 2028,
  "Ġspo": 2029,
  "Ġproblem": 2030,
  "Ġbirthday": 2031,
  "Ġinc": 2032,
  "Ġpower": 2033,
  "umb": 2034,
  "br": 2035,
  "Ġbugs": 2036,
  "ilk": 2037,
  "Ġwonderful": 2038,
  "Ġdolls": 2039,
  "Ġbusy": 2040,
  "ato": 2041,
  "irp": 2042,
  "eb": 2043,
  "Ġwra": 2044,
  "Ġpromise": 2045,
  "ĠThank": 2046,
  "Ġfeels": 2047,
  "ian": 2048,
  "ĠEmma": 2049,
  "eter": 2050,
  "Ġbread": 2051,
  "Ġneck": 2052,
  "Finally": 2053,
  "Ġmilk": 2054,
  "Ġrobot": 2055,
  "Ġrec": 2056,
  "Ġshy": 2057,
  "ountain": 2058,
  "Ġkiss": 2059,
  "irt": 2060,
  "Ġheart": 2061,
  "Ġband": 2062,
  "Ġcave": 2063,
  "Ġpocket": 2064,
  "ub": 2065,
  "Ġhelpful": 2066,
  "gly": 2067,
  "Ġslowly": 2068,
  "Ġbelieve": 2069,
  "Ġshake": 2070,
  "umpy": 2071,
  "eared": 2072,
  "Ġpatient": 2073,
  "Ġpop": 2074,
  "Ġob": 2075,
  "arp": 2076,
  "Ġlive": 2077,
  "Ġstorm": 2078,
  "Ġholding": 2079,
  "Ġugly": 2080,
  "Ġtowards": 2081,
  "Ġupset": 2082,
  "Ġturt": 2083,
  "Ġshr": 2084,
  "adow": 2085,
  "Ġcover": 2086,
  "Ġkitten": 2087,
  "ost": 2088,
  "ĠRemy": 2089,
  "Ġsharp": 2090,
  "Ġdisapp": 2091,
  "Ġstories": 2092,
  "Ġsuc": 2093,
  "Ġhoney": 2094,
  "ove": 2095,
  "ĠBella": 2096,
  "read": 2097,
  "Ġnoises": 2098,
  "ĠLe": 2099,
  "Ġcir": 2100,
  "Ġballs": 2101,
  "Ġspark": 2102,
  "Ġgray": 2103,
  "Ġdist": 2104,
  "Ġdirt": 2105,
  "oggy": 2106,
  "Ġlate": 2107,
  "Ġdriver": 2108,
  "Ġseat": 2109,
  "Ġbucket": 2110,
  "Ġmeet": 2111,
  "Ġyoung": 2112,
  "Ġamazed": 2113,
  "Ġturtle": 2114,
  "alm": 2115,
  "Ġspid": 2116,
  "Ġtreats": 2117,
  "Ġmagical": 2118,
  "unt": 2119,
  "ator": 2120,
  "Ġglow": 2121,
  "Ġseek": 2122,
  "Ġzoom": 2123,
  "Ġlem": 2124,
  "Ġsandw": 2125,
  "fortable": 2126,
  "umber": 2127,
  "Ġtrip": 2128,
  "Ġmist": 2129,
  "ourn": 2130,
  "Ġsplas": 2131,
  "Ġmark": 2132,
  "Ġjourn": 2133,
  "Ġfold": 2134,
  "Ġmach": 2135,
  "Ġpuzz": 2136,
  "Ġpart": 2137,
  "ling": 2138,
  "Ġhorse": 2139,
  "Ġorgan": 2140,
  "Ġwild": 2141,
  "Ġprincess": 2142,
  "pping": 2143,
  "oose": 2144,
  "Ġcookie": 2145,
  "Sure": 2146,
  "ens": 2147,
  "Ġhugs": 2148,
  "ĠMark": 2149,
  "Ġtaking": 2150,
  "ung": 2151,
  "Ġwheel": 2152,
  "epend": 2153,
  "Ġcloth": 2154,
  "ĠLisa": 2155,
  "Ġsug": 2156,
  "Ġinstead": 2157,
  "Ġbubb": 2158,
  "Ġstring": 2159,
  "Ġnet": 2160,
  "Ġdrove": 2161,
  "iling": 2162,
  "Ġrude": 2163,
  "Ġhuge": 2164,
  "ĠJim": 2165,
  "Ġcoin": 2166,
  "Ġstars": 2167,
  "Ġfighting": 2168,
  "Be": 2169,
  "Ġspicy": 2170,
  "Ġlucky": 2171,
  "Of": 2172,
  "Ġcraw": 2173,
  "Hey": 2174,
  "Ġbone": 2175,
  "Ġinv": 2176,
  "ĠGrandma": 2177,
  "ors": 2178,
  "not": 2179,
  "Ġca": 2180,
  "pper": 2181,
  "Ġforget": 2182,
  "up": 2183,
  "Ġdi": 2184,
  "aur": 2185,
  "Ġsal": 2186,
  "ĠFinally": 2187,
  "Ġcannot": 2188,
  "Ġwhistle": 2189,
  "Ġcard": 2190,
  "Ġsick": 2191,
  "Ġpath": 2192,
  "Ġcou": 2193,
  "Ġspider": 2194,
  "Ġwide": 2195,
  "Lila": 2196,
  "Ġfoot": 2197,
  "Ġsnowman": 2198,
  "Ġlife": 2199,
  "Ġsongs": 2200,
  "Ġpillow": 2201,
  "ize": 2202,
  "ular": 2203,
  "ĠJust": 2204,
  "Later": 2205,
  "est": 2206,
  "ĠAnn": 2207,
  "ert": 2208,
  "Ġfixed": 2209,
  "Ġgiant": 2210,
  "oph": 2211,
  "rill": 2212,
  "Ġnod": 2213,
  "Ġboss": 2214,
  "Ġlast": 2215,
  "Ġcomes": 2216,
  "Ġjoke": 2217,
  "Ġmoon": 2218,
  "Ġtaste": 2219,
  "den": 2220,
  "Ġmachine": 2221,
  "Ġgrumpy": 2222,
  "Ġwave": 2223,
  "Ġthin": 2224,
  "Ġdrive": 2225,
  "Ġcart": 2226,
  "Ġash": 2227,
  "Ġser": 2228,
  "Ġgrab": 2229,
  "Ġpeace": 2230,
  "lower": 2231,
  "Ġdaddy": 2232,
  "ĠOn": 2233,
  "ĠLeo": 2234,
  "ery": 2235,
  "Ġsel": 2236,
  "Ġshelf": 2237,
  "Ġhidden": 2238,
  "erest": 2239,
  "Ġsuddenly": 2240,
  "Ġwasn": 2241,
  "Ġwrite": 2242,
  "Ġlanded": 2243,
  "Ġconfused": 2244,
  "Ġring": 2245,
  "Ġchange": 2246,
  "Ġworm": 2247,
  "Ġinterest": 2248,
  "Ġchased": 2249,
  "oop": 2250,
  "Ġfruits": 2251,
  "Ġsour": 2252,
  "ity": 2253,
  "Ġmyster": 2254,
  "Ġbark": 2255,
  "Ġrad": 2256,
  "Ġsmooth": 2257,
  "ĠCome": 2258,
  "Ġadventures": 2259,
  "Ġval": 2260,
  "Ġstepped": 2261,
  "Ġfle": 2262,
  "ope": 2263,
  "Ġoven": 2264,
  "Ġtakes": 2265,
  "Ġmissed": 2266,
  "Ġselfish": 2267,
  "kin": 2268,
  "Ġsheep": 2269,
  "Ġmessy": 2270,
  "To": 2271,
  "Ġacross": 2272,
  "Ġent": 2273,
  "Ġexp": 2274,
  "to": 2275,
  "Ġce": 2276,
  "Ġlater": 2277,
  "elly": 2278,
  "ĠN": 2279,
  "ife": 2280,
  "Ġsticks": 2281,
  "Ġtie": 2282,
  "St": 2283,
  "ever": 2284,
  "ĠLuna": 2285,
  "Ġbought": 2286,
  "Ġstep": 2287,
  "Ġdrew": 2288,
  "Ġtea": 2289,
  "pect": 2290,
  "Ġban": 2291,
  "irpy": 2292,
  "box": 2293,
  "?âĢĿ": 2294,
  "Ġwash": 2295,
  "Ġlay": 2296,
  "Ġpour": 2297,
  "Ġbeak": 2298,
  "ose": 2299,
  "Ġjog": 2300,
  "Ġgrate": 2301,
  "Ġducks": 2302,
  "Ġspe": 2303,
  "Ġlegs": 2304,
  "ugg": 2305,
  "Ġfil": 2306,
  "ĠBu": 2307,
  "Ġemp": 2308,
  "mer": 2309,
  "Ġhope": 2310,
  "Ġempty": 2311,
  "Ġslid": 2312,
  "Ġfeather": 2313,
  "Ġsleepy": 2314,
  "Ġdrum": 2315,
  "amed": 2316,
  "ars": 2317,
  "eth": 2318,
  "Ġzoo": 2319,
  "Ġpan": 2320,
  "Ġphone": 2321,
  "Ġgrateful": 2322,
  "Ġfing": 2323,
  "ions": 2324,
  "Ġlemon": 2325,
  "let": 2326,
  "ĠCat": 2327,
  "Ġclever": 2328,
  "ĠMolly": 2329,
  "Ġsmelly": 2330,
  "Ġimag": 2331,
  "Ġsplash": 2332,
  "Ġinteresting": 2333,
  "ĠJill": 2334,
  "Ġsave": 2335,
  "Ġchick": 2336,
  "Ġcalm": 2337,
  "Ġmed": 2338,
  "Ġwatching": 2339,
  "Soon": 2340,
  "izzy": 2341,
  "izz": 2342,
  "Ġplate": 2343,
  "Ġign": 2344,
  "yard": 2345,
  "Ġclouds": 2346,
  "Ġbanan": 2347,
  "Ġline": 2348,
  "Ġfaces": 2349,
  "Ġba": 2350,
  "Ġact": 2351,
  "Ġlift": 2352,
  "Ġthough": 2353,
  "Ġwolf": 2354,
  "Ġbackyard": 2355,
  "wel": 2356,
  "Ġseemed": 2357,
  "Ġdogs": 2358,
  "Ġspray": 2359,
  "Come": 2360,
  "Ġprot": 2361,
  "Ġwhole": 2362,
  "Ġmot": 2363,
  "Ġfancy": 2364,
  "ĠDaddy": 2365,
  "Ġquest": 2366,
  "Ġarms": 2367,
  "Ġpuzzle": 2368,
  "Ġhealthy": 2369,
  "Ġsupp": 2370,
  "ward": 2371,
  "Ġfinish": 2372,
  "erly": 2373,
  "Ġalong": 2374,
  "llo": 2375,
  "Ġrocket": 2376,
  "Ġexplain": 2377,
  "dge": 2378,
  "Ġeasy": 2379,
  "Ġjewel": 2380,
  "ont": 2381,
  "Ġpract": 2382,
  "Ġjelly": 2383,
  "ĠChirpy": 2384,
  "Ġtid": 2385,
  "Ġfake": 2386,
  "Ġcrayons": 2387,
  "Ġwondered": 2388,
  "Ġmaybe": 2389,
  "Ġscar": 2390,
  "Ġship": 2391,
  "Ġnothing": 2392,
  "onest": 2393,
  "Ġemb": 2394,
  "iger": 2395,
  "Ġpool": 2396,
  "Ġlonger": 2397,
  "Ġanyone": 2398,
  "ĠBe": 2399,
  "ĠJerry": 2400,
  "ually": 2401,
  "Ġfront": 2402,
  "Ġworking": 2403,
  "Ġgives": 2404,
  "irr": 2405,
  "Ġpack": 2406,
  "Ġsuch": 2407,
  "ĠBunny": 2408,
  "ocked": 2409,
  "ment": 2410,
  "Ġbossy": 2411,
  "ĠDoggy": 2412,
  "Ġtrouble": 2413,
  "Ġsmelled": 2414,
  "Ġsaved": 2415,
  "Ġpin": 2416,
  "rass": 2417,
  "Ġneigh": 2418,
  "arrass": 2419,
  "iting": 2420,
  "Ġhonest": 2421,
  "Ġav": 2422,
  "arge": 2423,
  "Ġembarrass": 2424,
  "Ġvan": 2425,
  "Ġforgive": 2426,
  "Ġtidy": 2427,
  "Ġweak": 2428,
  "urse": 2429,
  "Ġputs": 2430,
  "unk": 2431,
  "Ġkick": 2432,
  "Ġshirt": 2433,
  "ĠWith": 2434,
  "Ġmind": 2435,
  "ĠOllie": 2436,
  "Ġneighb": 2437,
  "Ġplants": 2438,
  "Ġsol": 2439,
  "ĠMomo": 2440,
  "Ġgently": 2441,
  "Ġcozy": 2442,
  "orrow": 2443,
  "ming": 2444,
  "Ġexplor": 2445,
  "sp": 2446,
  "Ġmistake": 2447,
  "Ġyog": 2448,
  "oc": 2449,
  "oomy": 2450,
  "Ġpointed": 2451,
  "Ġlad": 2452,
  "Ġaf": 2453,
  "Ġstood": 2454,
  "ork": 2455,
  "Ġonto": 2456,
  "Ġjumping": 2457,
  "Ġwaiting": 2458,
  "Ġprince": 2459,
  "Ġcross": 2460,
  "Ġlock": 2461,
  "Ġcheer": 2462,
  "Ġqueen": 2463,
  "ĠWhy": 2464,
  "ĠMary": 2465,
  "Ġwing": 2466,
  "ones": 2467,
  "we": 2468,
  "Ġlarge": 2469,
  "Ġlovely": 2470,
  "ult": 2471,
  "Ġsur": 2472,
  "Ġret": 2473,
  "And": 2474,
  "Ġdeer": 2475,
  "Ġchew": 2476,
  "Ġcouch": 2477,
  "Ġbal": 2478,
  "Ġstret": 2479,
  "aughter": 2480,
  "era": 2481,
  "ĠTheir": 2482,
  "Ġplaces": 2483,
  "ĠMy": 2484,
  "Ġladder": 2485,
  "oof": 2486,
  "Ġreturn": 2487,
  "raid": 2488,
  "Ġants": 2489,
  "Ġdish": 2490,
  "Ġafraid": 2491,
  "Ġcleaned": 2492,
  "Ġtomorrow": 2493,
  "Ġbuilding": 2494,
  "Ġsandwich": 2495,
  "Ġperson": 2496,
  "Sally": 2497,
  "ned": 2498,
  "Ġpretended": 2499,
  "Ġbounce": 2500,
  "Ġwip": 2501,
  "gest": 2502,
  "Ġmatch": 2503,
  "Ġrich": 2504,
  "uce": 2505,
  "Ġpizz": 2506,
  "Ġgather": 2507,
  "Ġsearch": 2508,
  "Ġboring": 2509,
  "oman": 2510,
  "ĠSomet": 2511,
  "Ġteeth": 2512,
  "Ġhum": 2513,
  "Kitty": 2514,
  "My": 2515,
  "aced": 2516,
  "Ġdaughter": 2517,
  "Ġwoman": 2518,
  "Ġscarf": 2519,
  "Ġgoes": 2520,
  "ĠTogether": 2521,
  "Ġlaw": 2522,
  "Ġstra": 2523,
  "Ġswimming": 2524,
  "Ġfurry": 2525,
  "Ġsplashed": 2526,
  "Ġpri": 2527,
  "Ġloves": 2528,
  "Ġtrue": 2529,
  "Ġscreamed": 2530,
  "Ġlazy": 2531,
  "Ġgen": 2532,
  "Ġanswer": 2533,
  "Ġeag": 2534,
  "Ġnumber": 2535,
  "Ġashamed": 2536,
  "Ġpizza": 2537,
  "aw": 2538,
  "Ġappeared": 2539,
  "Ġfear": 2540,
  "Ġnearby": 2541,
  "Ġpowerful": 2542,
  "Ġflag": 2543,
  "ĠSt": 2544,
  "Ġhang": 2545,
  "vous": 2546,
  "Ġclown": 2547,
  "ek": 2548,
  "Ġchase": 2549,
  "Ġmotor": 2550,
  "Ġwand": 2551,
  "ĠTV": 2552,
  "Ġrub": 2553,
  "Ġsuccess": 2554,
  "Ġchocol": 2555,
  "ĠIf": 2556,
  "Ġcreative": 2557,
  "Ġtrust": 2558,
  "Ġwearing": 2559,
  "Ġnoisy": 2560,
  "Ġmatter": 2561,
  "pa": 2562,
  "Ġdig": 2563,
  "Ġhello": 2564,
  "Ġner": 2565,
  "Ġtool": 2566,
  "Ġsaf": 2567,
  "ĠBird": 2568,
  "ado": 2569,
  "Ġnervous": 2570,
  "elp": 2571,
  "Ġtest": 2572,
  "Ġsmiling": 2573,
  "Ġsold": 2574,
  "icked": 2575,
  "oppy": 2576,
  "osaur": 2577,
  "Ġcircle": 2578,
  "mb": 2579,
  "Ġmap": 2580,
  "Ġdrank": 2581,
  "Ġclass": 2582,
  "Ġtries": 2583,
  "Ġchocolate": 2584,
  "ĠPlease": 2585,
  "Ġimpress": 2586,
  "Ġknee": 2587,
  "Ġgener": 2588,
  "Ġdinosaur": 2589,
  "Ġpolite": 2590,
  "Ġmirr": 2591,
  "ĠBobby": 2592,
  "ĠTiny": 2593,
  "Ġballoons": 2594,
  "Ġgold": 2595,
  "Ġrare": 2596,
  "Ġprotect": 2597,
  "Ġcand": 2598,
  "Stop": 2599,
  "Ġcarried": 2600,
  "ĠGo": 2601,
  "ensive": 2602,
  "Ġap": 2603,
  "Ġshadow": 2604,
  "Ġmirror": 2605,
  "ĠDon": 2606,
  "Ġbald": 2607,
  "Ġgun": 2608,
  "ina": 2609,
  "Ġexpensive": 2610,
  "Ġreg": 2611,
  "iff": 2612,
  "Ġmysterious": 2613,
  "ĠSp": 2614,
  "Ġpump": 2615,
  "Ġnote": 2616,
  "Ġhero": 2617,
  "Ġmarch": 2618,
  "Ġhar": 2619,
  "arl": 2620,
  "Ġicy": 2621,
  "Ġrespect": 2622,
  "Ġweird": 2623,
  "Ġsnee": 2624,
  "Ġcri": 2625,
  "Ġgate": 2626,
  "Ġsoap": 2627,
  "rag": 2628,
  "ute": 2629,
  "issors": 2630,
  "Ġthese": 2631,
  "Ġpoor": 2632,
  "Ġtowel": 2633,
  "Ġwhale": 2634,
  "Ġfeet": 2635,
  "Ġtape": 2636,
  "Ġdizzy": 2637,
  "itter": 2638,
  "Ġgenerous": 2639,
  "ndpa": 2640,
  "Ġpres": 2641,
  "ĠBenny": 2642,
  "nic": 2643,
  "Ġdisco": 2644,
  "Help": 2645,
  "ventually": 2646,
  "Ġpicnic": 2647,
  "Ġmic": 2648,
  "Ġlead": 2649,
  "Ġsque": 2650,
  "Ġembarrassed": 2651,
  "Ġjourney": 2652,
  "Ġsugar": 2653,
  "isp": 2654,
  "scape": 2655,
  "Ġboot": 2656,
  "Ġtent": 2657,
  "Ġpeaceful": 2658,
  "Ġfat": 2659,
  "ĠBear": 2660,
  "Ġscissors": 2661,
  "Ġtasted": 2662,
  "Ġyelled": 2663,
  "Tommy": 2664,
  "Ġtick": 2665,
  "Ġmel": 2666,
  "Ġbrush": 2667,
  "Ġdancing": 2668,
  "ness": 2669,
  "Ġglue": 2670,
  "Ġhur": 2671,
  "Ġclap": 2672,
  "Ġrough": 2673,
  "Ġbridge": 2674,
  "ote": 2675,
  "Ġdecor": 2676,
  "Ġcloset": 2677,
  "Ġcrown": 2678,
  "Ġstir": 2679,
  "ual": 2680,
  "imp": 2681,
  "Ġprint": 2682,
  "ĠSometimes": 2683,
  "owed": 2684,
  "airs": 2685,
  "ĠHow": 2686,
  "ume": 2687,
  "Ġcap": 2688,
  "Ġlamp": 2689,
  "Ġvase": 2690,
  "Ġscare": 2691,
  "lebr": 2692,
  "Ġrelie": 2693,
  "lves": 2694,
  "any": 2695,
  "Ġeld": 2696,
  "Ġtele": 2697,
  "Ġcelebr": 2698,
  "Ġgigg": 2699,
  "Ġwhisp": 2700,
  "Ġlog": 2701,
  "Ġsco": 2702,
  "Ġblow": 2703,
  "Ġpainted": 2704,
  "ĠDucky": 2705,
  "Ġpay": 2706,
  "erries": 2707,
  "Ġwis": 2708,
  "Ġberries": 2709,
  "Ġmixed": 2710,
  "Ġspread": 2711,
  "Ġwouldn": 2712,
  "Ġcage": 2713,
  "Ġbake": 2714,
  "rob": 2715,
  "getable": 2716,
  "Ġmountain": 2717,
  "Ġadm": 2718,
  "Ġdrawing": 2719,
  "Ġbecome": 2720,
  "Ġfamous": 2721,
  "Ġbean": 2722,
  "Ġknocked": 2723,
  "Ġnorm": 2724,
  "Ġvegetable": 2725,
  "asp": 2726,
  "Ġkicked": 2727,
  "ustr": 2728,
  "Ġshark": 2729,
  "ser": 2730,
  "Ġincred": 2731,
  "Ġlose": 2732,
  "Ġnormal": 2733,
  "Ġwrap": 2734,
  "ced": 2735,
  "Ġgroup": 2736,
  "Ġthick": 2737,
  "Ġ3": 2738,
  "Ġfine": 2739,
  "Ġglass": 2740,
  "Ġignor": 2741,
  "Ġclock": 2742,
  "Ġteam": 2743,
  "Ġelderly": 2744,
  "Ġclear": 2745,
  "Ġcorner": 2746,
  "Ġfrustr": 2747,
  "Ġmighty": 2748,
  "robe": 2749,
  "Ġcone": 2750,
  "Ġincredible": 2751,
  "ĠBr": 2752,
  "ighed": 2753,
  "Dad": 2754,
  "Ġmoms": 2755,
  "Ġbalance": 2756,
  "Ġsock": 2757,
  "Ġspace": 2758,
  "Ġjam": 2759,
  "ragile": 2760,
  "Ġfright": 2761,
  "Ġbranches": 2762,
  "Ġorganized": 2763,
  "Ġroar": 2764,
  "port": 2765,
  "Ġsword": 2766,
  "alous": 2767,
  "ĠMama": 2768,
  "Ġguess": 2769,
  "Ġfool": 2770,
  "Ġsell": 2771,
  "Ġfeed": 2772,
  "ĠSome": 2773,
  "Ġwhich": 2774,
  "Ġhorn": 2775,
  "Ġpresent": 2776,
  "Ġjealous": 2777,
  "Ġyarn": 2778,
  "ony": 2779,
  "Ġfragile": 2780,
  "Ġburn": 2781,
  "Ġunderstood": 2782,
  "Ġmis": 2783,
  "Ġstubb": 2784,
  "Ġter": 2785,
  "Ġfrustrated": 2786,
  "Where": 2787,
  "ray": 2788,
  "Ġhose": 2789,
  "cient": 2790,
  "Ġspent": 2791,
  "Ġshoe": 2792,
  "Ġtaught": 2793,
  "Ġstubborn": 2794,
  "Ġtwist": 2795,
  "Ġcreature": 2796,
  "Ġchest": 2797,
  "Ġspoiled": 2798,
  "Ġrelieved": 2799,
  "Ġancient": 2800,
  "Ġwake": 2801,
  "ique": 2802,
  "Ġfier": 2803,
  "Ġpray": 2804,
  "Ġfierce": 2805,
  "Ġeggs": 2806,
  "Ġcab": 2807,
  "Ġterri": 2808,
  "Ġbarn": 2809,
  "Ġpumpkin": 2810,
  "Ġcomfortable": 2811,
  "Ġord": 2812,
  "ym": 2813,
  "Ġfrightened": 2814,
  "orry": 2815,
  "Ġtoug": 2816,
  "Ġunique": 2817,
  "Ġmeasure": 2818,
  "Ġgoat": 2819,
  "Ġwagon": 2820,
  "Ġunus": 2821,
  "Ġbreath": 2822,
  "Ġfoolish": 2823,
  "Ġuseful": 2824,
  "Ġexploring": 2825,
  "dle": 2826,
  "Ġstraw": 2827,
  "Ġunusual": 2828,
  "Ġdug": 2829,
  "Ġclay": 2830,
  "Ġdiscover": 2831,
  "Ġtomato": 2832,
  "ĠPe": 2833,
  "Ġdead": 2834,
  "Ġfinding": 2835,
  "Ġpolice": 2836,
  "Ġwrote": 2837,
  "Ġclum": 2838,
  "Ġexam": 2839,
  "lace": 2840,
  "Ġwaves": 2841,
  "Ġsquare": 2842,
  "Ġhears": 2843,
  "Ġcabin": 2844,
  "Ġtells": 2845,
  "Ġnecklace": 2846,
  "Ġdull": 2847,
  "Ġclumsy": 2848,
  "Ġtough": 2849,
  "Ġbubbles": 2850,
  "Ġnosy": 2851,
  "kn": 2852,
  "Ġsearched": 2853,
  "Together": 2854,
  "Ġwashed": 2855,
  "Ġbathroom": 2856,
  "Ġpaws": 2857,
  "bby": 2858,
  "ond": 2859,
  "unn": 2860,
  "anged": 2861,
  "Ġboard": 2862,
  "fic": 2863,
  "known": 2864,
  "Ġasking": 2865,
  "Ġcrazy": 2866,
  "Ġthankful": 2867,
  "Ġsunf": 2868,
  "Ġbitter": 2869,
  "yal": 2870,
  "Ġpir": 2871,
  "berry": 2872,
  "alk": 2873,
  "Ġind": 2874,
  "Ġdiffic": 2875,
  "Ġrose": 2876,
  "cil": 2877,
  "Ġswan": 2878,
  "Ġbloom": 2879,
  "Ġunknown": 2880,
  "ĠElla": 2881,
  "Ġcovered": 2882,
  "Ġdifficult": 2883,
  "Ġadd": 2884,
  "Ġpencil": 2885,
  "Ġfinger": 2886,
  "Ġham": 2887,
  "Ġhoop": 2888,
  "Ġjet": 2889,
  "Ġwitch": 2890,
  "Ġdrop": 2891,
  "Me": 2892,
  "Ġ'": 2893,
  "Ġchicken": 2894,
  "Ġgloomy": 2895,
  "apped": 2896,
  "Ġloyal": 2897,
  "als": 2898,
  "Here": 2899,
  "Ġwealthy": 2900,
  "com": 2901,
  "light": 2902,
  "Ġunl": 2903,
  "Ġcats": 2904,
  "Ġending": 2905,
  "Ġguit": 2906,
  "bled": 2907,
  "shine": 2908,
  "Ġdove": 2909,
  "Ġjoined": 2910,
  "Ġcher": 2911,
  "anut": 2912,
  "Ġmov": 2913,
  "Ġterrible": 2914,
  "Ġyours": 2915,
  "iant": 2916,
  "ĠU": 2917,
  "ĠRex": 2918,
  "Ġsalad": 2919,
  "ĠAndy": 2920,
  "Ġnuts": 2921,
  "Ġrat": 2922,
  "ground": 2923,
  "Ġtiger": 2924,
  "Ġpotato": 2925,
  "Ġmask": 2926,
  "xible": 2927,
  "selves": 2928,
  "Ġvalue": 2929,
  "Ġchanged": 2930,
  "Ġmoving": 2931,
  "Ġexciting": 2932,
  "ormous": 2933,
  "ĠMany": 2934,
  "Ġbody": 2935,
  "ĠTr": 2936,
  "Ġtoast": 2937,
  "Ġrecord": 2938,
  "erp": 2939,
  "Ġzip": 2940,
  "Ġcheap": 2941,
  "Ġdisg": 2942,
  "Ġguitar": 2943,
  "irsty": 2944,
  "Ġknowing": 2945,
  "Ġadventur": 2946,
  "Ġyourself": 2947,
  "Ġenormous": 2948,
  "Ġhairy": 2949,
  "Every": 2950,
  "Ġshoot": 2951,
  "ĠBrown": 2952,
  "Ġbored": 2953,
  "Ġpepper": 2954,
  "Ġremind": 2955,
  "ory": 2956,
  "land": 2957,
  "Ġacorn": 2958,
  "Ġadventurous": 2959,
  "Ġsunshine": 2960,
  "Ġsmaller": 2961,
  "Ġstuff": 2962,
  "Ġhats": 2963,
  "Ġsolve": 2964,
  "ĠJimmy": 2965,
  "Ġflexible": 2966,
  "Ġcost": 2967,
  "rilliant": 2968,
  "Ġknife": 2969,
  "Ġperform": 2970,
  "Ġsnacks": 2971,
  "Ġnods": 2972,
  "Ġshore": 2973,
  "Ġbrilliant": 2974,
  "Ġthirsty": 2975,
  "Ġdelicate": 2976,
  "Ġfrown": 2977,
  "Ġdisgust": 2978,
  "Ġcollect": 2979,
  "Ġstri": 2980,
  "Ġseeds": 2981,
  "Ġcounted": 2982,
  "Ġasleep": 2983,
  "Ġbanana": 2984,
  "reen": 2985,
  "Ġmailbox": 2986,
  "iness": 2987,
  "Ġdough": 2988,
  "Ġtrick": 2989,
  "Ġneighbor": 2990,
  "ungle": 2991,
  "Ġheal": 2992,
  "live": 2993,
  "Who": 2994,
  "Ġstage": 2995,
  "ident": 2996,
  "Ġmarket": 2997,
  "Ġcube": 2998,
  "Ġstat": 2999,
  "Ġjungle": 3000,
  "Ġsquee": 3001,
  "mbre": 3002,
  "Ġexplained": 3003,
  "ates": 3004,
  "Ġumbre": 3005,
  "Ġdisgusting": 3006,
  "Jim": 3007,
  "fted": 3008,
  "Ġlab": 3009,
  "Ġjolly": 3010,
  "Ġflash": 3011,
  "und": 3012,
  "Ġfridge": 3013,
  "inal": 3014,
  "pid": 3015,
  "ilt": 3016,
  "Ġcrane": 3017,
  "corn": 3018,
  "Ġsuit": 3019,
  "Ġrh": 3020,
  "iddle": 3021,
  "Ġsunflower": 3022,
  "Ġtimes": 3023,
  "ĠAl": 3024,
  "Ġcaterp": 3025,
  "Ġcaterpill": 3026,
  "Ġrelax": 3027,
  "Ġshiver": 3028,
  "Ġfour": 3029,
  "Ġisland": 3030,
  "iginal": 3031,
  "Ġharm": 3032,
  "ict": 3033,
  "ĠWhile": 3034,
  "ying": 3035,
  "Ġstupid": 3036,
  "Ġmedic": 3037,
  "ĠInstead": 3038,
  "Ġcomb": 3039,
  "Ġgoose": 3040,
  "Ġcro": 3041,
  "edient": 3042,
  "ĠWill": 3043,
  "Ġstove": 3044,
  "If": 3045,
  "Are": 3046,
  "Ġindepend": 3047,
  "Mum": 3048,
  "most": 3049,
  "Ġspring": 3050,
  "Ġgem": 3051,
  "Ġbatter": 3052,
  "Ġsighed": 3053,
  "Ġvegetables": 3054,
  "Ġstones": 3055,
  "pes": 3056,
  "Ġshine": 3057,
  "How": 3058,
  "Ġmedicine": 3059,
  "Ġdepend": 3060,
  "Ġrug": 3061,
  "ĠYour": 3062,
  "Ġcareless": 3063,
  "Ġoriginal": 3064,
  "Ġstamp": 3065,
  "Ġgar": 3066,
  "Ġcries": 3067,
  "Inside": 3068,
  "gu": 3069,
  "Ġcarrots": 3070,
  "Ġscr": 3071,
  "Ġsuccessful": 3072,
  "Ġsauce": 3073,
  "Ġjeep": 3074,
  "Ġpopcorn": 3075,
  "Ġmeal": 3076,
  "Ġobedient": 3077,
  "Ġalmost": 3078,
  "Ġmiddle": 3079,
  "Ġmagn": 3080,
  "Ġstudy": 3081,
  "Ġindependent": 3082,
  "Ġfearful": 3083,
  "Ġjack": 3084,
  "met": 3085,
  "inky": 3086,
  "Sorry": 3087,
  "ĠSammy": 3088,
  "Ġescape": 3089,
  "Ġcaterpillar": 3090,
  "Ġserious": 3091,
  "Ġpeanut": 3092,
  "Ġbedroom": 3093,
  "Ġeager": 3094,
  "aken": 3095,
  "Ġgets": 3096,
  "Ġparrot": 3097,
  "Ġstatue": 3098,
  "Ġhelmet": 3099,
  "Ġpebb": 3100,
  "ĠNo": 3101,
  "Ġfountain": 3102,
  "Ġang": 3103,
  "Ġraven": 3104,
  "Ġpasta": 3105,
  "Ġumbrella": 3106,
  "Ġcompet": 3107,
  "There": 3108,
  "Ġjacket": 3109,
  "Ġbelonged": 3110,
  "Ġdest": 3111,
  "Ġfilthy": 3112,
  "Ġdesign": 3113,
  "Ġborrow": 3114,
  "Ġcam": 3115,
  "erable": 3116,
  "Ġhouses": 3117,
  "Ġprize": 3118,
  "Ġhay": 3119,
  "Ġbrace": 3120,
  "Ġstanding": 3121,
  "Ġmiserable": 3122,
  "Ġraced": 3123,
  "Ġtaken": 3124,
  "ages": 3125,
  "Ġfork": 3126,
  "Ġcrayon": 3127,
  "Ġpainting": 3128,
  "io": 3129,
  "Ġtriang": 3130,
  "Ġimpressive": 3131,
  "Ġchoose": 3132,
  "Ġfig": 3133,
  "Ġtied": 3134,
  "iable": 3135,
  "Ġspotted": 3136,
  "Ġlifted": 3137,
  "Ġslipped": 3138,
  "ours": 3139,
  "Ġtank": 3140,
  "Ġthoughtful": 3141,
  "Ġdependable": 3142,
  "Ġsteal": 3143,
  "Ġgarage": 3144,
  "enny": 3145,
  "Ġbuilt": 3146,
  "Ġmush": 3147,
  "Ġer": 3148,
  "ipe": 3149,
  "Ġmole": 3150,
  "Ġcrawled": 3151,
  "Ġscale": 3152,
  "Ġboats": 3153,
  "Ġpant": 3154,
  "Ġpian": 3155,
  "Ġhammer": 3156,
  "Ġbottom": 3157,
  "lph": 3158,
  "Ġcheerful": 3159,
  "Ġusing": 3160,
  "Ġsmoke": 3161,
  "Ġpicks": 3162,
  "Ġmoder": 3163,
  "Ġshows": 3164,
  "berries": 3165,
  "rn": 3166,
  "Ġpiano": 3167,
  "Ġmagnet": 3168,
  "dile": 3169,
  "codile": 3170,
  "Ġhurts": 3171,
  "inary": 3172,
  "Ġref": 3173,
  "Ġcrack": 3174,
  "Ġeng": 3175,
  "Ġaunt": 3176,
  "Ġmelon": 3177,
  "Ġwaff": 3178,
  "Ġmodern": 3179,
  "Ġdolph": 3180,
  "unnel": 3181,
  "cream": 3182,
  "pack": 3183,
  "Ġtunnel": 3184,
  "oin": 3185,
  "Ġarrow": 3186,
  "Ġreliable": 3187,
  "Ġhopping": 3188,
  "Ġmushroom": 3189,
  "Ġjug": 3190,
  "Timmy": 3191,
  "Ġsquash": 3192,
  "Ġgum": 3193,
  "Ġsink": 3194,
  "Ġmovie": 3195,
  "Ġtax": 3196,
  "Ġflute": 3197,
  "Ġbeet": 3198,
  "Ġlean": 3199,
  "Their": 3200,
  "iv": 3201,
  "Ġpopular": 3202,
  "icop": 3203,
  "icopter": 3204,
  "Ġcryst": 3205,
  "Ġones": 3206,
  "Ġsil": 3207,
  "Ġcompetit": 3208,
  "Ġhelicopter": 3209,
  "aser": 3210,
  "Ġneeds": 3211,
  "ipop": 3212,
  "llipop": 3213,
  "Ġcrocodile": 3214,
  "Ġliz": 3215,
  "Molly": 3216,
  "Ġpress": 3217,
  "Ġtroubled": 3218,
  "Ġpige": 3219,
  "Ġlocked": 3220,
  "Ġtricks": 3221,
  "Ġlollipop": 3222,
  "Ġplayful": 3223,
  "Ġhumble": 3224,
  "Ġtaxi": 3225,
  "Ġkissed": 3226,
  "Ġlow": 3227,
  "appy": 3228,
  "comfortable": 3229,
  "amond": 3230,
  "Ġrid": 3231,
  "Ġuncomfortable": 3232,
  "host": 3233,
  "Ġwander": 3234,
  "atch": 3235,
  "Ġangel": 3236,
  "edy": 3237,
  "cles": 3238,
  "Ġgrace": 3239,
  "Ġtorn": 3240,
  "Ġanx": 3241,
  "Ġwrapped": 3242,
  "Ġmuff": 3243,
  "Ġtwig": 3244,
  "Ġpants": 3245,
  "Ġdisappoin": 3246,
  "ĠSn": 3247,
  "Ġhelps": 3248,
  "Ġdiamond": 3249,
  "Ġcamera": 3250,
  "atter": 3251,
  "oto": 3252,
  "Ġanxious": 3253,
  "Ġghost": 3254,
  "Ġruined": 3255,
  "Ġtears": 3256,
  "cident": 3257,
  "ĠJenny": 3258,
  "ilty": 3259,
  "Ġquar": 3260,
  "aff": 3261,
  "ĠEven": 3262,
  "Ġfis": 3263,
  "opl": 3264,
  "Ġbelt": 3265,
  "eropl": 3266,
  "Ġenv": 3267,
  "Ġguilty": 3268,
  "Ġbull": 3269,
  "Ġaeropl": 3270,
  "Ġhelpless": 3271,
  "Ġhappiness": 3272,
  "Ġlizard": 3273,
  "Ġboys": 3274,
  "cut": 3275,
  "ext": 3276,
  "Ġcere": 3277,
  "Ġwalks": 3278,
  "cean": 3279,
  "Ġpassed": 3280,
  "Ġmeant": 3281,
  "Ġocean": 3282,
  "Ġfluffy": 3283,
  "Ġwire": 3284,
  "Ġnail": 3285,
  "Ġbracelet": 3286,
  "Ġdeaf": 3287,
  "zed": 3288,
  "Ġstretch": 3289,
  "Ġcact": 3290,
  "Ġcandle": 3291,
  "tt": 3292,
  "Ġbeetle": 3293,
  "Ġmop": 3294,
  "Ġharmless": 3295,
  "umpet": 3296,
  "Ġordinary": 3297,
  "Ġanswered": 3298,
  "Ġcop": 3299,
  "Ġcollar": 3300,
  "Ġbees": 3301,
  "Ġtire": 3302,
  "Ġshape": 3303,
  "Ġquarrel": 3304,
  "Ġradio": 3305,
  "Ġflashlight": 3306,
  "Ġcrystal": 3307,
  "Ġharder": 3308,
  "Ġpoured": 3309,
  "Ġtrumpet": 3310,
  "Ġengine": 3311,
  "Mama": 3312,
  "Ġpersist": 3313,
  "Ġhunt": 3314,
  "Ġtooth": 3315,
  "Ġcereal": 3316,
  "Ġinvited": 3317,
  "Ġcomput": 3318,
  "Ġtag": 3319,
  "Ġoffice": 3320,
  "Ġmelt": 3321,
  "Ġspill": 3322,
  "Ġcharm": 3323,
  "coa": 3324,
  "Ġlit": 3325,
  "Ġscoot": 3326,
  "Ġcomet": 3327,
  "Ġtriangle": 3328,
  "ief": 3329,
  "Ġmug": 3330,
  "Ġrep": 3331,
  "ube": 3332,
  "Ġyogurt": 3333,
  "Ġspend": 3334,
  "Ġcompass": 3335,
  "Ġaccident": 3336,
  "Ġshade": 3337,
  "hett": 3338,
  "aghett": 3339,
  "aghetti": 3340,
  "Ġdisappointed": 3341,
  "Ġlicked": 3342,
  "Ġcactus": 3343,
  "Ġpale": 3344,
  "Ġcush": 3345,
  "Ġfigure": 3346,
  "Ġgiving": 3347,
  "Ġregular": 3348,
  "Ġavoc": 3349,
  "Ġpro": 3350,
  "Ġsheet": 3351,
  "Ġwhispered": 3352,
  "aze": 3353,
  "uth": 3354,
  "ellig": 3355,
  "Ġcreate": 3356,
  "Ġbarber": 3357,
  "Ġintellig": 3358,
  "Ġpipe": 3359,
  "Ġrode": 3360,
  "Ġroof": 3361,
  "Jane": 3362,
  "Ġthread": 3363,
  "ither": 3364,
  "Ġload": 3365,
  "Ġvi": 3366,
  "Ġlibr": 3367,
  "Ġgifted": 3368,
  "ccol": 3369,
  "Ġpracticed": 3370,
  "Ġdelight": 3371,
  "ccoli": 3372,
  "Ġharsh": 3373,
  "Ġpow": 3374,
  "Ġdust": 3375,
  "asses": 3376,
  "ĠTrue": 3377,
  "Ġbicy": 3378,
  "azz": 3379,
  "Ġspaghetti": 3380,
  "Ġcompassion": 3381,
  "Ġsailed": 3382,
  "urkey": 3383,
  "ubby": 3384,
  "Ġforward": 3385,
  "Ġpersistent": 3386,
  "Ġspeed": 3387,
  "Ġmitten": 3388,
  "Ġcocoa": 3389,
  "Ġenvel": 3390,
  "Ġquestions": 3391,
  "Ġcomputer": 3392,
  "Ġcoo": 3393,
  "Ġfeathers": 3394,
  "hip": 3395,
  "Ġglove": 3396,
  "ging": 3397,
  "Bobo": 3398,
  "Ġrice": 3399,
  "Ġshrimp": 3400,
  "Ġdesk": 3401,
  "Ġstream": 3402,
  "Ġinse": 3403,
  "Ġpigeon": 3404,
  "Ġcharming": 3405,
  "Ġears": 3406,
  "Ġcarp": 3407,
  "lcan": 3408,
  "Ġraft": 3409,
  "Ġenvious": 3410,
  "Ġknot": 3411,
  "Ġturkey": 3412,
  "Ġstronger": 3413,
  "omes": 3414,
  "Ġcoins": 3415,
  "Ġtap": 3416,
  "lcano": 3417,
  "weet": 3418,
  "Ġtrap": 3419,
  "umbers": 3420,
  "Ġaeroplane": 3421,
  "Ġtrunk": 3422,
  "Ġwheat": 3423,
  "Ġboxes": 3424,
  "Ġchubby": 3425,
  "Ġcarpet": 3426,
  "Ġrestless": 3427,
  "Ġintelligent": 3428,
  "Ġtube": 3429,
  "Ġspun": 3430,
  "Ġdreams": 3431,
  "Ġfriendship": 3432,
  "ulif": 3433,
  "olin": 3434,
  "Ġhalf": 3435,
  "Ġloop": 3436,
  "Ġcrawl": 3437,
  "Ġbroccoli": 3438,
  "Ġonion": 3439,
  "Ġdeliver": 3440,
  "anger": 3441,
  "Ġacce": 3442,
  "Ġvide": 3443,
  "Ġvolcano": 3444,
  "ĠJake": 3445,
  "Ġsle": 3446,
  "Ġtrack": 3447,
  "Ġbri": 3448,
  "Ġcaulif": 3449,
  "Ġvine": 3450,
  "ye": 3451,
  "Ġticket": 3452,
  "Ġthief": 3453,
  "essie": 3454,
  "cycle": 3455,
  "Ġlouder": 3456,
  "Ġinsect": 3457,
  "Ġnumbers": 3458,
  "asing": 3459,
  "Ġyaw": 3460,
  "Ġhaircut": 3461,
  "ital": 3462,
  "Ġsleeping": 3463,
  "Ġmill": 3464,
  "Ġalert": 3465,
  "Ġeventually": 3466,
  "Ġexcite": 3467,
  "Ġpebble": 3468,
  "Ġhosp": 3469,
  "Ġattract": 3470,
  "Ġplanet": 3471,
  "ĠToday": 3472,
  "Ġuniver": 3473,
  "isted": 3474,
  "ulu": 3475,
  "Ġeraser": 3476,
  "Ġhospital": 3477,
  "Ġreturned": 3478,
  "Ġdestro": 3479,
  "Ġgraceful": 3480,
  "Ġhappening": 3481,
  "ache": 3482,
  "ĠOK": 3483,
  "ĠEmily": 3484,
  "Ġdecide": 3485,
  "Ġlearning": 3486,
  "Ġscreen": 3487,
  "rework": 3488,
  "Ġnicely": 3489,
  "Ġleop": 3490,
  "Ġcauliflower": 3491,
  "Ġcompetitive": 3492,
  "Ġpoem": 3493,
  "Ġcelebrate": 3494,
  "Ġcurt": 3495,
  "Ġpeach": 3496,
  "Ġsoldier": 3497,
  "Ġsaus": 3498,
  "Ġparade": 3499,
  "atient": 3500,
  "Ġattractive": 3501,
  "Ġcurtain": 3502,
  "Ġbase": 3503,
  "Ġdolphin": 3504,
  "Ġviolin": 3505,
  "Ġways": 3506,
  "Go": 3507,
  "ats": 3508,
  "Ġtravel": 3509,
  "ten": 3510,
  "Ġrod": 3511,
  "Ġignorant": 3512,
  "ulb": 3513,
  "Ġwheels": 3514,
  "Ġyach": 3515,
  "Ġscatter": 3516,
  "Ġdeter": 3517,
  "Ġcompassionate": 3518,
  "Ġbarrel": 3519,
  "Ġenvelope": 3520,
  "Ġbubble": 3521,
  "Ġlying": 3522,
  "Ġfirework": 3523,
  "Ġsort": 3524,
  "Ġquestion": 3525,
  "zzy": 3526,
  "ĠPipp": 3527,
  "Ġscooter": 3528,
  "Ġdeterm": 3529,
  "Ġrag": 3530,
  "Ġthu": 3531,
  "Ġbicycle": 3532,
  "elery": 3533,
  "Ġneedle": 3534,
  "ĠFr": 3535,
  "Ġjudge": 3536,
  "Ġbulb": 3537,
  "Ġleopard": 3538,
  "Ġtem": 3539,
  "Ġyacht": 3540,
  "Ġpony": 3541,
  "Ġcricket": 3542,
  "Ġorder": 3543,
  "Ġhomes": 3544,
  "Ġador": 3545,
  "tern": 3546,
  "Ġtruth": 3547,
  "Ġhook": 3548,
  "dom": 3549,
  "Ġrubbed": 3550,
  "ete": 3551,
  "igator": 3552,
  "Ġbushes": 3553,
  "Sarah": 3554,
  "Ġuncle": 3555,
  "Ġcushion": 3556,
  "Ġspell": 3557,
  "Ġgrown": 3558,
  "Ġcooked": 3559,
  "Ġadorable": 3560,
  "Ġchalk": 3561,
  "Ġsoar": 3562,
  "Ġpurse": 3563,
  "Ġskin": 3564,
  "Ġthemselves": 3565,
  "Ġimpatient": 3566,
  "Ġcelery": 3567,
  "Ġtray": 3568,
  "Ġshells": 3569,
  "Ġpengu": 3570,
  "Ġsniff": 3571,
  "Ġprun": 3572,
  "Ġwalls": 3573,
  "Ġseal": 3574,
  "Ġlively": 3575,
  "Ġcase": 3576,
  "Ġalligator": 3577,
  "Ġdistant": 3578,
  "Ġradish": 3579,
  "Ġsaying": 3580,
  "Ġspeak": 3581,
  "Ġmotorcycle": 3582,
  "Ġmeat": 3583,
  "Ġsend": 3584,
  "illa": 3585,
  "Ġspinning": 3586,
  "Ġforth": 3587,
  "Ġcounting": 3588,
  "Ġenth": 3589,
  "Ġbounced": 3590,
  "Ġchain": 3591,
  "Ġed": 3592,
  "Ġcleaning": 3593,
  "ebra": 3594,
  "Ġfilm": 3595,
  "Ġslept": 3596,
  "Ġpit": 3597,
  "Ġsurf": 3598,
  "Ġmarry": 3599,
  "usia": 3600,
  "Ġwallet": 3601,
  "Ġenthusia": 3602,
  "Ġmetal": 3603,
  "urb": 3604,
  "ebook": 3605,
  "Ġbin": 3606,
  "Ġweek": 3607,
  "Ġnotebook": 3608,
  "Ġskip": 3609,
  "Ġwiped": 3610,
  "ision": 3611,
  "chair": 3612,
  "Ġbiggest": 3613,
  "Ġimpro": 3614,
  "Ġavocado": 3615,
  "Ġbehave": 3616,
  "Ġdestroy": 3617,
  "vator": 3618,
  "Ġbandage": 3619,
  "Ġlaughs": 3620,
  "Ġsteak": 3621,
  "Ġpattern": 3622,
  "ĠSh": 3623,
  "Ġpost": 3624,
  "Ġelevator": 3625,
  "ĠBuzz": 3626,
  "usie": 3627,
  "Ġdive": 3628,
  "Ġshut": 3629,
  "Ġskipped": 3630,
  "Ġunlock": 3631,
  "Ġdiary": 3632,
  "dest": 3633,
  "ject": 3634,
  "Ġzebra": 3635,
  "Ġbags": 3636,
  "ating": 3637,
  "Ġarmchair": 3638,
  "aged": 3639,
  "rage": 3640,
  "Ġdisturb": 3641,
  "Ġoy": 3642,
  "Ġpole": 3643,
  "Ġshowing": 3644,
  "Ġclub": 3645,
  "Ġgathered": 3646,
  "Ġnurse": 3647,
  "bul": 3648,
  "Ġearth": 3649,
  "Ġenc": 3650,
  "Ġstranger": 3651,
  "Ġsweater": 3652,
  "Ġjellyfish": 3653,
  "Ġscrew": 3654,
  "Ġtemp": 3655,
  "ĠPoppy": 3656,
  "Ġcompl": 3657,
  "Ġmixer": 3658,
  "Give": 3659,
  "Ġskull": 3660,
  "Ġlime": 3661,
  "Ġbump": 3662,
  "bulance": 3663,
  "Ġambulance": 3664,
  "nam": 3665,
  "Ġfather": 3666,
  "Ġjournal": 3667,
  "Gra": 3668,
  "Ġloudly": 3669,
  "ito": 3670,
  "Ġfolder": 3671,
  "ĠBet": 3672,
  "Ġshield": 3673,
  "ĠLulu": 3674,
  "ĠPeter": 3675,
  "Ġlibrary": 3676,
  "Ġbuttons": 3677,
  "Ġplayground": 3678,
  "Ġtrucks": 3679,
  "Ġink": 3680,
  "Ġlights": 3681,
  "Ġtummy": 3682,
  "Ġpointing": 3683,
  "Ġcity": 3684,
  "Ġdecorate": 3685,
  "Ġstation": 3686,
  "irit": 3687,
  "Ġprep": 3688,
  "Ġfalls": 3689,
  "quito": 3690,
  "ĠPolly": 3691,
  "Billy": 3692,
  "Ġfu": 3693,
  "ĠFo": 3694,
  "ention": 3695,
  "nger": 3696,
  "ĠBirdy": 3697,
  "lies": 3698,
  "Ġherb": 3699,
  "Ġornam": 3700,
  "Ġornament": 3701,
  "Ġmodest": 3702,
  "Ġguard": 3703,
  "Ġmos": 3704,
  "Ġknows": 3705,
  "Ġcord": 3706,
  "Ġpolish": 3707,
  "Ġmarble": 3708,
  "oby": 3709,
  "Ġmosquito": 3710,
  "umbled": 3711,
  "Ġsalt": 3712,
  "Ġattic": 3713,
  "Ġvest": 3714,
  "Ġwhenever": 3715,
  "ctop": 3716,
  "Ġresc": 3717,
  "Ġyet": 3718,
  "Ġple": 3719,
  "Ġdisappeared": 3720,
  "ceed": 3721,
  "Ġstrawberry": 3722,
  "Ġonce": 3723,
  "ĠMum": 3724,
  "Ġkay": 3725,
  "Ġbrothers": 3726,
  "Ġitch": 3727,
  "Ġpirate": 3728,
  "Ġfootball": 3729,
  "Ġsplit": 3730,
  "kele": 3731,
  "keleton": 3732,
  "Ġhipp": 3733,
  "Ġaut": 3734,
  "Ġled": 3735,
  "uring": 3736,
  "ctopus": 3737,
  "Ġdriving": 3738,
  "Ġcable": 3739,
  "Ġsupport": 3740,
  "Ġcalling": 3741,
  "Ġcupboard": 3742,
  "aky": 3743,
  "ushed": 3744,
  "Ġwishes": 3745,
  "Ġcomplet": 3746,
  "Ġtripped": 3747,
  "Ġroot": 3748,
  "Ġkayak": 3749,
  "Ġoctopus": 3750,
  "obile": 3751,
  "Ġadded": 3752,
  "Ġedge": 3753,
  "Ġmild": 3754,
  "stic": 3755,
  "Ġdetermined": 3756,
  "Ġsucceed": 3757,
  "?\".": 3758,
  "Ġreading": 3759,
  "Ġcoal": 3760,
  "omobile": 3761,
  "Well": 3762,
  "gl": 3763,
  "utes": 3764,
  "par": 3765,
  "Ġsuggest": 3766,
  "Ġstack": 3767,
  "Ġthunder": 3768,
  "Ġkindness": 3769,
  "Ġautomobile": 3770,
  "Ġcomplain": 3771,
  "Ġenthusiastic": 3772,
  "Ġsneeze": 3773,
  "Ġcartoon": 3774,
  "Ġyoga": 3775,
  "ĠLittle": 3776,
  "Ġgrowl": 3777,
  "htub": 3778,
  "Ġflea": 3779,
  "la": 3780,
  "Ġmeadow": 3781,
  "Ġdrawer": 3782,
  "Ġbathtub": 3783,
  "Ġribb": 3784,
  "ophone": 3785,
  "Ġhall": 3786,
  "Ġgolf": 3787,
  "Ġmeans": 3788,
  "Ġskeleton": 3789,
  "Ġmath": 3790,
  "Ġveil": 3791,
  "Ġhunter": 3792,
  "Ġgor": 3793,
  "Ġflame": 3794,
  "Ġpoke": 3795,
  "Ġvideo": 3796,
  "Ġchess": 3797,
  "Ġcups": 3798,
  "Ġtroph": 3799,
  "Ġglowing": 3800,
  "Ġmatt": 3801,
  "Ġoyster": 3802,
  "work": 3803,
  "Ġpenny": 3804,
  "Ġspear": 3805,
  "Ġitself": 3806,
  "Ġdrawings": 3807,
  "Ġhippo": 3808,
  "Ġrepair": 3809,
  "Ġswitch": 3810,
  "glasses": 3811,
  "Ġsunglasses": 3812,
  "Ġteleph": 3813,
  "Ġcostume": 3814,
  "Ġdess": 3815,
  "Ġzipp": 3816,
  ",âĢĿ": 3817,
  "Ġrepe": 3818,
  "Ġmuffin": 3819,
  "Ġarg": 3820,
  "Ġpastry": 3821,
  "Ġpun": 3822,
  "Ġrolling": 3823,
  "Ġminutes": 3824,
  "Ġpacked": 3825,
  "Ġmakeup": 3826,
  "iron": 3827,
  "ric": 3828,
  "ĠPeople": 3829,
  "Ġwaffle": 3830,
  "case": 3831,
  "Ġhandle": 3832,
  "Ġpear": 3833,
  "Ġmaze": 3834,
  "Ġtelephone": 3835,
  "Ġpine": 3836,
  "ait": 3837,
  "Ġgear": 3838,
  "Ġhedge": 3839,
  "Ġmattress": 3840,
  "Ġpackage": 3841,
  "aving": 3842,
  "ĠMiss": 3843,
  "Ġshocked": 3844,
  "ines": 3845,
  "Ġtrophy": 3846,
  "Ġpowder": 3847,
  "Ġknight": 3848,
  "Ġcob": 3849,
  "Ġmissile": 3850,
  "Ġframe": 3851,
  "Ġmanaged": 3852,
  "Ġencou": 3853,
  "Ġwife": 3854,
  "Ġok": 3855,
  "Ġsepar": 3856,
  "web": 3857,
  "Ġstairs": 3858,
  "Ġrot": 3859,
  "Ġcamp": 3860,
  "urch": 3861,
  "rophone": 3862,
  "Ġmagaz": 3863,
  "Ġcolour": 3864,
  "Ġstrugg": 3865,
  "Ġgrapes": 3866,
  "time": 3867,
  "Ġfile": 3868,
  "head": 3869,
  "ĠTina": 3870,
  "Ġbasketball": 3871,
  "Bye": 3872,
  "old": 3873,
  "per": 3874,
  "Ġcobweb": 3875,
  "Re": 3876,
  "Jimmy": 3877,
  "ĠTweet": 3878,
  "See": 3879,
  "Ġperm": 3880,
  "Ġwool": 3881,
  "ĠDan": 3882,
  "Ġmicrophone": 3883,
  "esday": 3884,
  "Ġeye": 3885,
  "Ġleash": 3886,
  "Ġgasp": 3887,
  "iew": 3888,
  "keep": 3889,
  "Ġweep": 3890,
  "Ġbarking": 3891,
  "ature": 3892,
  "Ġsafely": 3893,
  "Ġtear": 3894,
  "Ġview": 3895,
  "ffe": 3896,
  "Ġslides": 3897,
  "Ġsteps": 3898,
  "istol": 3899,
  "ffee": 3900,
  "Ġbananas": 3901,
  "Ġstaff": 3902,
  "Ġspirit": 3903,
  "Ġtask": 3904,
  "Ġgiggled": 3905,
  "Ġhoc": 3906,
  "Ġhockey": 3907,
  "Ġvend": 3908,
  "Ġthose": 3909,
  "Ġgorilla": 3910,
  "Jill": 3911,
  "Ġcooler": 3912,
  "ĠRose": 3913,
  "was": 3914,
  "cing": 3915,
  "Ġearly": 3916,
  "Ġmarched": 3917,
  "rosc": 3918,
  "Ġmint": 3919,
  "ĠLook": 3920,
  "washer": 3921,
  "Ġflour": 3922,
  "Ġhotel": 3923,
  "hic": 3924,
  "Ġsailor": 3925,
  "Ġdessert": 3926,
  "Ġphoto": 3927,
  "roscope": 3928,
  "Ġvehic": 3929,
  "ilot": 3930,
  "Ġoften": 3931,
  "Ġchurch": 3932,
  "ĠPete": 3933,
  "Ġcooking": 3934,
  "Ġremain": 3935,
  "Ġfive": 3936,
  "Ġsausage": 3937,
  "otter": 3938,
  "Ġten": 3939,
  "Ġtools": 3940,
  "Ġmedal": 3941,
  "Ġeither": 3942,
  "Ġfireman": 3943,
  "chor": 3944,
  "Ġgrandpa": 3945,
  "Ġotter": 3946,
  "Ġbaseball": 3947,
  "Ġpretending": 3948,
  "Ġpistol": 3949,
  "Ġdishwasher": 3950,
  "Ġrever": 3951,
  "Ġorganize": 3952,
  "Ġpee": 3953,
  "Ġvendor": 3954,
  "Ġknock": 3955,
  "Ġsight": 3956,
  "Ġgrill": 3957,
  "Ġtemple": 3958,
  "Ġbattery": 3959,
  "Ġthinking": 3960,
  "Ġopens": 3961,
  "Ġow": 3962,
  "Ġrealised": 3963,
  "Ġiron": 3964,
  "Ġlaser": 3965,
  "Ġsne": 3966,
  "Ġoil": 3967,
  "Ġsandbox": 3968,
  "Ġpatch": 3969,
  "Ġhours": 3970,
  "Ġrise": 3971,
  "Ġwhip": 3972,
  "'d": 3973,
  "ctory": 3974,
  "ĠGive": 3975,
  "Ġanchor": 3976,
  "Ġtrash": 3977,
  "ense": 3978,
  "Ġshort": 3979,
  "ney": 3980,
  "ĠBetty": 3981,
  "Ġrhin": 3982,
  "Ġfactory": 3983,
  "seum": 3984,
  "Ġmay": 3985,
  "Ġward": 3986,
  "ately": 3987,
  "Ġcardboard": 3988,
  "ugged": 3989,
  "Ġlotion": 3990,
  "Al": 3991,
  "Ġmessage": 3992,
  "Ġvalu": 3993,
  "Ġwardrobe": 3994,
  "Ġcell": 3995,
  "Ġmuseum": 3996,
  "apers": 3997,
  "Ġur": 3998,
  "ination": 3999,
  "Ġhanging": 4000,
  "ucet": 4001,
  "ailable": 4002,
  "ĠSunny": 4003,
  "ĠZoom": 4004,
  "Ġhive": 4005,
  "eer": 4006,
  "Ġtowers": 4007,
  "keeper": 4008,
  "Ġblackboard": 4009,
  "Ġmem": 4010,
  "Ġexcitement": 4011,
  "Ġcoffee": 4012,
  "Ġpilot": 4013,
  "ready": 4014,
  "Fluffy": 4015,
  "Ġnapkin": 4016,
  "Ġpenguin": 4017,
  "ron": 4018,
  "Ġcheck": 4019,
  "Ġreward": 4020,
  "loo": 4021,
  "Ġquit": 4022,
  "ĠPippin": 4023,
  "Ġcane": 4024,
  "Ġpicking": 4025,
  "place": 4026,
  "ĠSnow": 4027,
  "azor": 4028,
  "Ġig": 4029,
  "Ġfaucet": 4030,
  "Ġpassport": 4031,
  "ĠRob": 4032,
  "Ġstumbled": 4033,
  "Ġdreamed": 4034,
  "ĠBessie": 4035,
  "Ġigloo": 4036,
  "aroo": 4037,
  "angaroo": 4038,
  "Ġfreez": 4039,
  "Ġjuicy": 4040,
  "Ġallowed": 4041,
  "play": 4042,
  "Ġholds": 4043,
  "Ġalready": 4044,
  "Ġavailable": 4045,
  "Ġsett": 4046,
  "Ġbathe": 4047,
  "Ġtornado": 4048,
  "imney": 4049,
  "Ġfingers": 4050,
  "htray": 4051,
  "Ġhanger": 4052,
  "Ġnewsp": 4053,
  "Ġsize": 4054,
  "Ġlaund": 4055,
  "Ġlend": 4056,
  "Ġchimney": 4057,
  "Ġlaundry": 4058,
  "Ġoak": 4059,
  "Ġfisher": 4060,
  "Ġkangaroo": 4061,
  "Ġmen": 4062,
  "ĠEverywhere": 4063,
  "Ġtelling": 4064,
  "Em": 4065,
  "Ġnovel": 4066,
  "body": 4067,
  "Ġmummy": 4068,
  "Ġpal": 4069,
  "Ġmule": 4070,
  "Ġcherries": 4071,
  "Ġnotice": 4072,
  "Ġpractice": 4073,
  "Ġspilled": 4074,
  "Ġreind": 4075,
  "Ġcomplete": 4076,
  "Ġenjoying": 4077,
  "Ġmicroscope": 4078,
  "arian": 4079,
  "Ġgain": 4080,
  "ampoo": 4081,
  "Ġsub": 4082,
  "Ġfireplace": 4083,
  "Ġimagine": 4084,
  "anda": 4085,
  "Ġdisplay": 4086,
  "ocer": 4087,
  "ĠZip": 4088,
  "Ġfastest": 4089,
  "Ġmagazine": 4090,
  "Ġhurry": 4091,
  "Ġcabinet": 4092,
  "Ġshrink": 4093,
  "Ġashtray": 4094,
  "Wait": 4095,
  "Ġcows": 4096,
  "ĠSpike": 4097,
  "Joe": 4098,
  "gen": 4099,
  "Ġpalace": 4100,
  "Ġimprove": 4101,
  "aches": 4102,
  "Ġrake": 4103,
  "Ġreindeer": 4104,
  "Ġfalling": 4105,
  "oceros": 4106,
  "Ġskirt": 4107,
  "ured": 4108,
  "Ġdiscovered": 4109,
  "Ġstared": 4110,
  "Ġroared": 4111,
  "aid": 4112,
  "Ġsilver": 4113,
  "Ġtub": 4114,
  "Ġtrail": 4115,
  "Is": 4116,
  "Ġminer": 4117,
  "come": 4118,
  "Ġbill": 4119,
  "Ġfog": 4120,
  "iction": 4121,
  "Ġax": 4122,
  "stairs": 4123,
  "Ġhut": 4124,
  "ilet": 4125,
  "Ġhappier": 4126,
  "Ġtaller": 4127,
  "ictionary": 4128,
  "Ġoats": 4129,
  "Ġfisherman": 4130,
  "Ġobject": 4131,
  "Ġpor": 4132,
  "vision": 4133,
  "Ġvaluable": 4134,
  "Ġshampoo": 4135,
  "Ġholes": 4136,
  "Ġoffered": 4137,
  "Ġboots": 4138,
  "Ġrhinoceros": 4139,
  "Ġnames": 4140,
  "Ġtoilet": 4141,
  "Ġclimbing": 4142,
  "Ġblin": 4143,
  "vice": 4144,
  "Ow": 4145,
  "Ġstretched": 4146,
  "iest": 4147,
  "Ġzipper": 4148,
  "Ġlistening": 4149,
  "Ġbathrobe": 4150,
  "Ġsym": 4151,
  "alend": 4152,
  "Ġjewelry": 4153,
  "ĠHere": 4154,
  "Ġjokes": 4155,
  "Ġtelevision": 4156,
  "Ġprov": 4157,
  "Ġcalend": 4158,
  "Ġstops": 4159,
  "Ġaxe": 4160,
  "Ġjumps": 4161,
  "Ġfuel": 4162,
  "cu": 4163,
  "Ġsparkly": 4164,
  "Ġperfume": 4165,
  "ĠSusie": 4166,
  "Ġbury": 4167,
  "bol": 4168,
  "Mummy": 4169,
  "lu": 4170,
  "Ġpressed": 4171,
  "ĠKim": 4172,
  "reek": 4173,
  "Ġrece": 4174,
  "fa": 4175,
  "ĠToby": 4176,
  "Ġneat": 4177,
  "Ġcreek": 4178,
  "Ġpopped": 4179,
  "Ġopera": 4180,
  "Ġcalendar": 4181,
  "Ġsnap": 4182,
  "Ġattach": 4183,
  "Ġgasped": 4184,
  "Ġsymbol": 4185,
  "Ġtuna": 4186,
  "ĠMar": 4187,
  "Ġpapers": 4188,
  "Mr": 4189,
  "Ġunpack": 4190,
  "Ġresist": 4191,
  "Ġdictionary": 4192,
  "Ġsubway": 4193,
  "Ġletters": 4194,
  "Ġfreezer": 4195,
  "Ġchose": 4196,
  "Ġpinch": 4197,
  "zag": 4198,
  "Ġspoke": 4199,
  "Ġanyway": 4200,
  "Ġsuper": 4201,
  "Ġhelper": 4202,
  "Ġporch": 4203,
  "affe": 4204,
  "Ġbikes": 4205,
  "Ġlie": 4206,
  "arry": 4207,
  "iches": 4208,
  "Ġtightly": 4209,
  "Ġcomfort": 4210,
  "Ġshaking": 4211,
  "Ġbookcase": 4212,
  "Ġson": 4213,
  "Ġrazor": 4214,
  "aurant": 4215,
  "ĠAre": 4216,
  "Ġsandwiches": 4217,
  "igzag": 4218,
  "Ġweigh": 4219,
  "Ġagainst": 4220,
  "Ġstickers": 4221,
  "Ġrestaurant": 4222,
  "Ġnewspaper": 4223,
  "Ġblouse": 4224,
  "Ġvehicle": 4225,
  "Ġswinging": 4226,
  "Ġped": 4227,
  "Ġdisag": 4228,
  "Ġnature": 4229,
  "Ġsquirrels": 4230,
  "Ġbelongs": 4231,
  "ival": 4232,
  "Ġswamp": 4233,
  "Ġbutterflies": 4234,
  "Ġgym": 4235,
  "del": 4236,
  "Ġinclu": 4237,
  "Ġgrowing": 4238,
  "Ġbuckle": 4239,
  "omed": 4240,
  "Ġstirred": 4241,
  "Ġmustache": 4242,
  "Ġbillboard": 4243,
  "xy": 4244,
  "Ġbeep": 4245,
  "te": 4246,
  "Ġalarm": 4247,
  "Ġlip": 4248,
  "Ġfest": 4249,
  "Ġlightning": 4250,
  "Ġhung": 4251,
  "utor": 4252,
  "Ġdistance": 4253,
  "ogn": 4254,
  "Ġcards": 4255,
  "Ġobser": 4256,
  "Ġagree": 4257,
  "Little": 4258,
  "Ġext": 4259,
  "Ġtease": 4260,
  "Ġrecogn": 4261,
  "Ġrubber": 4262,
  "ik": 4263,
  "Ġhate": 4264,
  "fast": 4265,
  "ef": 4266,
  "Ouch": 4267,
  "Ġdoesn": 4268,
  "Ġmusician": 4269,
  "Ġadvice": 4270,
  "Ġbeef": 4271,
  "Ġserve": 4272,
  "aspoon": 4273,
  "Ġsweetie": 4274,
  "Ġmodel": 4275,
  "lter": 4276,
  "Ġcrib": 4277,
  "Ġblueberries": 4278,
  "Ġsofa": 4279,
  "Ġcircles": 4280,
  "Ġbreakfast": 4281,
  "Ġtutor": 4282,
  "asis": 4283,
  "Ġbookshe": 4284,
  "Ġgiraffe": 4285,
  "stri": 4286,
  "Ġfestival": 4287,
  "Ġseparate": 4288,
  "Ġshelter": 4289,
  "Ġgas": 4290,
  "Ġairport": 4291,
  "Ġolive": 4292,
  "Ġrail": 4293,
  "Ġbookshelf": 4294,
  "Ġfrogs": 4295,
  "Ġteaspoon": 4296,
  "Ġreverse": 4297,
  "Ġjunk": 4298,
  "Ġriding": 4299,
  "Ġpleased": 4300,
  "Ġdrain": 4301,
  "ĠMrs": 4302,
  "Ġwipe": 4303,
  "Ġoasis": 4304,
  "Ġsoil": 4305,
  "Ġahead": 4306,
  "Ġrescue": 4307,
  "Ġleaving": 4308,
  "ummer": 4309,
  "Ġpainter": 4310,
  "Ġchance": 4311,
  "Ġsqueeze": 4312,
  "Ġknob": 4313,
  "Ġpoked": 4314,
  "ĠTeddy": 4315,
  "Ġpeeked": 4316,
  "Ġlumber": 4317,
  "Ġtrains": 4318,
  "Ġextra": 4319,
  "Ġslipp": 4320,
  "Ġquiz": 4321,
  "Ġrefused": 4322,
  "res": 4323,
  "rmomet": 4324,
  "Ġpage": 4325,
  "Ġrules": 4326,
  "Ġhappens": 4327,
  "Ġins": 4328,
  "Ġsounded": 4329,
  "Ġpoint": 4330,
  "Ġwinter": 4331,
  "Ġdancer": 4332,
  "ĠGrandpa": 4333,
  "Ġbirdc": 4334,
  "Ġdisappear": 4335,
  "rmometer": 4336,
  "ĠDolly": 4337,
  "Ġweather": 4338,
  "Ġwaste": 4339,
  "Ġlic": 4340,
  "Ġbirdcage": 4341,
  "Ġtheater": 4342,
  "Ġreef": 4343,
  "Ġcarrying": 4344,
  "Daisy": 4345,
  "Ġinvite": 4346,
  "iform": 4347,
  "Ġgoal": 4348,
  "Ġostri": 4349,
  "Ġswung": 4350,
  "Ġuniform": 4351,
  "Ġtrade": 4352,
  "Ġcliff": 4353,
  "ience": 4354,
  "Ġlawn": 4355,
  "ĠPandy": 4356,
  "ola": 4357,
  "Ġleaned": 4358,
  "angu": 4359,
  "Ġaccept": 4360,
  "Ġadmire": 4361,
  "Ġfort": 4362,
  "Ġaccidentally": 4363,
  "Ġpastel": 4364,
  "bbles": 4365,
  "Ġstom": 4366,
  "Ġlangu": 4367,
  "Ġtwir": 4368,
  "Ġsuff": 4369,
  "Ġpanda": 4370,
  "Ġbet": 4371,
  "riger": 4372,
  "rigerator": 4373,
  "Ġpeek": 4374,
  "render": 4375,
  "Ġblinked": 4376,
  "Ġstarts": 4377,
  "na": 4378,
  "Ġrefrigerator": 4379,
  "Ġanywhere": 4380,
  "!\".": 4381,
  "Ġimagined": 4382,
  "Ġdreaming": 4383,
  "Ġremove": 4384,
  "night": 4385,
  "Ġshower": 4386,
  "ĠLee": 4387,
  "ĠCo": 4388,
  "Ġceiling": 4389,
  "Ġclassroom": 4390,
  "Ġcaring": 4391,
  "ium": 4392,
  "Ġgrand": 4393,
  "Ġmissing": 4394,
  "aked": 4395,
  "Ġlicense": 4396,
  "Ġstable": 4397,
  "Ġmonkeys": 4398,
  "Ġthermometer": 4399,
  "astic": 4400,
  "Ġwarned": 4401,
  "ĠWhere": 4402,
  "Ġsummer": 4403,
  "Ġabove": 4404,
  "Ġbrick": 4405,
  "ected": 4406,
  "Ġcudd": 4407,
  "Ġproblems": 4408,
  "amber": 4409,
  "Ġchasing": 4410,
  "Ġlabel": 4411,
  "Ġapron": 4412,
  "Ġsent": 4413,
  "iture": 4414,
  "Ġlawy": 4415,
  "urniture": 4416,
  "Ġlid": 4417,
  "uggage": 4418,
  "med": 4419,
  "Ġrespectful": 4420,
  "Ġfurniture": 4421,
  "Ġfrowned": 4422,
  "Ġzoomed": 4423,
  "Ġpages": 4424,
  "Ġprevent": 4425,
  "Ġbent": 4426,
  "Ġluggage": 4427,
  "Ġmistakes": 4428,
  "Ġsunset": 4429,
  "Ġostrich": 4430,
  "ison": 4431,
  "Ġsuggested": 4432,
  "Ġwindows": 4433,
  "ations": 4434,
  "Ġjail": 4435,
  "low": 4436,
  "Ġwine": 4437,
  "Ġribbon": 4438,
  "Ġolder": 4439,
  "Ġshouts": 4440,
  "Ġgrape": 4441,
  "ĠCl": 4442,
  "Ġwigg": 4443,
  "ucture": 4444,
  "Ġstructure": 4445,
  "Ġspoil": 4446,
  "eor": 4447,
  "Ġfixing": 4448,
  "Ġchamber": 4449,
  "Ġlions": 4450,
  "Ġdelay": 4451,
  "Ġfinds": 4452,
  "Ġhanded": 4453,
  "Ġsearching": 4454,
  "Ġunite": 4455,
  "Did": 4456,
  "Ġfought": 4457,
  "Ġlawyer": 4458,
  "Ġbrightly": 4459,
  "Ġpair": 4460,
  "Ġmeeting": 4461,
  "Ġchoice": 4462,
  "Ġsurprises": 4463,
  "ĠEllie": 4464,
  "Ġart": 4465,
  "ĠUn": 4466,
  "Ch": 4467,
  "Ġfavour": 4468,
  "eterin": 4469,
  "adium": 4470,
  "eterinarian": 4471,
  "Ġstadium": 4472,
  "Ġproudly": 4473,
  "iki": 4474,
  "Ġveterinarian": 4475,
  "vet": 4476,
  "rod": 4477,
  "Ġchairs": 4478,
  "Ġslip": 4479,
  "ĠSpe": 4480,
  "Ġsadly": 4481,
  "ĠBow": 4482,
  "Ġincre": 4483,
  "ĠCarl": 4484,
  "Ġpuddles": 4485,
  "Ġberry": 4486,
  "Ġintrod": 4487,
  "Ġranch": 4488,
  "veal": 4489,
  "ĠBoun": 4490,
  "Ġargue": 4491,
  "ĠV": 4492,
  "Ġadmired": 4493,
  "Ġcur": 4494,
  "Ġfavourite": 4495,
  "Your": 4496,
  "Ġinf": 4497,
  "Ġexcitedly": 4498,
  "Ġrac": 4499,
  "Ġgrabs": 4500,
  "mend": 4501,
  "Ġsteam": 4502,
  "thank": 4503,
  "Ġhuman": 4504,
  "eorge": 4505,
  "sity": 4506,
  "ĠHel": 4507,
  "Ġpushing": 4508,
  "Ġsaving": 4509,
  "ĠRed": 4510,
  "Ġreveal": 4511,
  "Ġyield": 4512,
  "alley": 4513,
  "ommend": 4514,
  "olog": 4515,
  "Ġmall": 4516,
  "Ġreminded": 4517,
  "Ġrecommend": 4518,
  "Ġleak": 4519,
  "Ġsurrender": 4520,
  "Ġharb": 4521,
  "Ġappl": 4522,
  "cuss": 4523,
  "aul": 4524,
  "Ġweap": 4525,
  "Ġregret": 4526,
  "Ġputting": 4527,
  "Ġvalley": 4528,
  "Ġmineral": 4529,
  "Ġevening": 4530,
  "Ġforgave": 4531,
  "Ġmatches": 4532,
  "elcome": 4533,
  "Ġsneezed": 4534,
  "Ġaw": 4535,
  "Ġpup": 4536,
  "Ġrushed": 4537,
  "ecause": 4538,
  "Ġspade": 4539,
  "Ġapolog": 4540,
  "Ġplates": 4541,
  "Ġdiscuss": 4542,
  "Ġprepare": 4543,
  "Ġharbor": 4544,
  "Ġignore": 4545,
  "ĠBig": 4546,
  "Ġcountry": 4547,
  "Ġlanguage": 4548,
  "ĠBuzzy": 4549,
  "Ġpulls": 4550,
  "Ġplastic": 4551,
  "Ġsupply": 4552,
  "Ġfloat": 4553,
  "Ġsniffed": 4554,
  "ĠJazz": 4555,
  "Ġreplace": 4556,
  "Ġmeas": 4557,
  "Ġshovel": 4558,
  "ĠBill": 4559,
  "Ġraise": 4560,
  "ĠNext": 4561,
  "Ġfre": 4562,
  "Ġcared": 4563,
  "Ġsocks": 4564,
  "Ġstrip": 4565,
  "Ġdoors": 4566,
  "Ġmystery": 4567,
  "Ġlives": 4568,
  "Ġrestore": 4569,
  "Ġsticker": 4570,
  "Ġsudden": 4571,
  "ari": 4572,
  "Ġkinds": 4573,
  "Ġslippery": 4574,
  "ero": 4575,
  "ĠOw": 4576,
  "Ġplayer": 4577,
  "Ġpanic": 4578,
  "Ġhoping": 4579,
  "ricane": 4580,
  "iday": 4581,
  "Ġshone": 4582,
  "lex": 4583,
  "hero": 4584,
  "Ġbeg": 4585,
  "ĠMike": 4586,
  "ĠBinky": 4587,
  "Ġsuperhero": 4588,
  "Ġdelighted": 4589,
  "Ġgro": 4590,
  "Yay": 4591,
  "aud": 4592,
  "chan": 4593,
  "Ġchickens": 4594,
  "Ġshoulder": 4595,
  "Ġrained": 4596,
  "Ġcolourful": 4597,
  "Ġbreat": 4598,
  "ĠAlice": 4599,
  "Ġclaw": 4600,
  "ĠBubbles": 4601,
  "Yuck": 4602,
  "Ġsoftly": 4603,
  "rise": 4604,
  "Ġport": 4605,
  "Ġhol": 4606,
  "Grandma": 4607,
  "icer": 4608,
  "Ġholiday": 4609,
  "ĠâĢ": 4610,
  "Ġbarks": 4611,
  "ason": 4612,
  "Ġthrowing": 4613,
  "Ġplanes": 4614,
  "Mary": 4615,
  "Ġbend": 4616,
  "ĠFreddy": 4617,
  "Ġshakes": 4618,
  "Ġended": 4619,
  "Ġinfant": 4620,
  "Ġshivering": 4621,
  "Ġkneel": 4622,
  "Ġsunrise": 4623,
  "Ġpushes": 4624,
  "ĠOlive": 4625,
  "Ġthanks": 4626,
  "Ġfresh": 4627,
  "Ġsuffer": 4628,
  "Ġpoints": 4629,
  "imed": 4630,
  "wards": 4631,
  "ĠPat": 4632,
  "Ġtip": 4633,
  "ĠSpeedy": 4634,
  "Ġfreeze": 4635,
  "Ġkeeping": 4636,
  "ĠWould": 4637,
  "Ġcopper": 4638,
  "Ġgiggle": 4639,
  "Ġsmells": 4640,
  "Ġdear": 4641,
  "Ġenter": 4642,
  "Ġprovide": 4643,
  "cast": 4644,
  "chanic": 4645,
  "Ġdishes": 4646,
  "ĠEnd": 4647,
  "cond": 4648,
  "Ġunh": 4649,
  "Next": 4650,
  "Ġapplaud": 4651,
  "Ġheads": 4652,
  "Ġhurricane": 4653,
  "Ġcherry": 4654,
  "Ġmass": 4655,
  "Ġthumb": 4656,
  "Ġmeowed": 4657,
  "Ġmenu": 4658,
  "Ġsecond": 4659,
  "Ġbrighter": 4660,
  "ince": 4661,
  "Ġsandcast": 4662,
  "Ġmechanic": 4663,
  "Ġwre": 4664,
  "Ġsprayed": 4665,
  "Ġevent": 4666,
  "Ġletting": 4667,
  "Ġweapon": 4668,
  "Ġlaught": 4669,
  "Ġx": 4670,
  "Ġlaughter": 4671,
  "Ġclapping": 4672,
  "Ġfeelings": 4673,
  "Will": 4674,
  "icky": 4675,
  "Ġsplashing": 4676,
  "ement": 4677,
  "ĠOr": 4678,
  "acked": 4679,
  "Ġcastles": 4680,
  "ĠFl": 4681,
  "cer": 4682,
  "Ġscore": 4683,
  "apping": 4684,
  "Ġuniverse": 4685,
  "Ġnavy": 4686,
  "Ġdem": 4687,
  "Ġsticky": 4688,
  "ophie": 4689,
  "Ġrow": 4690,
  "Ġrooms": 4691,
  "Ġflies": 4692,
  "igi": 4693,
  "ĠDave": 4694,
  "Ġunhappy": 4695,
  "Ġgreedy": 4696,
  "Ġdare": 4697,
  "Ġalive": 4698,
  "Ġbreaks": 4699,
  "Ġener": 4700,
  "Ġcourage": 4701,
  "Ġinvit": 4702,
  "Ready": 4703,
  "Ġrepeat": 4704,
  "Ġdemand": 4705,
  "Ġtrusted": 4706,
  "Lisa": 4707,
  "Ġsomewhere": 4708,
  "arlie": 4709,
  "Ġprune": 4710,
  "bles": 4711,
  "Ġwreck": 4712,
  "ĠY": 4713,
  "Ġskill": 4714,
  "Ġexamine": 4715,
  "Ġparts": 4716,
  "year": 4717,
  "Ġeaten": 4718,
  "oe": 4719,
  "All": 4720,
  "erc": 4721,
  "enry": 4722,
  "Ġmention": 4723,
  "Ġraining": 4724,
  "ĠHelp": 4725,
  "Buddy": 4726,
  "Ġthrows": 4727,
  "Ġjogged": 4728,
  "quest": 4729,
  "Ġstarting": 4730,
  "Ġrush": 4731,
  "Ġpoison": 4732,
  "Ġpirates": 4733,
  "heart": 4734,
  "Ġvac": 4735,
  "Ġcontent": 4736,
  "Emma": 4737,
  "ĠKiki": 4738,
  "Ġsigh": 4739,
  "Ġflapped": 4740,
  "Ġdrops": 4741,
  "Ġchirp": 4742,
  "Ġsport": 4743,
  "Qu": 4744,
  "Ġsparkled": 4745,
  "ĠZoomy": 4746,
  "Ġgiven": 4747,
  "Ġstreng": 4748,
  "Ġsteel": 4749,
  "Ann": 4750,
  "Ġbumped": 4751,
  "Ġyawned": 4752,
  "Ġstud": 4753,
  "Ġrequest": 4754,
  "Ġscold": 4755,
  "Ġmyself": 4756,
  "Ġstrength": 4757,
  "Ġshrugged": 4758,
  "Mark": 4759,
  "Ġcoats": 4760,
  "Ġpunish": 4761,
  "Ġequ": 4762,
  "Ġsnugg": 4763,
  "Ġuniversity": 4764,
  "Ġpaid": 4765,
  "ĠJohnny": 4766,
  "Ġpigs": 4767,
  "Ġscratch": 4768,
  "Ġtoe": 4769,
  "Ġexerc": 4770,
  "Ġtracks": 4771,
  "Ġupstairs": 4772,
  "Ġprayed": 4773,
  "Ġcrossed": 4774,
  "Ġsqueezed": 4775,
  "Ġflood": 4776,
  "Ġimpressed": 4777,
  "Ġbouncing": 4778,
  "ĠRu": 4779,
  "Alice": 4780,
  "Ġrabbits": 4781,
  "ges": 4782,
  "Ġbadly": 4783,
  "..": 4784,
  "Ġleather": 4785,
  "Ġwarn": 4786,
  "Ġexpect": 4787,
  "Ġnews": 4788,
  "Ġtide": 4789,
  "ĠTed": 4790,
  "Ġminute": 4791,
  "Ġbears": 4792,
  "Ġclaws": 4793,
  "Ġbuzz": 4794,
  "Ġsweetheart": 4795,
  "ĠSm": 4796,
  "yth": 4797,
  "Ġnation": 4798,
  "Sh": 4799,
  "ythm": 4800,
  "Ġhist": 4801,
  "Ġvacation": 4802,
  "Ġheat": 4803,
  "Ġstrawberries": 4804,
  "Ġobserve": 4805,
  "Ġexplored": 4806,
  "Ġsettle": 4807,
  "Ġsandcastle": 4808,
  "Ġyawn": 4809,
  "Ġhistory": 4810,
  "ĠLilly": 4811,
  "ĠLola": 4812,
  "mare": 4813,
  "ĠMummy": 4814,
  "ĠSque": 4815,
  "ially": 4816,
  "inking": 4817,
  "Ġbelieved": 4818,
  "Ġhorses": 4819,
  "Daddy": 4820,
  "ĠHoppy": 4821,
  "Ġchecked": 4822,
  "ĠMandy": 4823,
  "Ġtour": 4824,
  "Ġnetwork": 4825,
  "Ġcheek": 4826,
  "ĠUnder": 4827,
  "Ġoffer": 4828,
  "Ġeasily": 4829,
  "Ġplaced": 4830,
  "spec": 4831,
  "Ġspots": 4832,
  "Ġsnowball": 4833,
  "ween": 4834,
  "men": 4835,
  "Ġenergy": 4836,
  "ĠBee": 4837,
  "Ġimagination": 4838,
  "Ġblueberry": 4839,
  "otten": 4840,
  "Ġbetween": 4841,
  "specially": 4842,
  "ĠGigi": 4843,
  "izes": 4844,
  "Ġdaisy": 4845,
  "Ġwaving": 4846,
  "reeze": 4847,
  "reat": 4848,
  "Ġvroom": 4849,
  "Ġsoak": 4850,
  "Ġsafari": 4851,
  "Ġrhythm": 4852,
  "Ġmassage": 4853,
  "Ġstomach": 4854,
  "Ġbaking": 4855,
  "quake": 4856,
  "Ġnightmare": 4857,
  "Ġinsisted": 4858,
  "Ġblowing": 4859,
  "Ġentered": 4860,
  "Before": 4861,
  "Ġstair": 4862,
  "Ġpalm": 4863,
  "Ġbeauty": 4864,
  "Ġtwisted": 4865,
  "Ġbother": 4866,
  "Ġwriting": 4867,
  "Ġscoop": 4868,
  "Ġprunes": 4869,
  "Ġbrain": 4870,
  "Ġing": 4871,
  "ipment": 4872,
  "Ġpoppy": 4873,
  "Ġhills": 4874,
  "noon": 4875,
  "Ġafternoon": 4876,
  "Ġespecially": 4877,
  "Ġequipment": 4878,
  "hest": 4879,
  "Ġsir": 4880,
  "Ġpad": 4881,
  "ĠSee": 4882,
  "Ġingred": 4883,
  "Ġcalls": 4884,
  "ĠFox": 4885,
  "Ġingredient": 4886,
  "Ġearthquake": 4887,
  "Ġignored": 4888,
  "ĠSnowy": 4889,
  "Ġburned": 4890,
  "Ġnobody": 4891,
  "mble": 4892,
  "Ġsty": 4893,
  "apa": 4894,
  "Ġsew": 4895,
  "Ġtug": 4896,
  "isty": 4897,
  "Ġhearts": 4898,
  "xygen": 4899,
  "Ġlear": 4900,
  "Ġlearnt": 4901,
  "Ġlemonade": 4902,
  "Ġincrease": 4903,
  "illie": 4904,
  "Jenny": 4905,
  "Ġgaz": 4906,
  "Ġbackpack": 4907,
  "Ġmailman": 4908,
  "Ġwhistled": 4909,
  "Ġpedal": 4910,
  "ĠSk": 4911,
  "Fred": 4912,
  "Ġshopkeeper": 4913,
  "ffic": 4914,
  "Ġpermit": 4915,
  "Ġtremble": 4916,
  "Ġyucky": 4917,
  "anges": 4918,
  "Ġmoves": 4919,
  "Ġintroduce": 4920,
  "Ġlemons": 4921,
  "Ġcrash": 4922,
  "Ġbeans": 4923,
  "Ġfloated": 4924,
  "edn": 4925,
  "ednesday": 4926,
  "ittens": 4927,
  "Welcome": 4928,
  "Ġplanned": 4929,
  "Ġstrike": 4930,
  "Ġtraffic": 4931,
  "Ġinclude": 4932,
  "Ġslap": 4933,
  "ĠLucky": 4934,
  "Ġracing": 4935,
  "resses": 4936,
  "Ġwisdom": 4937,
  "Ġpur": 4938,
  "Ġwags": 4939,
  "ĠFinny": 4940,
  "laimed": 4941,
  "ĠGeorge": 4942,
  "Ġluck": 4943,
  "Ġfollowing": 4944,
  "Ġprice": 4945,
  "ecting": 4946,
  "Ġmama": 4947,
  "Ġpitch": 4948,
  "Ġbelow": 4949,
  "ĠElly": 4950,
  "ĠHave": 4951,
  "Le": 4952,
  "Ġweight": 4953,
  "Ġexclaimed": 4954,
  "house": 4955,
  "Ġburied": 4956,
  "Ġcomf": 4957,
  "Ġfollows": 4958,
  "Ġrecognize": 4959,
  "Ġingredients": 4960,
  "Ġfurt": 4961,
  "tain": 4962,
  "Ġcandles": 4963,
  "Mimi": 4964,
  "Ġmarbles": 4965,
  "riage": 4966,
  "unday": 4967,
  "emember": 4968,
  "eration": 4969,
  "ĠAlex": 4970,
  "Ġapart": 4971,
  "ĠWednesday": 4972,
  "Ġgrowled": 4973,
  "uct": 4974,
  "ĠSu": 4975,
  "ores": 4976,
  "Ġconf": 4977,
  "Ġhopes": 4978,
  "Ġteaching": 4979,
  "Ġfolded": 4980,
  "Ġclosely": 4981,
  "ĠFinn": 4982,
  "ĠWho": 4983,
  "Ġheel": 4984,
  "ĠSunday": 4985,
  "Ġencourage": 4986,
  "ĠPaul": 4987,
  "ĠOwl": 4988,
  "Ġzigzag": 4989,
  "Ġpulling": 4990,
  "Ġdigg": 4991,
  "Ġbouncy": 4992,
  "Ġfurther": 4993,
  "Ġchewed": 4994,
  "Ġdigging": 4995,
  "Ġwinning": 4996,
  "With": 4997,
  "Woof": 4998,
  "Ġdresses": 4999,
  "Ġimage": 5000,
  "rec": 5001,
  "cery": 5002,
  "Ġshouting": 5003,
  "Ġgrocery": 5004,
  "Ġtwisty": 5005,
  "Ġpeanuts": 5006,
  "Ġpuzzles": 5007,
  "bbing": 5008,
  "ĠDog": 5009,
  "look": 5010,
  "Ġscrat": 5011,
  "Ġchores": 5012,
  "Ġwhisper": 5013,
  "ĠIs": 5014,
  "Ġspike": 5015,
  "ĠFroggy": 5016,
  "Ġcape": 5017,
  "Ġsnail": 5018,
  "Ġacorns": 5019,
  "Ġworms": 5020,
  "hood": 5021,
  "Ġdeeper": 5022,
  "Ġurge": 5023,
  "ifi": 5024,
  "Ġexper": 5025,
  "ĠWhenever": 5026,
  "ĠTilly": 5027,
  "ĠSqueaky": 5028,
  "ĠGrace": 5029,
  "Ġplanted": 5030,
  "Ġattention": 5031,
  "ecture": 5032,
  "Ġexercise": 5033,
  "ĠDanny": 5034,
  "Ġcub": 5035,
  "Ġoperation": 5036,
  "Ġunderground": 5037,
  "Ġhon": 5038,
  "Ġagre": 5039,
  "Ġquite": 5040,
  "Ġcreatures": 5041,
  "Ġsimp": 5042,
  "Everyone": 5043,
  "Ġstruggle": 5044,
  "oral": 5045,
  "ĠMittens": 5046,
  "ddy": 5047,
  "Ġblood": 5048,
  "Ġlecture": 5049,
  "Ġwashing": 5050,
  "Ġhurting": 5051,
  "Ġgifts": 5052,
  "Ġvanished": 5053,
  "Ġdressed": 5054,
  "Ġinvitation": 5055,
  "Ġsolved": 5056,
  "Ġlicks": 5057,
  "ĠSharing": 5058,
  "Ġsnuggled": 5059,
  "ippy": 5060,
  "Ġble": 5061,
  "Ġmarriage": 5062,
  "Ġquietly": 5063,
  "gie": 5064,
  "Ġwarning": 5065,
  "Ġjazz": 5066,
  "Ġbreathe": 5067,
  "reci": 5068,
  "Ġelephants": 5069,
  "Ġsizes": 5070,
  "Ġdried": 5071,
  "Ġfallen": 5072,
  "Ġlandscape": 5073,
  "ories": 5074,
  "Ġsprink": 5075,
  "Ġneighbour": 5076,
  "Ġmice": 5077,
  "uesday": 5078,
  "Ġappreci": 5079,
  "ĠSophie": 5080,
  "ĠJoey": 5081,
  "ĠâĢĵ": 5082,
  "Ġeagerly": 5083,
  "Ġsailing": 5084,
  "ĠCoco": 5085,
  "Ġpaused": 5086,
  "ips": 5087,
  "Ġcounter": 5088,
  "ĠGood": 5089,
  "ĠBounce": 5090,
  "ĠPenny": 5091,
  "Ġworth": 5092,
  "looking": 5093,
  "ĠRock": 5094,
  "Ġoxygen": 5095,
  "Because": 5096,
  "Ġrelease": 5097,
  "Ġshined": 5098,
  "Not": 5099,
  "pted": 5100,
  "Ġreaches": 5101,
  "Ġbalan": 5102,
  "ĠZara": 5103,
  "Ġoh": 5104,
  "isses": 5105,
  "Ġkisses": 5106,
  "Ġstyle": 5107,
  "Ġbricks": 5108,
  "Ġplays": 5109,
  "Ġglo": 5110,
  "ĠTuesday": 5111,
  "Ġideas": 5112,
  "sed": 5113,
  "Ġinst": 5114,
  "Ġwob": 5115,
  "Ġfireworks": 5116,
  "Bella": 5117,
  "iggly": 5118,
  "ucked": 5119,
  "Ġseeing": 5120,
  "Ġflap": 5121,
  "ops": 5122,
  "Ġaccepted": 5123,
  "right": 5124,
  "ĠPip": 5125,
  "Ġblink": 5126,
  "Today": 5127,
  "mm": 5128,
  "ĠRos": 5129,
  "Ġtremb": 5130,
  "These": 5131,
  "Ġmuddy": 5132,
  "Ġmemory": 5133,
  "Ġmarried": 5134,
  "Ġtomatoes": 5135,
  "Ġexit": 5136,
  "ĠAnnie": 5137,
  "Ġwagging": 5138,
  "Ġfash": 5139,
  "Remy": 5140,
  "ĠCharlie": 5141,
  "Ġwandered": 5142,
  "unately": 5143,
  "ipping": 5144,
  "Ġgloves": 5145,
  "Ġcaptain": 5146,
  "Ġpillows": 5147,
  "Ġreceive": 5148,
  "Ġresp": 5149,
  "ĠPinky": 5150,
  "raged": 5151,
  "Ġduring": 5152,
  "ĠEverything": 5153,
  "etch": 5154,
  "Ġweb": 5155,
  "Ġpetals": 5156,
  "Ġwatered": 5157,
  "ĠEventually": 5158,
  "Ġsi": 5159,
  "ived": 5160,
  "Ġmanage": 5161,
  "Ġbrings": 5162,
  "Ġpinched": 5163,
  "Ġcakes": 5164,
  "Ġvanish": 5165,
  "Ġfashion": 5166,
  "ĠBluey": 5167,
  "Ġprinter": 5168,
  "Ġdestroyed": 5169,
  "Ġtreasures": 5170,
  "nce": 5171,
  "Ġallow": 5172,
  "ups": 5173,
  "Ġhadn": 5174,
  "Ġworse": 5175,
  "ĠFifi": 5176,
  "Surpr": 5177,
  "Ġvel": 5178,
  "Ġhits": 5179,
  "Ġbur": 5180,
  "xu": 5181,
  "Ġvelvet": 5182,
  "Ġappear": 5183,
  "Ġdisagree": 5184,
  "do": 5185,
  "Ġcatching": 5186,
  "ĠRo": 5187,
  "Ġscattered": 5188,
  "Ġmemories": 5189,
  "Ġsorts": 5190,
  "ĠPapa": 5191,
  "Ġhers": 5192,
  "Ġscolded": 5193,
  "Ġsigns": 5194,
  "Ġpears": 5195,
  "Ġoranges": 5196,
  "Ġbones": 5197,
  "Ġrang": 5198,
  "Ġsits": 5199,
  "Ġseats": 5200,
  "Ġsnapped": 5201,
  "Ġgazed": 5202,
  "uxu": 5203,
  "Ġraised": 5204,
  "Bl": 5205,
  "ĠMaria": 5206,
  "Ġzipped": 5207,
  "Ġpies": 5208,
  "Ġprints": 5209,
  "Ġshot": 5210,
  "Ġsliding": 5211,
  "ĠGod": 5212,
  "Ġfro": 5213,
  "Ġeasier": 5214,
  "ssible": 5215,
  "Ġskills": 5216,
  "Ġclimbs": 5217,
  "Ġtwirled": 5218,
  "ccer": 5219,
  "Ġblankets": 5220,
  "Ġforgotten": 5221,
  "Ġbaked": 5222,
  "ester": 5223,
  "Yum": 5224,
  "Ġdifference": 5225,
  "esterday": 5226,
  "orted": 5227,
  "Ġluxu": 5228,
  "Ġgolden": 5229,
  "ising": 5230,
  "ĠTw": 5231,
  "Ġkitty": 5232,
  "Ġcutting": 5233,
  "Ġseason": 5234,
  "aggie": 5235,
  "Ġnowhere": 5236,
  "Ġcrow": 5237,
  "ah": 5238,
  "Ġsoccer": 5239,
  "Ġdared": 5240,
  "Ġbites": 5241,
  "ĠHenry": 5242,
  "ĠHarry": 5243,
  "anny": 5244,
  "Ġlung": 5245,
  "Ġcelebrated": 5246,
  "choo": 5247,
  "chie": 5248,
  "Ġstraight": 5249,
  "Ġunlocked": 5250,
  "sters": 5251,
  "Ġsorting": 5252,
  "Ġcollected": 5253,
  "Ġbleed": 5254,
  "aped": 5255,
  "ding": 5256,
  "Ġwelcomed": 5257,
  "Ġvisited": 5258,
  "Ġspoons": 5259,
  "Ġours": 5260,
  "Ġstitch": 5261,
  "Ġjogging": 5262,
  "Surprise": 5263,
  "medi": 5264,
  "Ġemer": 5265,
  "ĠSpark": 5266,
  "mediately": 5267,
  "Ġisn": 5268,
  "Ġtong": 5269,
  "Ġtrave": 5270,
  "Ġwinner": 5271,
  "umble": 5272,
  "Ġruin": 5273,
  "Ġsince": 5274,
  "Ġprett": 5275,
  "Ok": 5276,
  "Moral": 5277,
  "ĠTony": 5278,
  "Ġattached": 5279,
  "Ġweeping": 5280,
  "Ġmarching": 5281,
  "Ġluxury": 5282,
  "Ġsimple": 5283,
  "ĠEach": 5284,
  "Ġshouldn": 5285,
  "Ġguessed": 5286,
  "Ġzero": 5287,
  "Ġcreated": 5288,
  "Ġstuffed": 5289,
  "Ġpets": 5290,
  "ction": 5291,
  "Ġwaist": 5292,
  "Ġfamil": 5293,
  "Ġurged": 5294,
  "Ġbowed": 5295,
  "Ġselling": 5296,
  "Ġfloating": 5297,
  "rr": 5298,
  "ĠSmith": 5299,
  "Ġbye": 5300,
  "ĠKing": 5301,
  "Ġvict": 5302,
  "Ġkingdom": 5303,
  "Ġolives": 5304,
  "Ġkicking": 5305,
  "ĠWiggly": 5306,
  "Ġpunished": 5307,
  "ĠLiz": 5308,
  "ĠBaby": 5309,
  "sit": 5310,
  "Ġtoes": 5311,
  "Ġgrant": 5312,
  "Ġmuscles": 5313,
  "Ġjewels": 5314,
  "ĠRosie": 5315,
  "Ġbeds": 5316,
  "Ġmelted": 5317,
  "Goodbye": 5318,
  "Ġslice": 5319,
  "Ġgrin": 5320,
  "Ġunderstanding": 5321,
  "Ġcollection": 5322,
  "Ġtore": 5323,
  "Ġmeasured": 5324,
  "aker": 5325,
  "Ġcras": 5326,
  "iers": 5327,
  "Ġtrapped": 5328,
  "omeday": 5329,
  "Ġlined": 5330,
  "'ve": 5331,
  "Ġacted": 5332,
  "fortunately": 5333,
  "Ġencouraged": 5334,
  "va": 5335,
  "ĠSandy": 5336,
  "Ġreceived": 5337,
  "ĠBefore": 5338,
  "Ġwaffles": 5339,
  "ĠWally": 5340,
  "Ġwest": 5341,
  "Ġmeow": 5342,
  "ents": 5343,
  "Ġpatterns": 5344,
  "rin": 5345,
  "ino": 5346,
  "Ġbrus": 5347,
  "eath": 5348,
  "Ġmouths": 5349,
  "kins": 5350,
  "Ġbang": 5351,
  "ring": 5352,
  "ĠKate": 5353,
  "Meow": 5354,
  "Ġpeaches": 5355,
  "Ġbreeze": 5356,
  "aded": 5357,
  "une": 5358,
  "Ġprinted": 5359,
  "Ġsoldiers": 5360,
  "Ġsomeday": 5361,
  "Ġpotatoes": 5362,
  "Ġpupil": 5363,
  "umes": 5364,
  "ĠMillie": 5365,
  "Ġdrinks": 5366,
  "Ġshed": 5367,
  "Ġexperience": 5368,
  "ĠTuna": 5369,
  "Ġpresents": 5370,
  "Ġfiref": 5371,
  "ĠRuby": 5372,
  "Ġsurround": 5373,
  "Ġnone": 5374,
  "Ġvoices": 5375,
  "osed": 5376,
  "eep": 5377,
  "Ġdrinking": 5378,
  "ĠUncle": 5379,
  "ishing": 5380,
  "Ġrelaxed": 5381,
  "Ġvictory": 5382,
  "cus": 5383,
  "Ġbreaking": 5384,
  "Ġpaints": 5385,
  "eve": 5386,
  "Ġhurried": 5387,
  "ission": 5388,
  "Ġtwink": 5389,
  "Ġtongue": 5390,
  "Ġcostumes": 5391,
  "Ġflat": 5392,
  "Ġmentioned": 5393,
  "Ġbegged": 5394,
  "Ġteasing": 5395,
  "Ġwhistling": 5396,
  "Ġfetch": 5397,
  "Ġpermission": 5398,
  "Ġsip": 5399,
  "Ġdisagreed": 5400,
  "Ġpearl": 5401,
  "akes": 5402,
  "Ġstro": 5403,
  "vest": 5404,
  "ĠThese": 5405,
  "Ġappro": 5406,
  "Ġesc": 5407,
  "Ġskipping": 5408,
  "Ġfishing": 5409,
  "ĠMay": 5410,
  "Leo": 5411,
  "Ġhighest": 5412,
  "Ġpra": 5413,
  "Ġwatches": 5414,
  "Ġsorted": 5415,
  "Ġringing": 5416,
  "ship": 5417,
  "Ġtonight": 5418,
  "ĠBo": 5419,
  "Ġopin": 5420,
  "Ġlets": 5421,
  "icing": 5422,
  "ĠQu": 5423,
  "Ġperfectly": 5424,
  "Ġshadows": 5425,
  "Ġimmediately": 5426,
  "Ġherbs": 5427,
  "Ġwarmth": 5428,
  "Ġspit": 5429,
  "Ġremained": 5430,
  "ther": 5431,
  "ĠIts": 5432,
  "walk": 5433,
  "Bobby": 5434,
  "irring": 5435,
  "Jen": 5436,
  "Ġsneak": 5437,
  "Ġsix": 5438,
  "Ġlips": 5439,
  "Ġkneeled": 5440,
  "Blue": 5441,
  "ĠChe": 5442,
  "Ġcontest": 5443,
  "utter": 5444,
  "Ġcartoons": 5445,
  "Ġsidewalk": 5446,
  "Ġcolours": 5447,
  "Ġstamps": 5448,
  "Ġago": 5449,
  "Ha": 5450,
  "ĠBoo": 5451,
  "ĠToto": 5452,
  "ĠFollow": 5453,
  "Ġeast": 5454,
  "Ġheaded": 5455,
  "oved": 5456,
  "\",": 5457,
  "Ġstrang": 5458,
  "Ġfed": 5459,
  "Ġladyb": 5460,
  "Ġsupposed": 5461,
  "Ġlick": 5462,
  "Ġroots": 5463,
  "Ġcrunch": 5464,
  "Ġmixing": 5465,
  "Ġworks": 5466,
  "Ġdecorations": 5467,
  "Ġknown": 5468,
  "Ġmelting": 5469,
  "Ġemergen": 5470,
  "Mandy": 5471,
  "ĠAb": 5472,
  "Ġrested": 5473,
  "Ġlines": 5474,
  "ĠSuzy": 5475,
  "Ġlily": 5476,
  "ĠJul": 5477,
  "Ġinstr": 5478,
  "Ġlaid": 5479,
  "ĠGr": 5480,
  "Ġcones": 5481,
  "Ġsucceeded": 5482,
  "Ġwiggle": 5483,
  "ety": 5484,
  "sing": 5485,
  "Ġshock": 5486,
  "Ġsetting": 5487,
  "ĠSlow": 5488,
  "Ġstudied": 5489,
  "Ġstrangers": 5490,
  "ĠRocky": 5491,
  "Really": 5492,
  "Ġtwigs": 5493,
  "Ġbrid": 5494,
  "Ġtheirs": 5495,
  "ĠDr": 5496,
  "Ġgirls": 5497,
  "boo": 5498,
  "!\",": 5499,
  "Ġscreams": 5500,
  "Ġlands": 5501,
  "Ġordered": 5502,
  "Ġmoments": 5503,
  "Ġstirring": 5504,
  "Ġfields": 5505,
  "Ġalright": 5506,
  "Ġstealing": 5507,
  "ded": 5508,
  "Andy": 5509,
  "Ġrul": 5510,
  "Ġbravely": 5511,
  "ĠBoth": 5512,
  "avid": 5513,
  "Ġmister": 5514,
  "!'": 5515,
  "Ġinvest": 5516,
  "Ġscratched": 5517,
  "Ġplaytime": 5518,
  "Ġripped": 5519,
  "Ġinvestig": 5520,
  "Ġtucked": 5521,
  "Ġresting": 5522,
  "Ġburning": 5523,
  "ishes": 5524,
  "ĠClara": 5525,
  "ĠChicky": 5526,
  "Ġbridges": 5527,
  "Ġofficer": 5528,
  "please": 5529,
  "Sammy": 5530,
  "Bird": 5531,
  "abies": 5532,
  "Ġsettled": 5533,
  "Ġmatched": 5534,
  "Ġachie": 5535,
  "Ġtex": 5536,
  "Ġtexture": 5537,
  "Happy": 5538,
  "Ġturning": 5539,
  "Ġwaits": 5540,
  "ĠSky": 5541,
  "Peter": 5542,
  "ored": 5543,
  "Ġtrembling": 5544,
  "isten": 5545,
  "Ġnails": 5546,
  "atie": 5547,
  "ĠSomeone": 5548,
  "Ġmuffins": 5549,
  "ids": 5550,
  "ĠJames": 5551,
  "Ġescaped": 5552,
  "Ġpiles": 5553,
  "Ġinvestigate": 5554,
  "Ġbroom": 5555,
  "osity": 5556,
  "Ġladybug": 5557,
  "Ġsore": 5558,
  "ĠPepper": 5559,
  "Ġadmir": 5560,
  "Ġappreciate": 5561,
  "Ġthreat": 5562,
  "Ġbabies": 5563,
  "Ġsilence": 5564,
  "Ġsisters": 5565,
  "Ġarea": 5566,
  "Ġemergency": 5567,
  "ides": 5568,
  "Ġdads": 5569,
  "Ġanswers": 5570,
  "Ġpupp": 5571,
  "Ġkeys": 5572,
  "Ġchewing": 5573,
  "Ġslapped": 5574,
  "Ġwiz": 5575,
  "Ġimportance": 5576,
  "Boo": 5577,
  "Ġserved": 5578,
  "ĠHop": 5579,
  "Ġsafety": 5580,
  "izing": 5581,
  "Bu": 5582,
  "Would": 5583,
  "Ġsparkle": 5584,
  "Ġtouching": 5585,
  "ĠLater": 5586,
  "Ġsoared": 5587,
  "igail": 5588,
  "Ġsings": 5589,
  "Ġhen": 5590,
  "allen": 5591,
  "Ella": 5592,
  "bers": 5593,
  "antly": 5594,
  "Momo": 5595,
  "ĠDino": 5596,
  "Ġkeeps": 5597,
  "Ġamazement": 5598,
  "Ġchallen": 5599,
  "Ġtwin": 5600,
  "Ġhesit": 5601,
  "Ġrevealed": 5602,
  "achel": 5603,
  "anna": 5604,
  "Ġitem": 5605,
  "Ġdire": 5606,
  "Ġsoaked": 5607,
  "zing": 5608,
  "Ġwrit": 5609,
  "Ġfoods": 5610,
  "Ġdinosaurs": 5611,
  "Ġrides": 5612,
  "Ġrecorded": 5613,
  "Ġtickle": 5614,
  "Ġinch": 5615,
  "ĠZigzag": 5616,
  "ĠMe": 5617,
  "Ġwizard": 5618,
  "Ġvet": 5619,
  "Ġtrips": 5620,
  "ĠAn": 5621,
  "Ġglowed": 5622,
  "ĠFrog": 5623,
  "Mmm": 5624,
  "Ġhi": 5625,
  "Ġbeamed": 5626,
  "Ġquack": 5627,
  "Ġcurled": 5628,
  "Ġhated": 5629,
  "Ġwink": 5630,
  "Ġshopping": 5631,
  "Ġeats": 5632,
  "ĠBug": 5633,
  "Eventually": 5634,
  "Ġpraised": 5635,
  "Ġwooden": 5636,
  "Ġbringing": 5637,
  "Ġmittens": 5638,
  "Ġstudying": 5639,
  "Ġguy": 5640,
  "Ġbrushes": 5641,
  "Ġspaceship": 5642,
  "Ġgust": 5643,
  "Ġcrawling": 5644,
  "ĠSomething": 5645,
  "Cat": 5646,
  "Ġruler": 5647,
  "Ġflav": 5648,
  "Ġdownstairs": 5649,
  "Ġshooting": 5650,
  "Ġtastes": 5651,
  "Ġnapping": 5652,
  "Ġmarks": 5653,
  "Ġsprinkles": 5654,
  "Ġcuddled": 5655,
  "Ġdot": 5656,
  "hello": 5657,
  "Ġfut": 5658,
  "plash": 5659,
  "ales": 5660,
  "aved": 5661,
  "Ġfuture": 5662,
  "Ġmonsters": 5663,
  "Ġcollecting": 5664,
  "Ġmeasuring": 5665,
  "ĠHappy": 5666,
  "'.": 5667,
  "Ġfamilies": 5668,
  "ĠFirst": 5669,
  "ĠOut": 5670,
  "ĠMo": 5671,
  "Ġthrill": 5672,
  "Ġoat": 5673,
  "irts": 5674,
  "Ġresult": 5675,
  "Jake": 5676,
  "ĠRabbit": 5677,
  "Ġapproached": 5678,
  "Ġcrunchy": 5679,
  "act": 5680,
  "Un": 5681,
  "Ġremem": 5682,
  "Ġbleeding": 5683,
  "Ġremembers": 5684,
  "Ġbeat": 5685,
  "Ġnicer": 5686,
  "Ġsneaky": 5687,
  "Ġdisturbed": 5688,
  "Ġleader": 5689,
  "Ġscaring": 5690,
  "Or": 5691,
  "hind": 5692,
  "Ġpeel": 5693,
  "ĠHope": 5694,
  "Ġfiremen": 5695,
  "ĠStar": 5696,
  "Ġneighborhood": 5697,
  "Ġgrey": 5698,
  "ĠNot": 5699,
  "Ġmotion": 5700,
  "Ġnoon": 5701,
  "Ġpossible": 5702,
  "Emily": 5703,
  "Somet": 5704,
  "Ġapologized": 5705,
  "Ġweighed": 5706,
  "ues": 5707,
  "ĠDid": 5708,
  "Ġtickets": 5709,
  "Cl": 5710,
  "Ġnaps": 5711,
  "Ġloose": 5712,
  "Ġpride": 5713,
  "Ġyouth": 5714,
  "Ġswims": 5715,
  "ped": 5716,
  "Ġstrings": 5717,
  "Ġrecognized": 5718,
  "Ġsiren": 5719,
  "Ġpoking": 5720,
  "fied": 5721,
  "ĠHo": 5722,
  "cious": 5723,
  "ha": 5724,
  "Ġtricked": 5725,
  "elvet": 5726,
  "Ġwonders": 5727,
  "Ġgained": 5728,
  "Ġwanting": 5729,
  "Ġcrashed": 5730,
  "Ġobe": 5731,
  "Ġseesaw": 5732,
  "Ġworker": 5733,
  "unnies": 5734,
  "ls": 5735,
  "oming": 5736,
  "Ġdraws": 5737,
  "Ġscooped": 5738,
  ".'": 5739,
  "Ġzooming": 5740,
  "Ġopinion": 5741,
  "Ġyelling": 5742,
  "Ġprepared": 5743,
  "Ġgrinned": 5744,
  "ĠSlowly": 5745,
  "Ġawe": 5746,
  "Ġdoggy": 5747,
  "Ġpoems": 5748,
  "Ġacting": 5749,
  "ĠBeep": 5750,
  "Ġhappiest": 5751,
  "Ġchef": 5752,
  "Ġsneaked": 5753,
  "Ġrespons": 5754,
  "Ġeff": 5755,
  "ĠAlways": 5756,
  "ĠLizzy": 5757,
  "Ġowned": 5758,
  "Ġbunnies": 5759,
  "Ġanytime": 5760,
  "Ġstruck": 5761,
  "Ġpedals": 5762,
  "Ġknelt": 5763,
  "oys": 5764,
  "ena": 5765,
  "Ollie": 5766,
  "Ġsecrets": 5767,
  "Ġpause": 5768,
  "Ġdecorated": 5769,
  "Ġhorns": 5770,
  "Ġagreement": 5771,
  "ĠSqu": 5772,
  "ided": 5773,
  "Ġfrost": 5774,
  "Ġtallest": 5775,
  "Ġobey": 5776,
  "Remember": 5777,
  "riends": 5778,
  "ogo": 5779,
  "ĠStop": 5780,
  "Have": 5781,
  "Ġdecides": 5782,
  "ĠOnce": 5783,
  "Ġbehaved": 5784,
  "Ġtugged": 5785,
  "Ġsides": 5786,
  "Ġwoof": 5787,
  "Ġslim": 5788,
  "zen": 5789,
  "Ġgoodnight": 5790,
  "Ġkeeper": 5791,
  "Ġsparkling": 5792,
  "Ġchirped": 5793,
  "Ġprecious": 5794,
  "mother": 5795,
  "ien": 5796,
  "lier": 5797,
  "Tr": 5798,
  "Ġrepeated": 5799,
  "Ġclaps": 5800,
  "indy": 5801,
  "Ġcontain": 5802,
  "affes": 5803,
  "Ġsnowballs": 5804,
  "ud": 5805,
  "rs": 5806,
  "ĠRay": 5807,
  "Ġourselves": 5808,
  "allow": 5809,
  "Ġgiraffes": 5810,
  "Ġbalancing": 5811,
  "Ġkindly": 5812,
  "Ġspending": 5813,
  "Ġwrites": 5814,
  "ays": 5815,
  "ppers": 5816,
  "ĠLike": 5817,
  "Ġprop": 5818,
  "omas": 5819,
  "Ġhissed": 5820,
  "First": 5821,
  "Ġfrozen": 5822,
  "Ġfrosting": 5823,
  "Ġeffort": 5824,
  "Ġbuzzing": 5825,
  "Ġstruggled": 5826,
  "oh": 5827,
  "ĠSteve": 5828,
  "Ġadmiring": 5829,
  "Ġrele": 5830,
  "iggy": 5831,
  "Ġsweeties": 5832,
  "ĠVelvet": 5833,
  "Ġslimy": 5834,
  "Ġbrushed": 5835,
  "Ġbloomed": 5836,
  "Susie": 5837,
  "ĠAm": 5838,
  "Ġpolished": 5839,
  "ĠZoe": 5840,
  "arth": 5841,
  "anted": 5842,
  "Ġboo": 5843,
  "Ġcomfy": 5844,
  "Ġstaying": 5845,
  "Ġrubbing": 5846,
  "Ġrocking": 5847,
  "Ducky": 5848,
  "Ġpockets": 5849,
  "Ġthrilled": 5850,
  "Ġbeside": 5851,
  "Ġcomple": 5852,
  "ĠAunt": 5853,
  "ĠMaggie": 5854,
  "Ah": 5855,
  "Ġeight": 5856,
  "urry": 5857,
  "isdom": 5858,
  "Ġmachines": 5859,
  "Ġearlier": 5860,
  "Ġseems": 5861,
  "Ġyesterday": 5862,
  "Ġrust": 5863,
  "ĠKeep": 5864,
  "Sp": 5865,
  "Ġtraveled": 5866,
  "Ġfolding": 5867,
  "Ġboom": 5868,
  "Ġcracked": 5869,
  "ities": 5870,
  "Ġhugging": 5871,
  "ĠStitch": 5872,
  "Ġradishes": 5873,
  "Ġloving": 5874,
  "Ġopening": 5875,
  "Ġcircus": 5876,
  "Ġsurrounded": 5877,
  "Ġcuriosity": 5878,
  "ĠRachel": 5879,
  "Ġspraying": 5880,
  "Ġdemanded": 5881,
  "Ġpaintings": 5882,
  "amie": 5883,
  "ĠGreen": 5884,
  "Ġremoved": 5885,
  "Ġgaze": 5886,
  "Ġhonk": 5887,
  "Ġpebbles": 5888,
  "Ġhardly": 5889,
  "Ġzookeeper": 5890,
  "Ġcatches": 5891,
  "Ġsting": 5892,
  "edding": 5893,
  "Ġstripes": 5894,
  "Ġpowers": 5895,
  "Ġloaded": 5896,
  "ĠPippa": 5897,
  "Sometimes": 5898,
  "Ġpots": 5899,
  "Ġsplashes": 5900,
  "Ġpetted": 5901,
  "Ġmatching": 5902,
  "ĠDavid": 5903,
  "Thanks": 5904,
  "Ġstare": 5905,
  "Ġtoss": 5906,
  "Ġbelly": 5907,
  "Yummy": 5908,
  "ibb": 5909,
  "Ġwhatever": 5910,
  "Ġapologize": 5911,
  "Ġrocked": 5912,
  "Ġcomforted": 5913,
  "ĠBree": 5914,
  "Ġdecision": 5915,
  "Ġribbons": 5916,
  "ĠJoy": 5917,
  "ĠBirdie": 5918,
  "ern": 5919,
  "Ġstruggling": 5920,
  "Ġexpected": 5921,
  "Ġdeser": 5922,
  "Ġsteep": 5923,
  "wh": 5924,
  "Ġprotected": 5925,
  "Ġneighbors": 5926,
  "Ġsmiley": 5927,
  "Ġchases": 5928,
  "During": 5929,
  "Ġgranted": 5930,
  "Ġcrumb": 5931,
  "ĠMat": 5932,
  "Ġpurred": 5933,
  "Ġdiving": 5934,
  "Ġsadness": 5935,
  "Whiskers": 5936,
  "Ġorganizing": 5937,
  "lowers": 5938,
  "Ġeagle": 5939,
  "Ġheroes": 5940,
  "Ġdipped": 5941,
  "Ġsunlight": 5942,
  "Ġlied": 5943,
  "ĠFrank": 5944,
  "Ġpastels": 5945,
  "Ex": 5946,
  "Ġroads": 5947,
  "Ġsafer": 5948,
  "Ġscru": 5949,
  "ĠMilly": 5950,
  "Ġargued": 5951,
  "ĠWater": 5952,
  "Ġgoals": 5953,
  "Ġdiscovery": 5954,
  "ĠAbigail": 5955,
  "Ġpeered": 5956,
  "Ġvillag": 5957,
  "Ro": 5958,
  "ĠBouncy": 5959,
  "use": 5960,
  "ana": 5961,
  "Ġtim": 5962,
  "loe": 5963,
  "Ġdragons": 5964,
  "Ġbuildings": 5965,
  "Ġbuckets": 5966,
  "Ġparties": 5967,
  "Ġbeard": 5968,
  "Ġwedding": 5969,
  "Rex": 5970,
  "Ġflutter": 5971,
  "Ġplanets": 5972,
  "Ġann": 5973,
  "ĠRobby": 5974,
  "Ġpolishing": 5975,
  "Ġfasc": 5976,
  "ira": 5977,
  "Ġreleased": 5978,
  "ĠChr": 5979,
  "Ġcrabs": 5980,
  "ĠGogo": 5981,
  "Ġtails": 5982,
  "ĠWatch": 5983,
  "Ġsausages": 5984,
  "ĠJu": 5985,
  "Ġargu": 5986,
  "Ġcontro": 5987,
  "Ġbottles": 5988,
  "Ġwiggled": 5989,
  "Ġteased": 5990,
  "uke": 5991,
  "Ġarguing": 5992,
  "Ġsled": 5993,
  "Ġdragged": 5994,
  "ĠCar": 5995,
  "Ġpadd": 5996,
  "Ġroaring": 5997,
  "Ġclearing": 5998,
  "Ġmovies": 5999,
  "Ġshirts": 6000,
  "Ġgathering": 6001,
  "Ġairpl": 6002,
  "Ġwid": 6003,
  "joyed": 6004,
  "Ġteaches": 6005,
  "Ġspiders": 6006,
  "Ġlimes": 6007,
  "ĠRemember": 6008,
  "ĠDare": 6009,
  "Ġoverjoyed": 6010,
  "Ġactually": 6011,
  "Ġsighs": 6012,
  "Ġcontinue": 6013,
  "Ġcuddle": 6014,
  "Ġsoaring": 6015,
  "ĠJess": 6016,
  "Ġsmallest": 6017,
  "Ġdrives": 6018,
  "Ġrip": 6019,
  "Ġsparkles": 6020,
  "Ġsitu": 6021,
  "Ġcubes": 6022,
  "Ġrefres": 6023,
  "Ġtalent": 6024,
  "ĠOlly": 6025,
  "Ġchallenge": 6026,
  "Ġgrandmother": 6027,
  "ĠSplash": 6028,
  "Ġpouring": 6029,
  "umm": 6030,
  "Ġpretends": 6031,
  "Ġfascin": 6032,
  "Ġcuts": 6033,
  "Ġbank": 6034,
  "Ġquarreling": 6035,
  "Ġpeppers": 6036,
  "Ġmane": 6037,
  "Ġshivered": 6038,
  "Ġdusty": 6039,
  "ley": 6040,
  "Ġwondering": 6041,
  "Ġvillagers": 6042,
  "Ġstretching": 6043,
  "ib": 6044,
  "njoy": 6045,
  "Ġweeks": 6046,
  "Ġwherever": 6047,
  "Ġdarker": 6048,
  "jam": 6049,
  "Tiny": 6050,
  "ĠX": 6051,
  "sses": 6052,
  "Ġrings": 6053,
  "Ġonwards": 6054,
  "ĠKatie": 6055,
  "Ġunited": 6056,
  "Achoo": 6057,
  "Ġbead": 6058,
  "ĠEveryday": 6059,
  "ĠBeing": 6060,
  "Ġprettiest": 6061,
  "Ġcaut": 6062,
  "Johnny": 6063,
  "Ġrealize": 6064,
  "Ġcompany": 6065,
  "Ġpenguins": 6066,
  "annah": 6067,
  "Luna": 6068,
  "Fr": 6069,
  "ĠSpring": 6070,
  "Ġbedtime": 6071,
  "Ġcompleted": 6072,
  "ĠWisdom": 6073,
  "ĠLeave": 6074,
  "âĢĿ.": 6075,
  "Ġknights": 6076,
  "ĠJe": 6077,
  "Ġflags": 6078,
  "ĠBecause": 6079,
  "Ġplayroom": 6080,
  "ĠPrin": 6081,
  "Ġactions": 6082,
  "ĠZero": 6083,
  "Ġlearns": 6084,
  "Ġgotten": 6085,
  "Ġpatience": 6086,
  "dam": 6087,
  "inda": 6088,
  "Ġshrug": 6089,
  "Ġkites": 6090,
  "Ġresponsible": 6091,
  "Ġfears": 6092,
  "Ġdestination": 6093,
  "Ġwires": 6094,
  "Ġreply": 6095,
  "Ġdam": 6096,
  "Ġwrist": 6097,
  "aws": 6098,
  "Ġpacking": 6099,
  "Ġfault": 6100,
  "Ġmountains": 6101,
  "Ġapplauded": 6102,
  "Ġscrubbed": 6103,
  "Ġma": 6104,
  "Ġcrept": 6105,
  "ĠAva": 6106,
  "Uh": 6107,
  "ĠEarth": 6108,
  "Ġsatis": 6109,
  "Ġthird": 6110,
  "Ġphot": 6111,
  "Ġpencils": 6112,
  "Ġwins": 6113,
  "Ġsticking": 6114,
  "Ġbaker": 6115,
  "Ġvisiting": 6116,
  "Ġwound": 6117,
  "Ġpeas": 6118,
  "Ġuses": 6119,
  "Ġreminder": 6120,
  "Ġcontrol": 6121,
  "ashed": 6122,
  "Grandpa": 6123,
  "Ġjoking": 6124,
  "Ġawake": 6125,
  "Ġinstruct": 6126,
  "Ġstaring": 6127,
  "ĠPut": 6128,
  "Ġhealed": 6129,
  "Ġhitting": 6130,
  "ĠFish": 6131,
  "Ġscreaming": 6132,
  "Ġbegin": 6133,
  "Rob": 6134,
  "uckily": 6135,
  "ĠFriends": 6136,
  "ĠMoo": 6137,
  "icorn": 6138,
  "Ġhelmets": 6139,
  "enty": 6140,
  "Ġunicorn": 6141,
  "ler": 6142,
  "seek": 6143,
  "Ġtowels": 6144,
  "ĠLou": 6145,
  "Silly": 6146,
  "Ġchips": 6147,
  "ica": 6148,
  "Ġcreation": 6149,
  "Ġwasted": 6150,
  "bie": 6151,
  "Mar": 6152,
  "ĠBehind": 6153,
  "Ġmasks": 6154,
  "laire": 6155,
  "Ġforgi": 6156,
  "Ġitems": 6157,
  "Ġfirefight": 6158,
  "Ġlollipops": 6159,
  "Ġoutdo": 6160,
  "Watch": 6161,
  "Ġheav": 6162,
  "Ġguns": 6163,
  "Ġdied": 6164,
  "ĠHippy": 6165,
  "Ġseas": 6166,
  "Ġglitter": 6167,
  "uddles": 6168,
  "Ġarrive": 6169,
  "Ġweren": 6170,
  "Ġstole": 6171,
  "Ġscales": 6172,
  "Ġperched": 6173,
  "Ġaccom": 6174,
  "Ġlogs": 6175,
  "Ġachieve": 6176,
  "die": 6177,
  "Ġpracticing": 6178,
  "ining": 6179,
  "Ġwhose": 6180,
  "Stay": 6181,
  "Ġpumpkins": 6182,
  "Ġinstructions": 6183,
  "Ġswoop": 6184,
  "Ġbatteries": 6185,
  "Ġcandies": 6186,
  "Ġagrees": 6187,
  "Ġproject": 6188,
  "Ġsnakes": 6189,
  "Ġchirping": 6190,
  "Benny": 6191,
  "Ġshelves": 6192,
  "Ġprotecting": 6193,
  "Ġparked": 6194,
  "Ġexact": 6195,
  "ĠCra": 6196,
  "Ġpatiently": 6197,
  "Ġactiv": 6198,
  "Ġshoulders": 6199,
  "Ġvideos": 6200,
  "Ġblows": 6201,
  "Fo": 6202,
  "hee": 6203,
  "Ġpromises": 6204,
  "go": 6205,
  "Ġdent": 6206,
  "usan": 6207,
  "uest": 6208,
  "ners": 6209,
  "Ġexamined": 6210,
  "Ġairplane": 6211,
  "jamas": 6212,
  "Doggy": 6213,
  "Ġroses": 6214,
  "Ġaccompl": 6215,
  "Ġtasks": 6216,
  "Dave": 6217,
  "ĠHoot": 6218,
  "Poppy": 6219,
  "ĠBop": 6220,
  "Bunny": 6221,
  "Ġbeads": 6222,
  "Ġbowls": 6223,
  "Ġcrumbs": 6224,
  "zes": 6225,
  "Ġlistens": 6226,
  "ĠLove": 6227,
  "ĠCatty": 6228,
  "ĠBrownie": 6229,
  "Pete": 6230,
  "ĠOl": 6231,
  "Ġcough": 6232,
  "Ġbunch": 6233,
  "Ġdolphins": 6234,
  "Ġguest": 6235,
  "Ġrequested": 6236,
  "cakes": 6237,
  "Ġremote": 6238,
  "Ġimproved": 6239,
  "anta": 6240,
  "Ġbrand": 6241,
  "Ġreaching": 6242,
  "ĠJan": 6243,
  "ayla": 6244,
  "Ġalien": 6245,
  "ĠBye": 6246,
  "irm": 6247,
  "ĠSun": 6248,
  "Ġcopy": 6249,
  "Ġcheering": 6250,
  "Ġphotos": 6251,
  "ĠChew": 6252,
  "ĠJulie": 6253,
  "Bad": 6254,
  "ĠBlink": 6255,
  "Time": 6256,
  "Ġcans": 6257,
  "ĠCuddles": 6258,
  "Ġtimer": 6259,
  "ĠBy": 6260,
  "Ġreplaced": 6261,
  "Ġworkers": 6262,
  "athy": 6263,
  "Ġstern": 6264,
  "ĠEnjoy": 6265,
  "aster": 6266,
  "Ġneither": 6267,
  "Mike": 6268,
  "Ġpassing": 6269,
  "Ġmisses": 6270,
  "Ġcurtains": 6271,
  "Ġconfl": 6272,
  "Chirpy": 6273,
  "Ġrainbows": 6274,
  "Ġrubs": 6275,
  "George": 6276,
  "Ġrolls": 6277,
  "uctantly": 6278,
  "Ġpatted": 6279,
  "ilo": 6280,
  "Ġpajamas": 6281,
  "Ġoutdoors": 6282,
  "esome": 6283,
  "dies": 6284,
  "Ġcomplaining": 6285,
  "ĠSquirrel": 6286,
  "Lola": 6287,
  "Run": 6288,
  "Ġpuppet": 6289,
  "ĠPrincess": 6290,
  "Ġcloses": 6291,
  "Ġbeneath": 6292,
  "Ġlap": 6293,
  "Ġdrums": 6294,
  "Ġtune": 6295,
  "ĠBeth": 6296,
  "ĠMouse": 6297,
  "Ġfilling": 6298,
  "Miss": 6299,
  "angled": 6300,
  "Ġrefuse": 6301,
  "ĠSorry": 6302,
  "Ġsweat": 6303,
  "Ġfaced": 6304,
  "...": 6305,
  "Ġseven": 6306,
  "Ġbalanced": 6307,
  "Ġrescued": 6308,
  "bl": 6309,
  "Ġquacked": 6310,
  "neath": 6311,
  "ĠAbby": 6312,
  "Paul": 6313,
  "istle": 6314,
  "Ġawesome": 6315,
  "Ġ1": 6316,
  "Ġmission": 6317,
  "ĠHowever": 6318,
  "Ġguys": 6319,
  "Ġcautious": 6320,
  "Ġconflict": 6321,
  "Ġvent": 6322,
  "Ġcause": 6323,
  "Ġobserved": 6324,
  "Ġintroduc": 6325,
  "ĠThomas": 6326,
  "Ġpastries": 6327,
  "nie": 6328,
  "ĠOur": 6329,
  "Ġdoctors": 6330,
  "Ġexactly": 6331,
  "Ġrule": 6332,
  "Ġbecoming": 6333,
  "Ġmes": 6334,
  "Ġpoliceman": 6335,
  "uly": 6336,
  "Ġrockets": 6337,
  "you": 6338,
  "ĠYes": 6339,
  "ĠDot": 6340,
  "Ġfairies": 6341,
  "lay": 6342,
  "Ġpout": 6343,
  "An": 6344,
  "Ġinsist": 6345,
  "Ġblooming": 6346,
  "Ġtractor": 6347,
  "Ġfarther": 6348,
  "ĠSad": 6349,
  "avi": 6350,
  "Oops": 6351,
  "Great": 6352,
  "Ġremembering": 6353,
  "Ġincluded": 6354,
  "Ġcurly": 6355,
  "Fine": 6356,
  "Zoom": 6357,
  "Ġteamwork": 6358,
  "zie": 6359,
  "Ġfascinated": 6360,
  "Ġslam": 6361,
  "Ġwobbled": 6362,
  "Ġtruly": 6363,
  "Ġhelpers": 6364,
  "Ġsights": 6365,
  "Ġpaddle": 6366,
  "Ġstumble": 6367,
  "Ġfirm": 6368,
  "ĠJilly": 6369,
  "Henry": 6370,
  "acob": 6371,
  "Ġcaused": 6372,
  "Ġprayer": 6373,
  "Ġspong": 6374,
  "Ġrecording": 6375,
  "kelly": 6376,
  "ais": 6377,
  "Ġstarfish": 6378,
  "Ġtraded": 6379,
  "Ġsupplies": 6380,
  "Ġthro": 6381,
  "Ġpointy": 6382,
  "Ġinviting": 6383,
  "Ġsituation": 6384,
  "eah": 6385,
  "gers": 6386,
  "Ġeveryday": 6387,
  "Ġneighbourhood": 6388,
  "Ġornaments": 6389,
  "ĠAlly": 6390,
  "inkle": 6391,
  "Ġvalued": 6392,
  "Ġadding": 6393,
  "Some": 6394,
  "Ġreluctantly": 6395,
  "Ġdots": 6396,
  "Ġstays": 6397,
  "Ġbare": 6398,
  "Ġtables": 6399,
  "Ġprettier": 6400,
  "Ġdesert": 6401,
  "Ġsnowmen": 6402,
  "Ġsteady": 6403,
  "Ġminerals": 6404,
  "araway": 6405,
  "Ġthorn": 6406,
  "ody": 6407,
  "Ġast": 6408,
  "Ġglasses": 6409,
  "Ġfaraway": 6410,
  "ĠGet": 6411,
  "ĠFoxy": 6412,
  "ĠĠĊ": 6413,
  "ĠSure": 6414,
  "ĠWelcome": 6415,
  "ĠTwo": 6416,
  "Ġswooped": 6417,
  "Ġunf": 6418,
  "Ġforks": 6419,
  "Ġusually": 6420,
  "Ġusual": 6421,
  "Polly": 6422,
  "Ġdar": 6423,
  "ĠJamie": 6424,
  "Ġwinked": 6425,
  "Ġsneezing": 6426,
  "Ġsolut": 6427,
  "Ġloading": 6428,
  "Ġsponge": 6429,
  "ĠQuick": 6430,
  "Ġinsects": 6431,
  "Ġpans": 6432,
  "Dog": 6433,
  "Ġsobbed": 6434,
  "ĠSanta": 6435,
  "James": 6436,
  "Ġgrowling": 6437,
  "sm": 6438,
  "arter": 6439,
  "ĠChloe": 6440,
  "Ġthroat": 6441,
  "ĠJosh": 6442,
  "Ġnoses": 6443,
  "ĠDizzy": 6444,
  "Ġscarves": 6445,
  "Ġconfident": 6446,
  "ĠWant": 6447,
  "Ġyourselves": 6448,
  "agull": 6449,
  "Ġhomework": 6450,
  "ĠStay": 6451,
  "Ġsuperheroes": 6452,
  "Joey": 6453,
  "Ġsmarter": 6454,
  "Ġwindy": 6455,
  "Ġlibrarian": 6456,
  "Tina": 6457,
  "ĠKids": 6458,
  "Ġgems": 6459,
  "Days": 6460,
  "ora": 6461,
  "Ġunderneath": 6462,
  "Ġkicks": 6463,
  "Ġknowled": 6464,
  "Ġitchy": 6465,
  "Ġjackets": 6466,
  "Ġknowledge": 6467,
  "ĠFor": 6468,
  "ĠSkelly": 6469,
  "Ġsurface": 6470,
  "Ġuntie": 6471,
  "Ġcomm": 6472,
  "ĠDuck": 6473,
  "Ġprincesses": 6474,
  "...\"": 6475,
  "Those": 6476,
  "eed": 6477,
  "ido": 6478,
  "Hold": 6479,
  "Yeah": 6480,
  "coon": 6481,
  "Ġsquares": 6482,
  "ĠHenny": 6483,
  "Ġgiggling": 6484,
  "Ġwarnings": 6485,
  "iar": 6486,
  "Ġreads": 6487,
  "vin": 6488,
  "Our": 6489,
  "Ġchoo": 6490,
  "son": 6491,
  "Ġyounger": 6492,
  "Ġclowns": 6493,
  "ĠMix": 6494,
  "Toby": 6495,
  "Ġropes": 6496,
  "Ġbiting": 6497,
  "Ġcrowd": 6498,
  "ĠUnfortunately": 6499,
  "pite": 6500,
  "Danny": 6501,
  "True": 6502,
  "Ġseagull": 6503,
  "Ġpaddled": 6504,
  "Ġwears": 6505,
  "Ġdelivered": 6506,
  "ĠMon": 6507,
  "Ġonions": 6508,
  "Ġtwirl": 6509,
  "Ġbuzzed": 6510,
  "Ġcomplained": 6511,
  "Ġbumpy": 6512,
  "Ġstem": 6513,
  "Ew": 6514,
  "Ġpiggy": 6515,
  "Mrs": 6516,
  "ĠAnne": 6517,
  "Ġdirection": 6518,
  "ouch": 6519,
  "Ġdived": 6520,
  "Roar": 6521,
  "Ġstartled": 6522,
  "Ġtangled": 6523,
  "ults": 6524,
  "Ġleaning": 6525,
  "ĠAnt": 6526,
  "bbie": 6527,
  "ĠJones": 6528,
  "Ġbadge": 6529,
  "ĠPo": 6530,
  "Ġunp": 6531,
  "Grace": 6532,
  "Ġdeal": 6533,
  "though": 6534,
  "Annie": 6535,
  "Ġvowed": 6536,
  "Ġnapkins": 6537,
  "anes": 6538,
  "Ġrisk": 6539,
  "Ġtickled": 6540,
  "Ġcovers": 6541,
  "Ġpec": 6542,
  "Shh": 6543,
  "Ġyells": 6544,
  "Ġsatisfied": 6545,
  "int": 6546,
  "Ġknocks": 6547,
  "Ġrefreshed": 6548,
  "ĠSc": 6549,
  "tuce": 6550,
  "cuse": 6551,
  "Ġcous": 6552,
  "Ġarrows": 6553,
  "Maggie": 6554,
  "ĠWhistle": 6555,
  "Pe": 6556,
  "Ġwipes": 6557,
  "Ġspeaking": 6558,
  "Ġguessing": 6559,
  "Ġlettuce": 6560,
  "ĠQuack": 6561,
  "Unfortunately": 6562,
  "Ġripe": 6563,
  "ĠSusan": 6564,
  "Ġhides": 6565,
  "Ġchoices": 6566,
  "ĠDodo": 6567,
  "ĠRover": 6568,
  "Ġsigned": 6569,
  "Buzz": 6570,
  "Ġslower": 6571,
  "Ġseeker": 6572,
  "Ġintroduced": 6573,
  "Ġsinger": 6574,
  "Ġcreating": 6575,
  "ĠMatt": 6576,
  "Ġcent": 6577,
  "Ġfroze": 6578,
  "uggles": 6579,
  "Ġjoked": 6580,
  "Ġsqueal": 6581,
  "Ġtoaster": 6582,
  "Ġexplorers": 6583,
  "fit": 6584,
  "Ġavo": 6585,
  "anging": 6586,
  "Ġpraying": 6587,
  "Sophie": 6588,
  "Ġwritten": 6589,
  "Ġdiscovering": 6590,
  "ĠDara": 6591,
  "Ġprovided": 6592,
  "ĠLion": 6593,
  "Ġrefle": 6594,
  "Excuse": 6595,
  "Ġmushrooms": 6596,
  "ĠJeff": 6597,
  "ĠPaws": 6598,
  "Ġknees": 6599,
  "Ġpaying": 6600,
  "Ġhider": 6601,
  "ences": 6602,
  "ĠAsh": 6603,
  "Ġwandering": 6604,
  "Ġimages": 6605,
  "Charlie": 6606,
  "Ġstung": 6607,
  "ĠWink": 6608,
  "Ġmagnets": 6609,
  "Ġbarely": 6610,
  "Ġbehaving": 6611,
  "Ġtipto": 6612,
  "?\",": 6613,
  "Ġmarked": 6614,
  "brush": 6615,
  "rrr": 6616,
  "ĠDee": 6617,
  "Ġrestored": 6618,
  "Ġleading": 6619,
  "lled": 6620,
  "Ġchuck": 6621,
  "Ġgreet": 6622,
  "Ġnine": 6623,
  "ados": 6624,
  "Teddy": 6625,
  "Ġbravery": 6626,
  "Ġgears": 6627,
  "ĠSnuggles": 6628,
  "ky": 6629,
  "Ġcompetition": 6630,
  "eal": 6631,
  "Ġoutfit": 6632,
  "oline": 6633,
  "Ġwishing": 6634,
  "Ġproperly": 6635,
  "Ġventured": 6636,
  "aa": 6637,
  "tle": 6638,
  "Ġchat": 6639,
  "Ġdances": 6640,
  "Ġmuscle": 6641,
  "Ġpens": 6642,
  "Ġsalty": 6643,
  "amb": 6644,
  "ĠBetsy": 6645,
  "Ġranger": 6646,
  "ĠZiggy": 6647,
  "Ġdeserve": 6648,
  "Ġhowever": 6649,
  "sequ": 6650,
  "Ġmatters": 6651,
  "Ġdarkness": 6652,
  "ĠFu": 6653,
  "Ġburst": 6654,
  "Ġrainy": 6655,
  "Ġcobwebs": 6656,
  "Ġruining": 6657,
  "Ġchefs": 6658,
  "Ġbak": 6659,
  "Ġblocking": 6660,
  "Ġconsequ": 6661,
  "usted": 6662,
  "itely": 6663,
  "sty": 6664,
  "Ġscur": 6665,
  "Ġvines": 6666,
  "Ġfab": 6667,
  "abel": 6668,
  "Ġfabric": 6669,
  "Ġentire": 6670,
  "Ġbasement": 6671,
  "Ġleast": 6672,
  "Ġperformed": 6673,
  "ĠBuggy": 6674,
  "Sn": 6675,
  "Ġscratches": 6676,
  "Ġheavier": 6677,
  "ĠClaire": 6678,
  "Ġmints": 6679,
  "Ġtwirling": 6680,
  "Ġavocados": 6681,
  "However": 6682,
  "ĠLinda": 6683,
  "rink": 6684,
  "fl": 6685,
  "Ġlosing": 6686,
  "Ġscurried": 6687,
  "ĠJenna": 6688,
  "Ġsunflowers": 6689,
  "Ġrainco": 6690,
  "Ġswords": 6691,
  "Tweet": 6692,
  "Ġclick": 6693,
  "agic": 6694,
  "ĠLaser": 6695,
  "Ġjobs": 6696,
  "Ġsilent": 6697,
  "Ġflames": 6698,
  "Ġnecklaces": 6699,
  "ĠLuke": 6700,
  "Ġrelief": 6701,
  "ĠGrumpy": 6702,
  "Ġsnat": 6703,
  "Ġrotting": 6704,
  "Ġsewed": 6705,
  "len": 6706,
  "Ġtricky": 6707,
  "Listen": 6708,
  "Follow": 6709,
  "Jerry": 6710,
  "Ġlighter": 6711,
  "ophia": 6712,
  "Ġbows": 6713,
  "ĠSkip": 6714,
  "Ġexha": 6715,
  "Ġsolution": 6716,
  "Ġconsequences": 6717,
  "Alex": 6718,
  "ĠLena": 6719,
  "Ġstain": 6720,
  "Ġtires": 6721,
  "Beep": 6722,
  "Ġunpacked": 6723,
  "Ab": 6724,
  "Ġpartic": 6725,
  "Ġraces": 6726,
  "rance": 6727,
  "Ġpins": 6728,
  "Ġbumps": 6729,
  "Ġwraps": 6730,
  "Ġwow": 6731,
  "Ġdecorating": 6732,
  "Ġbacked": 6733,
  "aisies": 6734,
  "cher": 6735,
  "Ġdentist": 6736,
  "Ġneedles": 6737,
  "Ġpurr": 6738,
  "Ġcautiously": 6739,
  "Ġlifting": 6740,
  "izzie": 6741,
  "ĠPr": 6742,
  "Ġaccomplish": 6743,
  "Ġtriangles": 6744,
  "Ġdaisies": 6745,
  "ept": 6746,
  "Ġhesitated": 6747,
  "Ġannoy": 6748,
  "ĠThose": 6749,
  "Ġgrowls": 6750,
  "Ġcrackers": 6751,
  "oke": 6752,
  "Ġstomped": 6753,
  "Ġcott": 6754,
  "Ġgrabbing": 6755,
  "Ġfigured": 6756,
  "Ġbodies": 6757,
  "Ġmater": 6758,
  "ĠTree": 6759,
  "Ġbuying": 6760,
  "ĠRolly": 6761,
  "ĠFido": 6762,
  "Ġmaterial": 6763,
  "ĠAdam": 6764,
  "Ġswans": 6765,
  "Ġties": 6766,
  "Ġgri": 6767,
  "vers": 6768,
  "Ġgrows": 6769,
  "Ġsweets": 6770,
  "ĠGoodbye": 6771,
  "Ġowners": 6772,
  "Ġcheeks": 6773,
  "Ġflavor": 6774,
  "ĠCathy": 6775,
  "Big": 6776,
  "ĠEl": 6777,
  "ĠJessie": 6778,
  "Ġsuffering": 6779,
  "Ġfact": 6780,
  "vroom": 6781,
  "Ġgroups": 6782,
  "bly": 6783,
  "Ġforehead": 6784,
  "Ġlungs": 6785,
  "Ġrepa": 6786,
  "Harry": 6787,
  "Ġinterested": 6788,
  "Ġbakery": 6789,
  "ĠMilo": 6790,
  "Ġfreed": 6791,
  "Lilly": 6792,
  "itches": 6793,
  "ĠNothing": 6794,
  "Ġchuckled": 6795,
  "For": 6796,
  "Ġconn": 6797,
  "Ġswept": 6798,
  "?'": 6799,
  "Ġthud": 6800,
  "Ġexhausted": 6801,
  "Tw": 6802,
  "Ġtapped": 6803,
  "Ġtwinkling": 6804,
  "Ru": 6805,
  "Ġnect": 6806,
  "rosty": 6807,
  "Ġnectar": 6808,
  "elle": 6809,
  "Ġfeast": 6810,
  "Ġdarling": 6811,
  "indr": 6812,
  "ĠMad": 6813,
  "Ġworries": 6814,
  "Ġuns": 6815,
  "Ġtunnels": 6816,
  "Ġfuzzy": 6817,
  "ĠTrust": 6818,
  "Ġreason": 6819,
  "Ġrepaired": 6820,
  "ĠBall": 6821,
  "ĠCopper": 6822,
  "Ġactivities": 6823,
  "lets": 6824,
  "ĠHannah": 6825,
  "Ġpecked": 6826,
  "ĠTry": 6827,
  "Ġentrance": 6828,
  "Ġmeals": 6829,
  "ĠListen": 6830,
  "Ġraindr": 6831,
  "Ġcompletely": 6832,
  "Ġparticular": 6833,
  "Ġmailed": 6834,
  "Ġnests": 6835,
  "ctions": 6836,
  "Ġwaiter": 6837,
  "Ġcuddly": 6838,
  "Ġsense": 6839,
  "ĠNana": 6840,
  "Ġcolored": 6841,
  "arky": 6842,
  "Ġleap": 6843,
  "step": 6844,
  "band": 6845,
  "Ġpeeking": 6846,
  "Ġplenty": 6847,
  "ĠCara": 6848,
  "Ġslammed": 6849,
  "no": 6850,
  "Ġplayers": 6851,
  "Ġmonth": 6852,
  "ĠBirthday": 6853,
  "Ġbudge": 6854,
  "ĠQ": 6855,
  "Ġscra": 6856,
  "Ġforgets": 6857,
  "Ġden": 6858,
  "Ġhandful": 6859,
  "ĠOliver": 6860,
  "Ġmer": 6861,
  "ossible": 6862,
  "Ġgenie": 6863,
  "ĠChrist": 6864,
  "Ġstool": 6865,
  "iggie": 6866,
  "Ġtalks": 6867,
  "ĠPup": 6868,
  "ĠSuzie": 6869,
  "Ġfeeding": 6870,
  "Ġpassports": 6871,
  "Ġfilms": 6872,
  "Ġbaths": 6873,
  "Ġimpossible": 6874,
  "Ġdetermination": 6875,
  "May": 6876,
  "Ġprinting": 6877,
  "boat": 6878,
  "Ġdesigned": 6879,
  "Ġbuses": 6880,
  "Ġopp": 6881,
  "ueen": 6882,
  "Ġbars": 6883,
  "lephant": 6884,
  "Ġsuitcase": 6885,
  "Ġcounts": 6886,
  "Ġstolen": 6887,
  "Ġspreading": 6888,
  "ĠSnap": 6889,
  "Ġspikes": 6890,
  "Ġsteer": 6891,
  "Ġwiping": 6892,
  "ĠRain": 6893,
  "Ġlamb": 6894,
  "Ġhonked": 6895,
  "etty": 6896,
  "nies": 6897,
  "Ġcowb": 6898,
  "Whee": 6899,
  "Ġseparated": 6900,
  "blings": 6901,
  "Ġsiblings": 6902,
  "Ġhops": 6903,
  "Ġchop": 6904,
  "Ġfires": 6905,
  "Ġsewing": 6906,
  "ĠTwinkle": 6907,
  "Ġfever": 6908,
  "Ġtwinkle": 6909,
  "Ġty": 6910,
  "Ġcamping": 6911,
  "ĠMira": 6912,
  "Ġlower": 6913,
  "Ġchanging": 6914,
  "yes": 6915,
  "retch": 6916,
  "Ġbehavi": 6917,
  "ĠBloom": 6918,
  "mas": 6919,
  "Ġliqu": 6920,
  "Ġcelebration": 6921,
  "but": 6922,
  "Ġdollhouse": 6923,
  "Ġsquealed": 6924,
  "Sunny": 6925,
  "Ġbackward": 6926,
  "Ġage": 6927,
  "Ġsnatched": 6928,
  "Ġcash": 6929,
  "ho": 6930,
  "Ġtwice": 6931,
  "lee": 6932,
  "Ġsway": 6933,
  "itched": 6934,
  "Ġcelebrating": 6935,
  "ĠPeanut": 6936,
  "Ġache": 6937,
  "Ġshrinking": 6938,
  "Ġkings": 6939,
  "weed": 6940,
  "rious": 6941,
  "Ġshops": 6942,
  "Ġkittens": 6943,
  "cope": 6944,
  "Rose": 6945,
  "ĠJessica": 6946,
  "ĠJacob": 6947,
  "ĠGina": 6948,
  "aura": 6949,
  "Ġhus": 6950,
  "Ġtouches": 6951,
  "airy": 6952,
  "Ġpancakes": 6953,
  "Ġavoid": 6954,
  "Ġspat": 6955,
  "ĠFrosty": 6956,
  "rig": 6957,
  "hog": 6958,
  "ĠNina": 6959,
  "Ġpaths": 6960,
  "cky": 6961,
  "ives": 6962,
  "ĠHold": 6963,
  "Ġcalmed": 6964,
  "Ġrotten": 6965,
  "ĠJon": 6966,
  "Sandy": 6967,
  "Ġdropping": 6968,
  "Ġseaweed": 6969,
  "ĠMel": 6970,
  "iles": 6971,
  "Pipp": 6972,
  "Ġtwisting": 6973,
  "Ġstroked": 6974,
  "Ġuntied": 6975,
  "llen": 6976,
  "Ġplayhouse": 6977,
  "ne": 6978,
  "Millie": 6979,
  "Ġstudents": 6980,
  "Ġpuppies": 6981,
  "cl": 6982,
  "ĠSof": 6983,
  "hi": 6984,
  "ĠRe": 6985,
  "Ġscrews": 6986,
  "Ġastron": 6987,
  "Ġsomebody": 6988,
  "igning": 6989,
  "Ġliquid": 6990,
  "ammy": 6991,
  "Ġsquish": 6992,
  "Ġwakes": 6993,
  "ĠWoof": 6994,
  "Ġbracelets": 6995,
  "Ġastronaut": 6996,
  "aren": 6997,
  "Ġthrown": 6998,
  "immer": 6999,
  "Ġloops": 7000,
  "ĠOther": 7001,
  "Ġplain": 7002,
  "Ġwrapping": 7003,
  "Luckily": 7004,
  "Ġplanning": 7005,
  "Ġtramp": 7006,
  "Ġskunk": 7007,
  "Ġaimed": 7008,
  "Ġpennies": 7009,
  "Ġshoo": 7010,
  "Ġdancers": 7011,
  "Ġlifts": 7012,
  "Ġsparks": 7013,
  "Ġfirefly": 7014,
  "pen": 7015,
  "Dan": 7016,
  "Ġposter": 7017,
  "yan": 7018,
  "endy": 7019,
  "Ġcust": 7020,
  "ĠChristmas": 7021,
  "Ġrewarded": 7022,
  "Ġobjects": 7023,
  "Ġdirections": 7024,
  "ingo": 7025,
  "using": 7026,
  "Ġreflection": 7027,
  "Ġhusband": 7028,
  "Take": 7029,
  "âĢĶ": 7030,
  "river": 7031,
  "Ġclues": 7032,
  "uppy": 7033,
  "Ġleads": 7034,
  "Ġincreased": 7035,
  "Ġblocked": 7036,
  "Ġrising": 7037,
  "Ġdod": 7038,
  "ĠYesterday": 7039,
  "Ġcousin": 7040,
  "ĠWithout": 7041,
  "Ġforgetting": 7042,
  "rigued": 7043,
  "Ġcustom": 7044,
  "Kate": 7045,
  "ude": 7046,
  "Ġbeginning": 7047,
  "Ġtrampoline": 7048,
  "Ġstorekeeper": 7049,
  "Ġpouted": 7050,
  "Ġzebras": 7051,
  "Ġaff": 7052,
  "Ġhedgehog": 7053,
  "Ġborrowed": 7054,
  "ĠâĢĺ": 7055,
  "ĠRollie": 7056,
  "Ġsnowfl": 7057,
  "Ġcountryside": 7058,
  "ĠJay": 7059,
  "Jump": 7060,
  "Ġmesmer": 7061,
  "Ġvehicles": 7062,
  "Ġinstrum": 7063,
  "ĠMic": 7064,
  "ĠKayla": 7065,
  "ĠUp": 7066,
  "Ġfrowning": 7067,
  "Pat": 7068,
  "ivity": 7069,
  "Under": 7070,
  "Ġmarker": 7071,
  "Ġbey": 7072,
  "Ġpresses": 7073,
  "ĠQueen": 7074,
  "Ġbeyond": 7075,
  "ĠOnly": 7076,
  "Ġdamage": 7077,
  "ivery": 7078,
  "iece": 7079,
  "ĠTara": 7080,
  "Ġfart": 7081,
  "ĠBiggie": 7082,
  "jo": 7083,
  "Ġhealth": 7084,
  "Ġwhispers": 7085,
  "Ġslips": 7086,
  "Ġswimsuit": 7087,
  "Ġnibb": 7088,
  "ĠJulia": 7089,
  "Ġwarmer": 7090,
  "armer": 7091,
  "Ġflapping": 7092,
  "Ġtiptoed": 7093,
  "Ġregretted": 7094,
  "itted": 7095,
  "Zip": 7096,
  "Ġlaying": 7097,
  "ĠRobo": 7098,
  "ades": 7099,
  "ĠFire": 7100,
  "Ġyelp": 7101,
  "Ġrains": 7102,
  "Ġglued": 7103,
  "Ġeverybody": 7104,
  "Ġcreations": 7105,
  "Ġhearing": 7106,
  "Ġswir": 7107,
  "Ġcolder": 7108,
  "iversity": 7109,
  "ael": 7110,
  "Ġshaped": 7111,
  "ĠElephant": 7112,
  "Ġfins": 7113,
  "Ġstreets": 7114,
  "Ġcushions": 7115,
  "Ġrusty": 7116,
  "Out": 7117,
  "Ġsan": 7118,
  "Ġfarthest": 7119,
  "ĠMikey": 7120,
  "Ġcreativity": 7121,
  "ans": 7122,
  "Ġsale": 7123,
  "Always": 7124,
  "Co": 7125,
  "Ġstrongest": 7126,
  "Ġfits": 7127,
  "ĠSparky": 7128,
  "ibbit": 7129,
  "Ġbells": 7130,
  "Ġdollars": 7131,
  "ĠLarry": 7132,
  "Ġearn": 7133,
  "iam": 7134,
  "ĠMoon": 7135,
  "angle": 7136,
  "ĠChirp": 7137,
  "Ġlending": 7138,
  "eese": 7139,
  "Ġcashier": 7140,
  "Milly": 7141,
  "Ġincluding": 7142,
  "ĠRich": 7143,
  "Ġsniffs": 7144,
  "Ġraincoat": 7145,
  "Ġsank": 7146,
  "Ġstopping": 7147,
  "Ġtrembled": 7148,
  "Ġsource": 7149,
  "iti": 7150,
  "imon": 7151,
  "ĠMissy": 7152,
  "Ġindeed": 7153,
  "Ġwobbly": 7154,
  "ters": 7155,
  "Ġguests": 7156,
  "Ġsingle": 7157,
  "Ġrecommended": 7158,
  "Ġwee": 7159,
  "Ġspells": 7160,
  "Ġaccomplishment": 7161,
  "Ġbelts": 7162,
  "Ġends": 7163,
  "Ġsurprising": 7164,
  "Ġhopeful": 7165,
  "Ġseasons": 7166,
  "ĠTake": 7167,
  "ĠSnowman": 7168,
  "ĠEls": 7169,
  "Bear": 7170,
  "Ġplans": 7171,
  "Ġencourag": 7172,
  "ichael": 7173,
  "Ġsupported": 7174,
  "illed": 7175,
  "stick": 7176,
  "Ġsuffered": 7177,
  "Ġartist": 7178,
  "Ġperformance": 7179,
  "eet": 7180,
  "Ġslowed": 7181,
  "Nina": 7182,
  "Ġgross": 7183,
  "Ġflavors": 7184,
  "iding": 7185,
  "Ġspins": 7186,
  "ertain": 7187,
  "cho": 7188,
  "Ġlabels": 7189,
  "Quack": 7190,
  "Ġraindrops": 7191,
  "Ġdelivery": 7192,
  "uing": 7193,
  "arac": 7194,
  "Ġforgiving": 7195,
  "Ġraccoon": 7196,
  "ĠWoo": 7197,
  "obody": 7198,
  "Ġpours": 7199,
  "the": 7200,
  "Ġstands": 7201,
  "Ġturtles": 7202,
  "ility": 7203,
  "Ġvanilla": 7204,
  "Bill": 7205,
  "uess": 7206,
  "Ġbeam": 7207,
  "Ġrecipe": 7208,
  "Ġtying": 7209,
  "ĠSw": 7210,
  "Ġgeese": 7211,
  "Ġwilling": 7212,
  "Ġdrawn": 7213,
  "Ġrobber": 7214,
  "Ġwept": 7215,
  "Vroom": 7216,
  "ĠBones": 7217,
  "Ġcharac": 7218,
  "Ġcorners": 7219,
  "Ġpops": 7220,
  "ĠSophia": 7221,
  "elia": 7222,
  "Ġqueens": 7223,
  "Ġdie": 7224,
  "Ġgrip": 7225,
  "Ġsailboat": 7226,
  "Ġdrivers": 7227,
  "Ġmoo": 7228,
  "itude": 7229,
  "Ġhallway": 7230,
  "Ġimagining": 7231,
  "Ġseconds": 7232,
  "ĠFuzzy": 7233,
  "Mine": 7234,
  "Ġpreparing": 7235,
  "Ġwidened": 7236,
  "Ġadult": 7237,
  "ĠSpirit": 7238,
  "Ġcoop": 7239,
  "Ġgrocer": 7240,
  "Ġtalented": 7241,
  "ĠPam": 7242,
  "ĠBeaky": 7243,
  "ĠIzzy": 7244,
  "Ġsailors": 7245,
  "ummies": 7246,
  "lling": 7247,
  "Ġaside": 7248,
  "Ġsofter": 7249,
  "Ġwatering": 7250,
  "Ġknots": 7251,
  "Ġsending": 7252,
  "Ġtipped": 7253,
  "Ġunsure": 7254,
  "Ġhoriz": 7255,
  "Lulu": 7256,
  "Ġtreehouse": 7257,
  "ĠLizzie": 7258,
  "Ġnotes": 7259,
  "Ġecho": 7260,
  "igers": 7261,
  "Ġachieved": 7262,
  "Ġhorizon": 7263,
  "Ġsqueak": 7264,
  "Ġdelivering": 7265,
  "Ġhotter": 7266,
  "ĠStella": 7267,
  "Ġpleasure": 7268,
  "Ġpupils": 7269,
  "Clara": 7270,
  "Ġburrow": 7271,
  "Ġangels": 7272,
  "Ġcuriously": 7273,
  "Ġyum": 7274,
  "Ellie": 7275,
  "Ġblinking": 7276,
  "ĠJune": 7277,
  "Ġdet": 7278,
  "Ġsymbols": 7279,
  "ĠStretch": 7280,
  "Ġtweet": 7281,
  "wk": 7282,
  "Ġpassen": 7283,
  "ĠRudy": 7284,
  "ĠCindy": 7285,
  "Ġtummies": 7286,
  "Ġtiss": 7287,
  "Ġpigeons": 7288,
  "Ġfigures": 7289,
  "oey": 7290,
  "umbling": 7291,
  "Ġbandages": 7292,
  "ĠRobert": 7293,
  "Ġcoup": 7294,
  "ĠDoctor": 7295,
  "Ġrobots": 7296,
  "alph": 7297,
  "Ġtossed": 7298,
  "Ġhour": 7299,
  "Ġbackwards": 7300,
  "Ġroars": 7301,
  "Baby": 7302,
  "Ġmerma": 7303,
  "Ġrather": 7304,
  "uzz": 7305,
  "atur": 7306,
  "Maria": 7307,
  "cited": 7308,
  "ĠCrab": 7309,
  "ĠPlay": 7310,
  "Moo": 7311,
  "ighting": 7312,
  "Dolly": 7313,
  "Ġgroceries": 7314,
  "Ġzipping": 7315,
  "Put": 7316,
  "Ġunw": 7317,
  "Very": 7318,
  "prin": 7319,
  "Ġamong": 7320,
  "Ġblown": 7321,
  "Ġicing": 7322,
  "!âĢĿ.": 7323,
  "Ġafterwards": 7324,
  "Ġrumble": 7325,
  "ipper": 7326,
  "Ġscrewd": 7327,
  "Ġsped": 7328,
  "ĠTia": 7329,
  "ushing": 7330,
  "Ġprove": 7331,
  "Ġglee": 7332,
  "ĠTiti": 7333,
  "Ġdip": 7334,
  "Ġovercome": 7335,
  "Quick": 7336,
  "Ruby": 7337,
  "Ġsurfboard": 7338,
  "Ġshovels": 7339,
  "ĠToot": 7340,
  "Ġslices": 7341,
  "Ġmerry": 7342,
  "Ġmate": 7343,
  "Ġwobble": 7344,
  "ĠTurt": 7345,
  "ĠAbbie": 7346,
  "Ġheading": 7347,
  "Ġdisturbing": 7348,
  "Ġswall": 7349,
  "Ġreversed": 7350,
  "Ġfirefighters": 7351,
  "Jul": 7352,
  "Ġswallowed": 7353,
  "Ġchip": 7354,
  "eds": 7355,
  "Ġflipped": 7356,
  "Ġscored": 7357,
  "ĠJump": 7358,
  "Ġsqueezing": 7359,
  "usty": 7360,
  "Frank": 7361,
  "Su": 7362,
  "aty": 7363,
  "Ġwaking": 7364,
  "Ġintrigued": 7365,
  "Sad": 7366,
  "Like": 7367,
  "Ġmaker": 7368,
  "ĠBarky": 7369,
  "Ġpuff": 7370,
  "awn": 7371,
  "Betty": 7372,
  "Ġhawk": 7373,
  "Ġencouraging": 7374,
  "Ġaud": 7375,
  "ĠEx": 7376,
  "onies": 7377,
  "ĠRon": 7378,
  "Ġchos": 7379,
  "Ġchosen": 7380,
  "hew": 7381,
  "ĠAng": 7382,
  "ĠFarmer": 7383,
  "Ġcouple": 7384,
  "Ġdesigns": 7385,
  "Ġslipping": 7386,
  "Ġscrewdriver": 7387,
  "ĠEmmy": 7388,
  "Ġsquishy": 7389,
  "Ġgardener": 7390,
  "Ġcenter": 7391,
  "Ġrivers": 7392,
  "Ġmarkers": 7393,
  "Ġrespond": 7394,
  "iley": 7395,
  "Ġjars": 7396,
  "Ġtigers": 7397,
  "pecting": 7398,
  "Ġfrowns": 7399,
  "bird": 7400,
  "ĠKit": 7401,
  "Ġfluttered": 7402,
  "ĠSadly": 7403,
  "ĠSl": 7404,
  "Ġfirefighter": 7405,
  "ĠRyan": 7406,
  "Ribbit": 7407,
  "Ġsecure": 7408,
  "Ġsuits": 7409,
  "Ġsprinkled": 7410,
  "Ġcreamy": 7411,
  "Ġbru": 7412,
  "ashes": 7413,
  "Ġsharks": 7414,
  "Ġignoring": 7415,
  "Ġgiggles": 7416,
  "Ġtighter": 7417,
  "Ġtissue": 7418,
  "Ġfirmly": 7419,
  "ounce": 7420,
  "ĠLaura": 7421,
  "fly": 7422,
  "Ġshown": 7423,
  "Ġfamiliar": 7424,
  "Ġthorns": 7425,
  "Spike": 7426,
  "ĠWo": 7427,
  "Ġdrawers": 7428,
  "child": 7429,
  "ĠZee": 7430,
  "Ġexpress": 7431,
  "Car": 7432,
  "Ġdef": 7433,
  "Ġdaring": 7434,
  "ments": 7435,
  "Ġcrossing": 7436,
  "Ġaudience": 7437,
  "Ġcloudy": 7438,
  "Ġperforming": 7439,
  "Ġcoloured": 7440,
  "Ġcor": 7441,
  "Ġais": 7442,
  "ĠNick": 7443,
  "ae": 7444,
  "rat": 7445,
  "Ġpedaled": 7446,
  "Get": 7447,
  "Ġmixture": 7448,
  "Ġtil": 7449,
  "Ġgracefully": 7450,
  "ggy": 7451,
  "Ġhaircuts": 7452,
  "Ġyielded": 7453,
  "Ġponies": 7454,
  "Ġdisob": 7455,
  "Ġcrowns": 7456,
  "Ġbits": 7457,
  "Ġtodd": 7458,
  "ĠSleep": 7459,
  "Ġhangers": 7460,
  "Ġnervously": 7461,
  "bbled": 7462,
  "ĠPatch": 7463,
  "Ġ2": 7464,
  "Zoomy": 7465,
  "Ġpays": 7466,
  "Ġpeck": 7467,
  "Ġev": 7468,
  "Ġstroke": 7469,
  "fall": 7470,
  "Bang": 7471,
  "een": 7472,
  "Ġrespected": 7473,
  "Ġnapped": 7474,
  "aven": 7475,
  "Ġminded": 7476,
  "ddie": 7477,
  "Bessie": 7478,
  "ably": 7479,
  "Ġtested": 7480,
  "Boys": 7481,
  "ading": 7482,
  "parent": 7483,
  "ĠChris": 7484,
  "Kim": 7485,
  "ĠNear": 7486,
  "ĠUniversity": 7487,
  "Ġbeeh": 7488,
  "ĠTurtle": 7489,
  "Ġneighbours": 7490,
  "Ġsurfing": 7491,
  "arrow": 7492,
  "vered": 7493,
  "Ġshady": 7494,
  "iona": 7495,
  "Ġmagician": 7496,
  "Ġdarl": 7497,
  "Ġenthusiasm": 7498,
  "Ġdarlings": 7499,
  "Ġwisely": 7500,
  "Ġsails": 7501,
  "Ġstitches": 7502,
  "kend": 7503,
  "Dear": 7504,
  "Ġthoughts": 7505,
  "Ġweekend": 7506,
  "ĠTweetie": 7507,
  "Freddy": 7508,
  "Ġreminds": 7509,
  "Ġtemper": 7510,
  "oring": 7511,
  "tha": 7512,
  "Ġfleas": 7513,
  "Ġsurroundings": 7514,
  "Ġspits": 7515,
  "antha": 7516,
  "Ġteams": 7517,
  "Ġfills": 7518,
  "Ġlessons": 7519,
  "Ġflip": 7520,
  "ĠAlong": 7521,
  "Ġmelons": 7522,
  "Ġpaintbrush": 7523,
  "Ġmermaid": 7524,
  "oni": 7525,
  "Katie": 7526,
  "Ġgrandchild": 7527,
  "Ġexplo": 7528,
  "Ġelbow": 7529,
  "Ġhoops": 7530,
  "Ġsports": 7531,
  "Ġlies": 7532,
  "Guess": 7533,
  "ĠFighting": 7534,
  "rac": 7535,
  "Ġpanicked": 7536,
  "Ġcleaner": 7537,
  "Ġamount": 7538,
  "cused": 7539,
  "Ġlongest": 7540,
  "Ġscooters": 7541,
  "Ġlent": 7542,
  "ita": 7543,
  "Ġsill": 7544,
  "Ġbeloved": 7545,
  "immering": 7546,
  "Pippin": 7547,
  "Ġbeehive": 7548,
  "Alright": 7549,
  "lle": 7550,
  "oga": 7551,
  "ongrat": 7552,
  "Ġoysters": 7553,
  "Ġgrandparent": 7554,
  "ongratul": 7555,
  "Ġforgiven": 7556,
  "Ġmagazines": 7557,
  "ĠWise": 7558,
  "Ġarr": 7559,
  "Ġelf": 7560,
  "Ġrepeating": 7561,
  "Ġdiscussed": 7562,
  "ĠThanks": 7563,
  "Ġsweetest": 7564,
  "Ġwadd": 7565,
  "Keep": 7566,
  "ĠMaya": 7567,
  "Ġlace": 7568,
  "Ġreass": 7569,
  "ĠGranny": 7570,
  "Ġnightmares": 7571,
  "ĠWilly": 7572,
  "Ġtubes": 7573,
  "Ġunderstands": 7574,
  "Ġspoonful": 7575,
  "Ġnood": 7576,
  "Ġbathing": 7577,
  "ĠZoey": 7578,
  "asty": 7579,
  "Am": 7580,
  "Ġsweep": 7581,
  "Ġmanners": 7582,
  "Ġnur": 7583,
  "Ġwrink": 7584,
  "crow": 7585,
  "ĠHolly": 7586,
  "Ġbully": 7587,
  "Ġsprang": 7588,
  "Uncle": 7589,
  "Ġguide": 7590,
  "ĠYet": 7591,
  "Ġcrew": 7592,
  "ancy": 7593,
  "onna": 7594,
  "romise": 7595,
  "Jazz": 7596,
  "Ġbreathed": 7597,
  "ently": 7598,
  "ilda": 7599,
  "while": 7600,
  "steps": 7601,
  "ĠBally": 7602,
  "Ġbulbs": 7603,
  "Ġneare": 7604,
  "Ġgrassy": 7605,
  "Ġspies": 7606,
  "Ġtesting": 7607,
  "Ġwiggly": 7608,
  "Ġcoug": 7609,
  "ĠRoo": 7610,
  "Ġsolving": 7611,
  "Ġsheets": 7612,
  "Ġfootsteps": 7613,
  "ntil": 7614,
  "Ġspeeding": 7615,
  "Afterwards": 7616,
  "Ġfocused": 7617,
  "cept": 7618,
  "ounced": 7619,
  "?!\"": 7620,
  "Ġbraver": 7621,
  "Ġcamel": 7622,
  "Ġmesmerized": 7623,
  "ĠSparkle": 7624,
  "Ġhesitant": 7625,
  "Ġlicking": 7626,
  "Ġrushing": 7627,
  "ĠWell": 7628,
  "Ġjoining": 7629,
  "ĠPuppy": 7630,
  "Ġpolar": 7631,
  "Ġgreeted": 7632,
  "ĠMartha": 7633,
  "--": 7634,
  "ĠBubb": 7635,
  "espite": 7636,
  "Ġworn": 7637,
  "Which": 7638,
  "Kiki": 7639,
  "Ġchanges": 7640,
  "Ġmaterials": 7641,
  "ĠNobody": 7642,
  "undred": 7643,
  "Ġstored": 7644,
  "Ġbicycles": 7645,
  "Ġmast": 7646,
  "Ġanger": 7647,
  "Ġpeacefully": 7648,
  "Leave": 7649,
  "Ġships": 7650,
  "Ġspice": 7651,
  "ĠShow": 7652,
  "Ġterrified": 7653,
  "Ġnuzz": 7654,
  "Ġgonna": 7655,
  "Ġpolitely": 7656,
  "Ġspills": 7657,
  "Snow": 7658,
  "Ġscarecrow": 7659,
  "Ġknives": 7660,
  "ĠMixy": 7661,
  "Ġevil": 7662,
  "ppies": 7663,
  "Ġburying": 7664,
  "ca": 7665,
  "Ġaren": 7666,
  "Ġhealing": 7667,
  "Ġdonkey": 7668,
  "Ġaeroplanes": 7669,
  "Even": 7670,
  "freeze": 7671,
  "Ġseals": 7672,
  "Ġscattering": 7673,
  "Ġmiles": 7674,
  "ĠChewy": 7675,
  "Ġdump": 7676,
  "amboo": 7677,
  "Ġworrying": 7678,
  "Bee": 7679,
  "zoom": 7680,
  "beep": 7681,
  "ĠLenny": 7682,
  "David": 7683,
  "Ġpuzzled": 7684,
  "Ġstacked": 7685,
  "ĠKip": 7686,
  "ĠNice": 7687,
  "Penny": 7688,
  "Ġloses": 7689,
  "ĠWin": 7690,
  "dding": 7691,
  "Ġbaskets": 7692,
  "Ġtravelled": 7693,
  "ĠOkay": 7694,
  "Ġblast": 7695,
  "Ġgazing": 7696,
  "ĠTess": 7697,
  "ipes": 7698,
  "Hurry": 7699,
  "Ġtemperature": 7700,
  "Ġund": 7701,
  "Ġclue": 7702,
  "Ġtasting": 7703,
  "Ġbelieving": 7704,
  "Ġdripping": 7705,
  "Ġpinching": 7706,
  "erm": 7707,
  "Ġsoaking": 7708,
  "Ġrats": 7709,
  "Ġ10": 7710,
  "isc": 7711,
  "Ġsandy": 7712,
  "rect": 7713,
  "ĠIsn": 7714,
  "ĠSimon": 7715,
  "rey": 7716,
  "anwhile": 7717,
  "ĠAbi": 7718,
  "Ġbanged": 7719,
  "Binky": 7720,
  "Ġpunishment": 7721,
  "Ġhumans": 7722,
  "Ġcrashing": 7723,
  "Ġforce": 7724,
  "ĠAna": 7725,
  "Ġgest": 7726,
  "Ġhundred": 7727,
  "ĠLia": 7728,
  "Ġswimmer": 7729,
  "ĠChess": 7730,
  "Ġsnowflakes": 7731,
  "Ġrelaxing": 7732,
  "Ġresisted": 7733,
  "Ġbeeped": 7734,
  "ĠFairy": 7735,
  "Ġquarreled": 7736,
  "elie": 7737,
  "form": 7738,
  "Ġramp": 7739,
  "ĠWendy": 7740,
  "Ġjoins": 7741,
  "ĠPh": 7742,
  "abby": 7743,
  "Ġbackpacks": 7744,
  "Ġdressing": 7745,
  "Ġdelayed": 7746,
  "years": 7747,
  "Ġtoddler": 7748,
  "ĠLuckily": 7749,
  "ĠTe": 7750,
  "Ġflight": 7751,
  "Ġcovering": 7752,
  "By": 7753,
  "orter": 7754,
  "Ġbenches": 7755,
  "Ġencouragement": 7756,
  "Two": 7757,
  "Open": 7758,
  "Ġtoward": 7759,
  "Ġscraped": 7760,
  "Ġpurpose": 7761,
  "Ġfocus": 7762,
  "ĠJudy": 7763,
  "Bow": 7764,
  "Ġcorrect": 7765,
  "'.\"": 7766,
  "Ġlipstick": 7767,
  "Ġbamboo": 7768,
  "ĠCow": 7769,
  "Spe": 7770,
  "Ġpotion": 7771,
  "Ġtwinkled": 7772,
  "Ġmonths": 7773,
  "Ġpermitted": 7774,
  "Ġlanguages": 7775,
  "Ġorders": 7776,
  "Ġfreedom": 7777,
  "Tony": 7778,
  "Ġmaster": 7779,
  "Ġrisks": 7780,
  "Ġpoppies": 7781,
  "shm": 7782,
  "Ġnoodles": 7783,
  "Ġfaded": 7784,
  "Ġwounds": 7785,
  "rier": 7786,
  "Kids": 7787,
  "shmallow": 7788,
  "isions": 7789,
  "ĠJojo": 7790,
  "Ġcreams": 7791,
  "Ġbirdhouse": 7792,
  "ĠHerb": 7793,
  "Ġcells": 7794,
  "Ġannoyed": 7795,
  "opes": 7796,
  "Ġcheers": 7797,
  "Ġsniffing": 7798,
  "Ġadults": 7799,
  "Birdy": 7800,
  "Ġunwra": 7801,
  "Ġpuck": 7802,
  "Ġfloats": 7803,
  "Ġopinions": 7804,
  "Buzzy": 7805,
  "ecca": 7806,
  "andas": 7807,
  "Instead": 7808,
  "Ġflown": 7809,
  "Ġscen": 7810,
  "Ġhandsome": 7811,
  "Ġsneezes": 7812,
  "ĠMint": 7813,
  "Ġnodding": 7814,
  "Ġ5": 7815,
  "Ġsmelling": 7816,
  "Ġburnt": 7817,
  "Ġdrifted": 7818,
  "ider": 7819,
  "Ġwithin": 7820,
  "bage": 7821,
  "Ġheight": 7822,
  "Ġscient": 7823,
  "Ġbothering": 7824,
  "Ġdamaged": 7825,
  "Ġtearing": 7826,
  "Ġslither": 7827,
  "Ġpleaded": 7828,
  "Ġinstruments": 7829,
  "Ġease": 7830,
  "ĠAli": 7831,
  "da": 7832,
  "Back": 7833,
  "ĠMarie": 7834,
  "Ġscientist": 7835,
  "Goodnight": 7836,
  "Mira": 7837,
  "Ġpound": 7838,
  "Ġhanding": 7839,
  "Ġseller": 7840,
  "ĠSay": 7841,
  "Ġgerm": 7842,
  "Ġwasting": 7843,
  "Ġfiles": 7844,
  "Ġdreamt": 7845,
  "Ġresults": 7846,
  "ĠMabel": 7847,
  "bell": 7848,
  "Ġexplains": 7849,
  "Ġdestroying": 7850,
  "Ġbrushing": 7851,
  "Ġhiss": 7852,
  "ousy": 7853,
  "ĠCr": 7854,
  "ĠRazor": 7855,
  "Ġcharacters": 7856,
  "ĠSte": 7857,
  "Carl": 7858,
  "Ġcertain": 7859,
  "ĠHug": 7860,
  "Pandy": 7861,
  "Behind": 7862,
  "Ġsweaty": 7863,
  "unched": 7864,
  "Ġbusiness": 7865,
  "ĠRobbie": 7866,
  "Ġonward": 7867,
  "Ġtalents": 7868,
  "Try": 7869,
  "Ġbravest": 7870,
  "Ġengines": 7871,
  "ition": 7872,
  "ĠPen": 7873,
  "ĠJanie": 7874,
  "Ġsternly": 7875,
  "Ġpostman": 7876,
  "Ġmosquitoes": 7877,
  "prints": 7878,
  "Ġminds": 7879,
  "cake": 7880,
  "Ġtuck": 7881,
  "under": 7882,
  "Ġscares": 7883,
  "Ġstomp": 7884,
  "Ġapologised": 7885,
  "urious": 7886,
  "uel": 7887,
  "Ġmanag": 7888,
  "Ġsnuck": 7889,
  "Ġbitten": 7890,
  "Ġreminding": 7891,
  "attered": 7892,
  "Ġswitched": 7893,
  "Ġtilted": 7894,
  "Ġdecisions": 7895,
  "Ġsingers": 7896,
  "Ġdesper": 7897,
  "ĠPoor": 7898,
  "Ġbehavior": 7899,
  "ashing": 7900,
  "ĠJudge": 7901,
  "bbers": 7902,
  "inny": 7903,
  "Ġsqueaked": 7904,
  "Ġpeeled": 7905,
  "ĠEverybody": 7906,
  "Ġpurrs": 7907,
  "Ġyumm": 7908,
  "ĠBra": 7909,
  "Ġtreated": 7910,
  "Ġdisplayed": 7911,
  "Ġrustling": 7912,
  "Ġsmashed": 7913,
  "ĠUntil": 7914,
  "Ġneatly": 7915,
  "Ġmatey": 7916,
  "ĠBess": 7917,
  "Ġplanting": 7918,
  "Ġmarshmallow": 7919,
  "Ġinsp": 7920,
  "Ġsy": 7921,
  "Ġcracks": 7922,
  "Ġbellies": 7923,
  "Ġyelped": 7924,
  "Ġgrandparents": 7925,
  "aver": 7926,
  "Ġscamp": 7927,
  "Ġshines": 7928,
  "ĠNavy": 7929,
  "Ġhoo": 7930,
  "Ġfailed": 7931,
  "Ġcoloring": 7932,
  "ĠYoga": 7933,
  "ĠMake": 7934,
  "line": 7935,
  "Ġzooms": 7936,
  "rup": 7937,
  "Ġbreathing": 7938,
  "Ġnasty": 7939,
  "Ġcombed": 7940,
  "Ġdespite": 7941,
  "Ġpandas": 7942,
  "Ġaddress": 7943,
  "ighing": 7944,
  "Ġwaterfall": 7945,
  "omp": 7946,
  "uffin": 7947,
  "cc": 7948,
  "ĠLoop": 7949,
  "ĠAngel": 7950,
  "Tilly": 7951,
  "Ġantic": 7952,
  "Ġwider": 7953,
  "Ġrobbers": 7954,
  "Ġdoorway": 7955,
  "ĠTodd": 7956,
  "Ġsweaters": 7957,
  "Play": 7958,
  "Abigail": 7959,
  "Ġechoed": 7960,
  "Ġedges": 7961,
  "evin": 7962,
  "Ġinj": 7963,
  "ĠShadow": 7964,
  "Aunt": 7965,
  "Ġgap": 7966,
  "ĠBlinky": 7967,
  "Ġdisobey": 7968,
  "wise": 7969,
  "Liz": 7970,
  "ĠMichael": 7971,
  "Ġtar": 7972,
  "ĠFlick": 7973,
  "Wake": 7974,
  "orking": 7975,
  "Ġmagnif": 7976,
  "Ġtaped": 7977,
  "oscope": 7978,
  "ulp": 7979,
  "father": 7980,
  "Ġaction": 7981,
  "Ġscolds": 7982,
  "Ġflaps": 7983,
  "Ġcrawls": 7984,
  "ĠMindy": 7985,
  "Ġbacks": 7986,
  "Ġswap": 7987,
  "ĠGary": 7988,
  "Ros": 7989,
  "Ġgobbled": 7990,
  "Ġwarri": 7991,
  "ĠFishy": 7992,
  "ĠEddie": 7993,
  "Ġsever": 7994,
  "Ġsteth": 7995,
  "Slow": 7996,
  "Ġshinier": 7997,
  "Ġnewspapers": 7998,
  "Ġprobably": 7999,
  "Ġocc": 8000,
  "Ġseveral": 8001,
  "Rock": 8002,
  "Ġencount": 8003,
  "ĠMeg": 8004,
  "Lena": 8005,
  "Ġquieter": 8006,
  "Ġserving": 8007,
  "Ġplucked": 8008,
  "Ġconnected": 8009,
  "tock": 8010,
  "ĠShare": 8011,
  "Ġouch": 8012,
  "igger": 8013,
  "Ted": 8014,
  "Adam": 8015,
  "Ġgesture": 8016,
  "Fl": 8017,
  "Ġplot": 8018,
  "Too": 8019,
  "Ġstudent": 8020,
  "Ġdoorbell": 8021,
  "Ġcares": 8022,
  "Ġsquaw": 8023,
  "ĠSe": 8024,
  "fire": 8025,
  "Ġgrandson": 8026,
  "Ġrescuing": 8027,
  "Ġgoo": 8028,
  "Ġspy": 8029,
  "Ġrows": 8030,
  "Ġsimply": 8031,
  "iel": 8032,
  "Ġwhistles": 8033,
  "mies": 8034,
  "vant": 8035,
  "Ġsnaps": 8036,
  "Shrink": 8037,
  "Magic": 8038,
  "Ġastronauts": 8039,
  "Ġshorter": 8040,
  "ĠTime": 8041,
  "ssss": 8042,
  "Ġunpacking": 8043,
  "Ġcottage": 8044,
  "Ġswo": 8045,
  "Ġaccidents": 8046,
  "Ġmood": 8047,
  "ĠNut": 8048,
  "ibi": 8049,
  "Ġswollen": 8050,
  "Steve": 8051,
  "ĠZippy": 8052,
  "abelle": 8053,
  "ĠMousy": 8054,
  "anie": 8055,
  "Zara": 8056,
  "Ġbothered": 8057,
  "Hannah": 8058,
  "Ġstethoscope": 8059,
  "found": 8060,
  "Ġtrusting": 8061,
  "Ġcausing": 8062,
  "Mat": 8063,
  "Mad": 8064,
  "Ġdresser": 8065,
  "Ġleapt": 8066,
  "Ġsou": 8067,
  "aint": 8068,
  "Ġpills": 8069,
  "Ġproper": 8070,
  "retty": 8071,
  "Ġthroughout": 8072,
  "Ġrunner": 8073,
  "ĠDina": 8074,
  "Ġprayers": 8075,
  "Olive": 8076,
  "Ġjoyful": 8077,
  "Thomas": 8078,
  "Ġlocks": 8079,
  "mates": 8080,
  "ĠPrince": 8081,
  "Ġgoats": 8082,
  "Jamie": 8083,
  "what": 8084,
  "Ġtarget": 8085,
  "rest": 8086,
  "ĠWait": 8087,
  "ĠKaren": 8088,
  "ĠBang": 8089,
  "Ġdears": 8090,
  "Red": 8091,
  "ĠCro": 8092,
  "artled": 8093,
  "Ġmunch": 8094,
  "Ġflips": 8095,
  "Ġwaddled": 8096,
  "Ġlowered": 8097,
  "Ġstepping": 8098,
  "Ġcons": 8099,
  "ĠJackie": 8100,
  "Ġteachers": 8101,
  "ĠToys": 8102,
  "Ġcowboy": 8103,
  "Ġinches": 8104,
  "Ġenvelopes": 8105,
  "Ġchar": 8106,
  "ears": 8107,
  "ĠVroom": 8108,
  "Ġexplorer": 8109,
  "Ġanticip": 8110,
  "Ġplayd": 8111,
  "ĠRuff": 8112,
  "ĠReady": 8113,
  "ĠRalph": 8114,
  "Nice": 8115,
  "Finn": 8116,
  "unity": 8117,
  "ĠBad": 8118,
  "ening": 8119,
  "ĠPl": 8120,
  "Ġfloors": 8121,
  "Ġknocking": 8122,
  "Ġefforts": 8123,
  "Ġuniforms": 8124,
  "ĠTri": 8125,
  "lied": 8126,
  "Ġaware": 8127,
  "Ġfootprints": 8128,
  "Ġnearly": 8129,
  "Someone": 8130,
  "ĠFiona": 8131,
  "llas": 8132,
  "ĠRia": 8133,
  "Ġdisc": 8134,
  "Ġtrot": 8135,
  "Ġglitt": 8136,
  "Ġsens": 8137,
  "Ġwhimp": 8138,
  "ivi": 8139,
  "Ġappreciation": 8140,
  "oosh": 8141,
  "Ġchecks": 8142,
  "Ġnecks": 8143,
  "Ġcollap": 8144,
  "Ġlapt": 8145,
  "Ġexcept": 8146,
  "Ġplug": 8147,
  "ĠJacky": 8148,
  "Ġcharge": 8149,
  "Ġfluttering": 8150,
  "Ġumbrellas": 8151,
  "Ġstamped": 8152,
  "acy": 8153,
  "Ġsandcastles": 8154,
  "ĠDavey": 8155,
  "ĠHoney": 8156,
  "Ġstatues": 8157,
  "omb": 8158,
  "ails": 8159,
  "Ġshrank": 8160,
  "Hoppy": 8161,
  "ĠAmelia": 8162,
  "iscuit": 8163,
  "rily": 8164,
  "Ġprick": 8165,
  "Ġadds": 8166,
  "Ġfinishing": 8167,
  "rons": 8168,
  "Ġchocolates": 8169,
  "Ġhunters": 8170,
  "Ġstroll": 8171,
  "Ġdodged": 8172,
  "Ġpassengers": 8173,
  "Ġgerms": 8174,
  "oger": 8175,
  "Ġwrigg": 8176,
  "Ġaisle": 8177,
  "Ġaprons": 8178,
  "Ġsets": 8179,
  "ĠGerry": 8180,
  ".'\"": 8181,
  "Ġnovels": 8182,
  "Ġweeds": 8183,
  "ĠTaking": 8184,
  "order": 8185,
  "Ġdemanding": 8186,
  "Ġscratching": 8187,
  "Ġmeows": 8188,
  "Dr": 8189,
  "issa": 8190,
  "Ġnurses": 8191,
  "Lucky": 8192,
  "Ġminding": 8193,
  "Ġdiscussing": 8194,
  "Ġdriveway": 8195,
  "urrender": 8196,
  "ĠCari": 8197,
  "Ġkilled": 8198,
  "Ġbecomes": 8199,
  "Ġhaird": 8200,
  "Ġtoolbox": 8201,
  "ĠEliz": 8202,
  "Ġlaptop": 8203,
  "Ġattack": 8204,
  "Ġposit": 8205,
  "ĠSadie": 8206,
  "ĠDespite": 8207,
  "ĠGl": 8208,
  "Speedy": 8209,
  "sol": 8210,
  "Ġbounces": 8211,
  "Ġscampered": 8212,
  "Ġdeed": 8213,
  "Ġsprays": 8214,
  "Ġsupplied": 8215,
  "Ġtempt": 8216,
  "Ġburns": 8217,
  "Ġfriendships": 8218,
  "Ġsuggestion": 8219,
  "Ġclosing": 8220,
  "Ġslapping": 8221,
  "Coco": 8222,
  "Ġbelongings": 8223,
  "Ġinvites": 8224,
  "Arrr": 8225,
  "Ġanticipation": 8226,
  "Ġform": 8227,
  "ĠStan": 8228,
  "Ġspringing": 8229,
  "Ġerase": 8230,
  "Ġcotton": 8231,
  "Ġtwists": 8232,
  "Ġrays": 8233,
  "Ġforgives": 8234,
  "Ġsnuggle": 8235,
  "Ġmodels": 8236,
  "Ġshall": 8237,
  "Ġhumming": 8238,
  "Ġmassages": 8239,
  "onnie": 8240,
  "Ġresponded": 8241,
  "Ġnewfound": 8242,
  "ĠShelly": 8243,
  "Ġghosts": 8244,
  "Ġexpecting": 8245,
  "Ġcheated": 8246,
  "Does": 8247,
  "ĠWooly": 8248,
  "Gigi": 8249,
  "otte": 8250,
  "ĠNe": 8251,
  "Ġtraveling": 8252,
  "Ġcond": 8253,
  "Ġalthough": 8254,
  "Ġbattle": 8255,
  "alloween": 8256,
  "Ġmommies": 8257,
  "Ġaim": 8258,
  "Ġcarries": 8259,
  "Ġinvitations": 8260,
  "Ġrefreshing": 8261,
  "Ġconc": 8262,
  "Ġpresented": 8263,
  "hel": 8264,
  "ĠBumpy": 8265,
  "Ġrowed": 8266,
  "Ġtwenty": 8267,
  "ots": 8268,
  "Ġsquir": 8269,
  "rie": 8270,
  "Ġfoxes": 8271,
  "Ġcooper": 8272,
  "arlotte": 8273,
  "Ġfinal": 8274,
  "Ġduckling": 8275,
  "Ġcafe": 8276,
  "ĠBibi": 8277,
  "Pip": 8278,
  "Ġmarshmallows": 8279,
  "Ġclicked": 8280,
  "ĠZipper": 8281,
  "oor": 8282,
  "Ġjets": 8283,
  "Ġdesigning": 8284,
  "Ġbeaver": 8285,
  "five": 8286,
  "ĠMuffin": 8287,
  "ĠHalloween": 8288,
  "Ġmugs": 8289,
  "ĠWhoever": 8290,
  "Ġdrown": 8291,
  "ĠAlthough": 8292,
  "Ġpicnics": 8293,
  "ĠRuth": 8294,
  "Ġtricycle": 8295,
  "Ġconvin": 8296,
  "Ġoppos": 8297,
  "ĠExcited": 8298,
  "ĠCle": 8299,
  "iens": 8300,
  "po": 8301,
  "ĠPop": 8302,
  "Ġscoops": 8303,
  "ĠMaddie": 8304,
  "Ġcongratul": 8305,
  "Ġtravels": 8306,
  "ĠâĢĶ": 8307,
  "Sadly": 8308,
  "Ġaliens": 8309,
  "Ġtests": 8310,
  "Ġquestioned": 8311,
  "ĠSpeed": 8312,
  "inted": 8313,
  "Ġcraft": 8314,
  "Ġstrips": 8315,
  "Near": 8316,
  "Mouse": 8317,
  "atty": 8318,
  "Ġdefe": 8319,
  "ĠFlutter": 8320,
  "covered": 8321,
  "ĠBubba": 8322,
  "iri": 8323,
  "Br": 8324,
  "Ġfights": 8325,
  "Ball": 8326,
  "roken": 8327,
  "ĠBiggy": 8328,
  "Ġopposite": 8329,
  "ĠIm": 8330,
  "Find": 8331,
  "Elly": 8332,
  "Hmm": 8333,
  "Chloe": 8334,
  "Ġrout": 8335,
  "ĠNever": 8336,
  "Ġafford": 8337,
  "Ġgrandfather": 8338,
  "Ġencountered": 8339,
  "Ġdecl": 8340,
  "inch": 8341,
  "Ġraising": 8342,
  "iment": 8343,
  "Ġupside": 8344,
  "ĠVivi": 8345,
  "Jess": 8346,
  "Ġcalmly": 8347,
  "Ġflashed": 8348,
  "ĠRita": 8349,
  "Meanwhile": 8350,
  "Ġyawning": 8351,
  "Ġrealizes": 8352,
  "Ġsincere": 8353,
  "Ġbuddy": 8354,
  "Ġcrystals": 8355,
  "Choo": 8356,
  "Trust": 8357,
  "aturday": 8358,
  "ĠSamantha": 8359,
  "Ġbuckled": 8360,
  "Ġcupcakes": 8361,
  "Both": 8362,
  "byes": 8363,
  "Ġwinners": 8364,
  "Ġdefin": 8365,
  "ris": 8366,
  "verse": 8367,
  "',": 8368,
  "Ġcaw": 8369,
  "Ġweapons": 8370,
  "Ġcheat": 8371,
  "Josh": 8372,
  "shadow": 8373,
  "Ġpackages": 8374,
  "ĠSaturday": 8375,
  "Ġcoach": 8376,
  "Ġattem": 8377,
  "Ġsacks": 8378,
  "Ġmesses": 8379,
  "Ġgoodbyes": 8380,
  "quet": 8381,
  "ĠTruck": 8382,
  "ĠFlo": 8383,
  "Ġconvers": 8384,
  "val": 8385,
  "Ġdrift": 8386,
  "ĠMina": 8387,
  "Ġcaps": 8388,
  "ĠEva": 8389,
  "Ġenem": 8390,
  "Ġenemies": 8391,
  "asha": 8392,
  "Ġscrub": 8393,
  "Ġyummiest": 8394,
  "Ġreturning": 8395,
  "Ġswallow": 8396,
  "rian": 8397,
  "Ġadmiration": 8398,
  "ĠMegan": 8399,
  "ĠSofty": 8400,
  "Ġsprout": 8401,
  "Since": 8402,
  "ĠLouise": 8403,
  "Ġunable": 8404,
  "ĠAnother": 8405,
  "ĠPlaying": 8406,
  "ooks": 8407,
  "Ġsadder": 8408,
  "Ġbless": 8409,
  "Ġbrightest": 8410,
  "ugging": 8411,
  "Ġfreezing": 8412,
  "ĠYawn": 8413,
  "ĠMan": 8414,
  "Ġrespon": 8415,
  "ĠOh": 8416,
  "Ġcosy": 8417,
  "reverse": 8418,
  "Ġresponse": 8419,
  "Ġbride": 8420,
  "Ġdiamonds": 8421,
  "Ġreapp": 8422,
  "stalk": 8423,
  "Ġhonking": 8424,
  "Ġopport": 8425,
  "Ġgarbage": 8426,
  "Ġstretches": 8427,
  "Ġprevented": 8428,
  "Ġwhispering": 8429,
  "erk": 8430,
  "Ġodd": 8431,
  "Ġwhoever": 8432,
  "ĠGray": 8433,
  "antastic": 8434,
  "Ġawful": 8435,
  "alth": 8436,
  "Ġjourneys": 8437,
  "Ġweighs": 8438,
  "Ġawoke": 8439,
  "Ġtraps": 8440,
  "Brrr": 8441,
  "Ġdragonfly": 8442,
  "Ġspices": 8443,
  "off": 8444,
  "Ġborn": 8445,
  "Ġclip": 8446,
  "Ġreassured": 8447,
  "Ġstall": 8448,
  "ivia": 8449,
  "Ġargum": 8450,
  "Ġbeanstalk": 8451,
  "ĠMaisy": 8452,
  "Ġbeetles": 8453,
  "Ġautomobiles": 8454,
  "Ġexamining": 8455,
  "Ġdefinitely": 8456,
  "ici": 8457,
  "Hop": 8458,
  "mine": 8459,
  "Ġvisitors": 8460,
  "Ġstuffing": 8461,
  "Ġplaydate": 8462,
  "Ġwashes": 8463,
  "cie": 8464,
  "broken": 8465,
  "Ġwiser": 8466,
  "Ġcustomer": 8467,
  "emma": 8468,
  "ĠJolly": 8469,
  "uper": 8470,
  "ĠFlop": 8471,
  "Rachel": 8472,
  "ĠSofia": 8473,
  "Ġtravelling": 8474,
  "Ġbou": 8475,
  "ĠNurse": 8476,
  "Ġhairdress": 8477,
  "Ġbouquet": 8478,
  ",'": 8479,
  "orse": 8480,
  "bble": 8481,
  "Ġdecoration": 8482,
  "Ġtumbled": 8483,
  "ĠElle": 8484,
  "Ġcampfire": 8485,
  "Ġbud": 8486,
  "Ġhonesty": 8487,
  "vy": 8488,
  "Only": 8489,
  "ebecca": 8490,
  "Ġbomb": 8491,
  "Ġoffering": 8492,
  "Ġwelcoming": 8493,
  "ĠJax": 8494,
  "ĠOt": 8495,
  "ĠHello": 8496,
  "Ġincreasing": 8497,
  "Ġtroubles": 8498,
  "Ġoccas": 8499,
  "Ġwealth": 8500,
  "Ġloudest": 8501,
  "Ġinspired": 8502,
  "Ġparted": 8503,
  "ĠChick": 8504,
  "Ġgroan": 8505,
  "Ġtype": 8506,
  "ĠNutty": 8507,
  "irac": 8508,
  "ĠRicky": 8509,
  "Ġwhales": 8510,
  "ĠThunder": 8511,
  "yl": 8512,
  "Ġdeclared": 8513,
  "Ġcorrectly": 8514,
  "ooky": 8515,
  "fus": 8516,
  "Ġbeaks": 8517,
  "yler": 8518,
  "ĠQuacky": 8519,
  "Ġcleared": 8520,
  "athan": 8521,
  "Ġcowboys": 8522,
  "ĠDotty": 8523,
  "Ġnuzzled": 8524,
  "Ġexch": 8525,
  "Ġprizes": 8526,
  "Ġwarmly": 8527,
  "Finny": 8528,
  "ĠMissile": 8529,
  "Ġrewards": 8530,
  "Ġobeyed": 8531,
  "Ġcustomers": 8532,
  "ĠFel": 8533,
  "Ġcomforting": 8534,
  "Should": 8535,
  "Ġsirens": 8536,
  "ĠFlappy": 8537,
  "shaped": 8538,
  "Ġconnect": 8539,
  "Ġtowns": 8540,
  "match": 8541,
  "ĠMagic": 8542,
  "ĠBingo": 8543,
  "Ġrely": 8544,
  "ĠVicky": 8545,
  "elieve": 8546,
  "ĠFe": 8547,
  "Ġowns": 8548,
  "Honey": 8549,
  "Ġbends": 8550,
  "Ġinsisting": 8551,
  "Ġtrigger": 8552,
  "Ġfantastic": 8553,
  "Ġspoiling": 8554,
  "Ġhairdresser": 8555,
  "Ġshares": 8556,
  "Ġcleans": 8557,
  "Ġposes": 8558,
  "Ġsupporting": 8559,
  "Ġsurrendered": 8560,
  "Ġpipes": 8561,
  "Sun": 8562,
  "ĠCook": 8563,
  "rench": 8564,
  "Outside": 8565,
  "Julie": 8566,
  "Ġwrinkled": 8567,
  "Ġchopped": 8568,
  "Ġmoons": 8569,
  "Ġbeaming": 8570,
  "Ġrecorder": 8571,
  "unes": 8572,
  "ellow": 8573,
  "Ġthanking": 8574,
  "Ġsnowy": 8575,
  "Beth": 8576,
  "ĠWolf": 8577,
  "Ġenjoyable": 8578,
  "Ġactive": 8579,
  "Ġexperien": 8580,
  "Ġscurry": 8581,
  "Ġcoral": 8582,
  "ĠPiggy": 8583,
  "Ġdollar": 8584,
  "Ġenviron": 8585,
  "ĠKevin": 8586,
  "Ġloc": 8587,
  "worm": 8588,
  "elope": 8589,
  "Je": 8590,
  "ĠBub": 8591,
  "Ġstreamers": 8592,
  "ĠMother": 8593,
  "ĠPatty": 8594,
  "udged": 8595,
  "ĠZack": 8596,
  "inger": 8597,
  "Ġexamp": 8598,
  "Suzy": 8599,
  "Ġshorts": 8600,
  "Ġshooed": 8601,
  "Ġenvironment": 8602,
  "Ġill": 8603,
  "Tree": 8604,
  "Ġscent": 8605,
  "Ġbruises": 8606,
  "ĠLuc": 8607,
  "uster": 8608,
  "Ġgrat": 8609,
  "Bo": 8610,
  "Ġhisses": 8611,
  "Ġself": 8612,
  "Ġplugged": 8613,
  "Ġsteering": 8614,
  "ĠElsa": 8615,
  "Ġwarrior": 8616,
  "Ġvisits": 8617,
  "Ġexercises": 8618,
  "irl": 8619,
  "ĠMin": 8620,
  "ĠAr": 8621,
  "ĠRel": 8622,
  "screen": 8623,
  "Ġcuddles": 8624,
  "aptain": 8625,
  "Ġdangers": 8626,
  "Ġsquished": 8627,
  "Ġunfortunately": 8628,
  "Ġsigning": 8629,
  "ĠLight": 8630,
  "Ray": 8631,
  "bee": 8632,
  "Ġdisappoint": 8633,
  "Ġpilots": 8634,
  "munk": 8635,
  "Ġapplauding": 8636,
  "Ġgratitude": 8637,
  "ĠMoppy": 8638,
  "Ġproviding": 8639,
  "Ġting": 8640,
  "alf": 8641,
  "ĠRub": 8642,
  "Ġtickles": 8643,
  "Ġbadger": 8644,
  "Ġnights": 8645,
  "Ġjud": 8646,
  "Grow": 8647,
  "Ġstorms": 8648,
  "ĠElsie": 8649,
  "Ġconvinced": 8650,
  "Ġyoun": 8651,
  "ĠKelly": 8652,
  "Ġresponsib": 8653,
  "Ġchoosing": 8654,
  "Joy": 8655,
  "Ġbrains": 8656,
  "Ġactivity": 8657,
  "Ġnearest": 8658,
  "Ġyoungest": 8659,
  "Abby": 8660,
  "Ġexploded": 8661,
  "Ġarranged": 8662,
  "Ġcoughed": 8663,
  "ĠTre": 8664,
  "ĠFly": 8665,
  "Ġrewarding": 8666,
  "Claire": 8667,
  "pr": 8668,
  "Ġbond": 8669,
  "good": 8670,
  "Ġpeep": 8671,
  "ĠFloppy": 8672,
  "erpiece": 8673,
  "Ġsunscreen": 8674,
  "Mon": 8675,
  "asers": 8676,
  "ĠJoan": 8677,
  "ĠSweet": 8678,
  "ĠTweety": 8679,
  "ĠKaty": 8680,
  "ĠSal": 8681,
  "ilities": 8682,
  "Ġannoying": 8683,
  "sn": 8684,
  "Ġsoapy": 8685,
  "meow": 8686,
  "Splash": 8687,
  "Ġrails": 8688,
  "Ġlaces": 8689,
  "Ġoffic": 8690,
  "ĠPine": 8691,
  "Ġthreads": 8692,
  "Ġtapping": 8693,
  "Ġappreciated": 8694,
  "ĠPhil": 8695,
  "ĠPick": 8696,
  "boards": 8697,
  "Ġemerged": 8698,
  "Ġweighing": 8699,
  "Ġcongratulated": 8700,
  "Ġheartbroken": 8701,
  "Ġtin": 8702,
  "ĠSil": 8703,
  "Danger": 8704,
  "Ġcrocodiles": 8705,
  "Ġclerk": 8706,
  "Ġscram": 8707,
  "ĠNancy": 8708,
  "Ġattempt": 8709,
  "ĠAny": 8710,
  "Ġsnug": 8711,
  "Ġdial": 8712,
  "ĠKay": 8713,
  "Ġmessed": 8714,
  "water": 8715,
  "Ahoy": 8716,
  "Ġexample": 8717,
  "Momma": 8718,
  "Ġhooks": 8719,
  "ĠJonny": 8720,
  "Ġtops": 8721,
  "Ġchipmunk": 8722,
  "Ġsoot": 8723,
  "Ġbathed": 8724,
  "Ġguarding": 8725,
  "ĠTippy": 8726,
  "Ġmanager": 8727,
  "ortunately": 8728,
  "ĠMicroscope": 8729,
  "Friends": 8730,
  "ĠDe": 8731,
  "etah": 8732,
  "ĠBaa": 8733,
  "Snowy": 8734,
  "Ġmasterpiece": 8735,
  "Ġerasers": 8736,
  "Ġfet": 8737,
  "ĠTomorrow": 8738,
  "Ġtips": 8739,
  "Ġfinishes": 8740,
  "Ġcommon": 8741,
  "Ġdigs": 8742,
  "Ġmemb": 8743,
  "Ġnibbled": 8744,
  "Ġtrotted": 8745,
  "Ġmembers": 8746,
  "Ġkinder": 8747,
  "People": 8748,
  "Ġcheetah": 8749,
  "Ġchews": 8750,
  "Ġblond": 8751,
  "Ġparticularly": 8752,
  "Ġbeast": 8753,
  "ircle": 8754,
  "Ġrips": 8755,
  "Lizzy": 8756,
  "Ġargument": 8757,
  "Ġfaith": 8758,
  "ative": 8759,
  "ĠHelping": 8760,
  "Ġearned": 8761,
  "ĠJoke": 8762,
  "Ġobserving": 8763,
  "Anne": 8764,
  "Ġforgiveness": 8765,
  "ĠCici": 8766,
  "Ġcheaper": 8767,
  "ĠJumpy": 8768,
  "Ġfishes": 8769,
  "Ġcurl": 8770,
  "Ġmischie": 8771,
  "Ġinstantly": 8772,
  "Ġexperienced": 8773,
  "Ġcages": 8774,
  "ĠTwist": 8775,
  "Ġgenerosity": 8776,
  "Rosie": 8777,
  "Ġmischievous": 8778,
  "Gr": 8779,
  "Ġfoam": 8780,
  "Ġmeowing": 8781,
  "Baa": 8782,
  "ĠAg": 8783,
  "Ġstores": 8784,
  "mered": 8785,
  "Ġgrandd": 8786,
  "Cindy": 8787,
  "Ġmattered": 8788,
  "etchup": 8789,
  "Ġteles": 8790,
  "Ġlimp": 8791,
  "Ġpasses": 8792,
  "Ġsleeps": 8793,
  "Sque": 8794,
  "Ġbreaths": 8795,
  "iolet": 8796,
  "Ġrin": 8797,
  "ending": 8798,
  "ordinary": 8799,
  "Ġgasps": 8800,
  "ĠFreddie": 8801,
  "ettle": 8802,
  "Ġtrans": 8803,
  "Got": 8804,
  "Ġhatch": 8805,
  "ĠMomma": 8806,
  "Ġrumbling": 8807,
  "over": 8808,
  "abra": 8809,
  "ĠHopper": 8810,
  "Ġaccomplished": 8811,
  "Ġgrassho": 8812,
  "Ġthump": 8813,
  "Ġstrum": 8814,
  "acing": 8815,
  "Ġmats": 8816,
  "Ġsmartest": 8817,
  "Ġtelescope": 8818,
  "Ġmoat": 8819,
  "Ġwhined": 8820,
  "ĠIce": 8821,
  "Ġfarmers": 8822,
  "Ġjugg": 8823,
  "Gina": 8824,
  "Ġscrambled": 8825,
  "Ġdrip": 8826,
  "ĠMore": 8827,
  "Ġgardens": 8828,
  "Robbie": 8829,
  "Ġsyrup": 8830,
  "Ġcollapsed": 8831,
  "Ġangrily": 8832,
  "idey": 8833,
  "Ġforests": 8834,
  "Ġvegg": 8835,
  "Ġdiscoveries": 8836,
  "Ġstyles": 8837,
  "ouraged": 8838,
  "Ġexperiences": 8839,
  "Ġtor": 8840,
  "Ġmedals": 8841,
  "hole": 8842,
  "Ġmeaning": 8843,
  "Ġconqu": 8844,
  "ĠDoes": 8845,
  "Ġotters": 8846,
  "Ġtypes": 8847,
  "Ġfaint": 8848,
  "pit": 8849,
  "Ġfif": 8850,
  "acock": 8851,
  "Ġhardest": 8852,
  "Ġsnapping": 8853,
  "adabra": 8854,
  "ering": 8855,
  "Ġexpression": 8856,
  "Ġmovements": 8857,
  "Ġchilly": 8858,
  "Ġbubbly": 8859,
  "Ġsurv": 8860,
  "Ġaffect": 8861,
  "Ġcourt": 8862,
  "Pinky": 8863,
  "Ġvests": 8864,
  "Ġunfair": 8865,
  "Whenever": 8866,
  "Ġscores": 8867,
  "Ġtoothbrush": 8868,
  "Ġextraordinary": 8869,
  "Never": 8870,
  "Ġattitude": 8871,
  "Ġhorri": 8872,
  "Ġvibr": 8873,
  "ĠMonkey": 8874,
  "Ġbluebird": 8875,
  "Mo": 8876,
  "lls": 8877,
  "mel": 8878,
  "Ġspears": 8879,
  "Ġketchup": 8880,
  "ĠBerry": 8881,
  "Mother": 8882,
  "Ġsooner": 8883,
  "Ġbehaviour": 8884,
  "Ġgrasshopper": 8885,
  "Ġhabit": 8886,
  "Ġpatches": 8887,
  "yd": 8888,
  "Ġmomma": 8889,
  "erts": 8890,
  "Ġafar": 8891,
  "Ġpokes": 8892,
  "ĠAshley": 8893,
  "Karen": 8894,
  "lo": 8895,
  "Ġscri": 8896,
  "ĠFriend": 8897,
  "Ġthie": 8898,
  "Ġthicker": 8899,
  "Jacob": 8900,
  "Jon": 8901,
  "ĠFle": 8902,
  "ĠTerry": 8903,
  "Ġshrunk": 8904,
  "Ġicky": 8905,
  "Ġsqueezes": 8906,
  "Ġslithered": 8907,
  "Ġclassmates": 8908,
  "Ġglittering": 8909,
  "Ġprickly": 8910,
  "Ġexpert": 8911,
  "Ġtopp": 8912,
  "Ġkneeling": 8913,
  "Ġannounced": 8914,
  "ĠRiri": 8915,
  "ĠSuper": 8916,
  "elling": 8917,
  "Ġmarking": 8918,
  "Ġpeacock": 8919,
  "ĠCally": 8920,
  "Ġcosts": 8921,
  "ctric": 8922,
  "ĠAchoo": 8923,
  "Ġzigzags": 8924,
  "Ġwatermel": 8925,
  "Ġthieves": 8926,
  "ĠApp": 8927,
  "Ġhood": 8928,
  "Ġjumper": 8929,
  "ĠZog": 8930,
  "Ġacts": 8931,
  "Ġskirts": 8932,
  "Ġwolves": 8933,
  "ĠCloud": 8934,
  "ĠSwim": 8935,
  "Ġsqueaky": 8936,
  "Ġthumbs": 8937,
  "Ġconcer": 8938,
  "Papa": 8939,
  "Ġcocoon": 8940,
  "Ġboards": 8941,
  "Ġwoodcut": 8942,
  "ĠBecky": 8943,
  "ĠEliza": 8944,
  "Ġservant": 8945,
  "idence": 8946,
  "affle": 8947,
  "Ġcheating": 8948,
  "ĠJason": 8949,
  "bu": 8950,
  "Ġraking": 8951,
  "Ġtrading": 8952,
  "cat": 8953,
  "Ġexplaining": 8954,
  "Jessie": 8955,
  "ĠEric": 8956,
  "rick": 8957,
  "Ġtidied": 8958,
  "Ġbiscuit": 8959,
  "ĠAc": 8960,
  "Ġlunchtime": 8961,
  "Ġluckily": 8962,
  "ĠPuffy": 8963,
  "anced": 8964,
  "Frog": 8965,
  "Ġspilling": 8966,
  "ĠDay": 8967,
  "Fire": 8968,
  "ĠUse": 8969,
  "ĠAnimal": 8970,
  "ĠMaddy": 8971,
  "ĠDaniel": 8972,
  "Ġtransform": 8973,
  "Ġdesserts": 8974,
  "ror": 8975,
  "âĢ¦": 8976,
  "ĠMine": 8977,
  "ĠPig": 8978,
  "ĠGill": 8979,
  "ĠStill": 8980,
  "rough": 8981,
  "amma": 8982,
  "Ġmessages": 8983,
  "Ġmirac": 8984,
  "ĠCaptain": 8985,
  "idy": 8986,
  "Ġchill": 8987,
  "ĠGilly": 8988,
  "ĠLung": 8989,
  "Ġbeating": 8990,
  "Ġwindowsill": 8991,
  "ĠTammy": 8992,
  "oot": 8993,
  "Ġseeking": 8994,
  "Ġactor": 8995,
  "ĠLina": 8996,
  "ĠRainbow": 8997,
  "ĠWilliam": 8998,
  "its": 8999,
  "sse": 9000,
  "ĠMath": 9001,
  "Any": 9002,
  "Ġforeshadow": 9003,
  "pril": 9004,
  "war": 9005,
  "ĠHi": 9006,
  "acles": 9007,
  "ĠStep": 9008,
  "Ġleans": 9009,
  "Bluey": 9010,
  "ĠPinch": 9011,
  "Ġdev": 9012,
  "Ġcloths": 9013,
  "ĠTiger": 9014,
  "Freeze": 9015,
  "Ġhissing": 9016,
  "ĠFrankie": 9017,
  "ĠMonster": 9018,
  "Bounce": 9019,
  "Ġflashing": 9020,
  "racadabra": 9021,
  "Ġwatermelon": 9022,
  "Ġfunn": 9023,
  "ĠWil": 9024,
  "Ġwinding": 9025,
  "Ġpositive": 9026,
  "Ġdiscouraged": 9027,
  "pop": 9028,
  "Ġdripped": 9029,
  "Ġforts": 9030,
  "Ġcompete": 9031,
  "Ġwoodcutter": 9032,
  "Ġteapot": 9033,
  "Ġpressing": 9034,
  "Ġdisagreeing": 9035,
  "icking": 9036,
  "Ġglimmering": 9037,
  "Ġtidying": 9038,
  "Ġtrusts": 9039,
  "Ġkangaroos": 9040,
  "Ġveggies": 9041,
  "ĠPeep": 9042,
  "Ġlanding": 9043,
  "Ġtempted": 9044,
  "ĠFlora": 9045,
  "Ġdock": 9046,
  "Ġoverw": 9047,
  "Ġformed": 9048,
  "Ġshallow": 9049,
  "Ġrack": 9050,
  "Ġfade": 9051,
  "lers": 9052,
  "ĠTooth": 9053,
  "Ġworst": 9054,
  "Ġcops": 9055,
  "flowers": 9056,
  "Ġelectric": 9057,
  "eling": 9058,
  "Ġapology": 9059,
  "Nothing": 9060,
  "ai": 9061,
  "iving": 9062,
  "ĠLife": 9063,
  "creams": 9064,
  "Ġsleds": 9065,
  "ĠSilver": 9066,
  "Ġass": 9067,
  "upid": 9068,
  "Ġcomets": 9069,
  "Ġsav": 9070,
  "ĠMag": 9071,
  "ĠJelly": 9072,
  "ĠShark": 9073,
  "Owl": 9074,
  "Ġ4": 9075,
  "Bug": 9076,
  "Ġpapa": 9077,
  "Ġsituations": 9078,
  "Ġconversation": 9079,
  "Ġofficers": 9080,
  "Rain": 9081,
  "ĠRoger": 9082,
  "ĠCharlotte": 9083,
  "aye": 9084,
  "Ġding": 9085,
  "Ġsuns": 9086,
  "storm": 9087,
  "ĠButter": 9088,
  "âĢĿ,": 9089,
  "Ġpizzas": 9090,
  "Ġzips": 9091,
  "Ġmiller": 9092,
  "Ġstructures": 9093,
  "Ġscurrying": 9094,
  "Ġoverwhel": 9095,
  "Ġfoggy": 9096,
  "ĠAmber": 9097,
  "ĠHurry": 9098,
  "ĠOlivia": 9099,
  "Ġgranddaughter": 9100,
  "ĠJaney": 9101,
  "Zoe": 9102,
  "Ġwebs": 9103,
  "Ġdeserved": 9104,
  "Rabbit": 9105,
  "ĠYummy": 9106,
  "Ġcubs": 9107,
  "ĠMixie": 9108,
  "ĠSasha": 9109,
  "Ġopportunity": 9110,
  "ĠBuster": 9111,
  "ĠSpidey": 9112,
  "ĠGold": 9113,
  "Ġrhino": 9114,
  "Ġdifferences": 9115,
  "Ġsnorted": 9116,
  "ĠTell": 9117,
  "Ġquacking": 9118,
  "ended": 9119,
  "ifully": 9120,
  "ĠBirds": 9121,
  "Fifi": 9122,
  "Ġheaven": 9123,
  "Ġunlo": 9124,
  "Ġlevers": 9125,
  "Ġinchworm": 9126,
  "Ġinter": 9127,
  "Ġapproach": 9128,
  "ĠTyler": 9129,
  "ĠBoom": 9130,
  "Ġseagulls": 9131,
  "Ġcooperate": 9132,
  "ĠRufus": 9133,
  "ĠFelix": 9134,
  "Ġposse": 9135,
  "Ġpossess": 9136,
  "of": 9137,
  "Ġpose": 9138,
  "sers": 9139,
  "?âĢĿ.": 9140,
  "ragon": 9141,
  "welcome": 9142,
  "andra": 9143,
  "ĠSmoke": 9144,
  "Ġdisappointment": 9145,
  "ocular": 9146,
  "Ġspeaks": 9147,
  "Ġsneaks": 9148,
  "Ġartwork": 9149,
  "snap": 9150,
  "Ġbinocular": 9151,
  "Ġscowl": 9152,
  "Ġanswering": 9153,
  "ĠSnake": 9154,
  "Ġsurfed": 9155,
  "ĠGrand": 9156,
  "Ġshortcut": 9157,
  "Ġdep": 9158,
  "Ġsipped": 9159,
  "Ġrobin": 9160,
  "Climb": 9161,
  "ĠInky": 9162,
  "Ġarrest": 9163,
  "Ġreun": 9164,
  "ssy": 9165,
  "Ġamused": 9166,
  "Ġribbit": 9167,
  "ĠAmanda": 9168,
  "Ġunwrapped": 9169,
  "ugar": 9170,
  "Ġrepeats": 9171,
  "Ġapplause": 9172,
  "Ġpepperoni": 9173,
  "ĠCars": 9174,
  "Ġcheckout": 9175,
  "ĠMae": 9176,
  "Ġkeyhole": 9177,
  "Lia": 9178,
  "Ġvisitor": 9179,
  "Ġstriking": 9180,
  "Ġpaddling": 9181,
  "Ġpuppets": 9182,
  "Deal": 9183,
  "Eat": 9184,
  "Ġunz": 9185,
  "Ġcroaked": 9186,
  "Ġattacked": 9187,
  "ĠBrian": 9188,
  "ĠCircle": 9189,
  "ĠGus": 9190,
  "orsie": 9191,
  "ĠOtto": 9192,
  "Ġspooky": 9193,
  "Each": 9194,
  "ĠJean": 9195,
  "Ġgroaned": 9196,
  "Ġbeautifully": 9197,
  "gar": 9198,
  "cidents": 9199,
  "Ġchecking": 9200,
  "Ġswimsuits": 9201,
  "Ġconsider": 9202,
  "uses": 9203,
  "ĠYellow": 9204,
  "Ġwaters": 9205,
  "Ġgroom": 9206,
  "jest": 9207,
  "ĠSqueak": 9208,
  "ĠSlinky": 9209,
  "yle": 9210,
  "Ġinvent": 9211,
  "Ġnets": 9212,
  "Ġexams": 9213,
  "Luke": 9214,
  "ets": 9215,
  "otion": 9216,
  "Ġdrying": 9217,
  "ĠRebecca": 9218,
  "Ġlump": 9219,
  "agine": 9220,
  "udy": 9221,
  "artin": 9222,
  "ĠAuntie": 9223,
  "Ġshrugs": 9224,
  "lest": 9225,
  "sie": 9226,
  "Ġshyly": 9227,
  "Ġcheerfully": 9228,
  "Ġshoots": 9229,
  "ĠSince": 9230,
  "Ġheels": 9231,
  "Ġsobbing": 9232,
  "Ġhonks": 9233,
  "ili": 9234,
  "Ġshh": 9235,
  "hny": 9236,
  "Ġchin": 9237,
  "esses": 9238,
  "anish": 9239,
  "Ġhangs": 9240,
  "Ġhealthier": 9241,
  "Ġwhimpered": 9242,
  "ĠMus": 9243,
  "icious": 9244,
  "Milo": 9245,
  "Ġcaterpillars": 9246,
  "Ġfries": 9247,
  "izzes": 9248,
  "Ġmagnifying": 9249,
  "Slowly": 9250,
  "Ġsquinted": 9251,
  "ĠRatty": 9252,
  "ĠFind": 9253,
  "Ġblamed": 9254,
  "Ġfascinating": 9255,
  "ching": 9256,
  "ĠTip": 9257,
  "Ġfrustration": 9258,
  "Ġsculp": 9259,
  "Ġsculpture": 9260,
  "ouched": 9261,
  "Ġshimmering": 9262,
  "ĠPenelope": 9263,
  "Ġposs": 9264,
  "ĠPeace": 9265,
  "edic": 9266,
  "Ġsuck": 9267,
  "Ġnumbered": 9268,
  "Ġpleas": 9269,
  "Sharing": 9270,
  "Ġnibble": 9271,
  "ĠWaffle": 9272,
  "amil": 9273,
  "ellie": 9274,
  "othy": 9275,
  "Ġflowing": 9276,
  "Ġbaa": 9277,
  "ibbles": 9278,
  "hings": 9279,
  "ĠOff": 9280,
  "Ġraked": 9281,
  "Ġgrumbled": 9282,
  "Pepper": 9283,
  "that": 9284,
  "Ġbuilder": 9285,
  "Bubbles": 9286,
  "eat": 9287,
  "Ġguards": 9288,
  "Ġpetting": 9289,
  "Ġfacing": 9290,
  "Ġswaying": 9291,
  "ĠWoolly": 9292,
  "racted": 9293,
  "ĠHar": 9294,
  "Ġmysteries": 9295,
  "Ġsprinkle": 9296,
  "Ġdetails": 9297,
  "sey": 9298,
  "Ġsnort": 9299,
  "Ġflock": 9300,
  "Ġenemy": 9301,
  "ĠBoat": 9302,
  "Ġgoodies": 9303,
  "Ġtablet": 9304,
  "ĠBarry": 9305,
  "Ġtextures": 9306,
  "ĠCurious": 9307,
  "Ġwig": 9308,
  "Ġpopping": 9309,
  "Yesterday": 9310,
  "Ġmarve": 9311,
  "Ġcountries": 9312,
  "Ġfans": 9313,
  "ĠJenn": 9314,
  "Ġstacks": 9315,
  "Ġcrops": 9316,
  "ĠGracie": 9317,
  "Ġwildflowers": 9318,
  "how": 9319,
  "Ġknobs": 9320,
  "ĠSeeing": 9321,
  "ĠTessa": 9322,
  "Ġbushy": 9323,
  "Ġlocal": 9324,
  "Ġstew": 9325,
  "Ġbowing": 9326,
  "Ġhunting": 9327,
  "Ġangrier": 9328,
  "Ġdrowned": 9329,
  "ĠBubu": 9330,
  "Ġpeeped": 9331,
  "Ġbinoculars": 9332,
  "Ġmaps": 9333,
  "ĠMatch": 9334,
  "Ġmoonlight": 9335,
  "ĠGlow": 9336,
  "Ġniece": 9337,
  "Ġquizzes": 9338,
  "ĠJohnson": 9339,
  "ĠDeal": 9340,
  "Ġoutfits": 9341,
  "OO": 9342,
  "Ġweaker": 9343,
  "Ġmindful": 9344,
  "Ġcrowded": 9345,
  "Ġwhoosh": 9346,
  "Ġwrench": 9347,
  "Squ": 9348,
  "Ġendings": 9349,
  "cycles": 9350,
  "ĠBeef": 9351,
  "Im": 9352,
  "oll": 9353,
  "Ġhesitation": 9354,
  "Ġflashes": 9355,
  "Ġproperty": 9356,
  "Ġboil": 9357,
  "Ġfond": 9358,
  "ĠAndrew": 9359,
  "Ġunless": 9360,
  "Ġcarts": 9361,
  "ĠOxy": 9362,
  "Ġimaginations": 9363,
  "Ġability": 9364,
  "amiliar": 9365,
  "getic": 9366,
  "Ġglared": 9367,
  "ĠRight": 9368,
  "ĠAccidents": 9369,
  "Ġknit": 9370,
  "Ġhaven": 9371,
  "stand": 9372,
  "Ġfolds": 9373,
  "Ġmicrow": 9374,
  "Ġspaces": 9375,
  "Ġunfamiliar": 9376,
  "ĠPet": 9377,
  "ths": 9378,
  "Tuna": 9379,
  "Ġdirtier": 9380,
  "saw": 9381,
  "Ġresponsibility": 9382,
  "bank": 9383,
  "Ġdesks": 9384,
  "Ġpouch": 9385,
  "Ġmicrowave": 9386,
  "Bless": 9387,
  "Ġcracker": 9388,
  "ibly": 9389,
  "Ġdate": 9390,
  "Ġswapped": 9391,
  "rnie": 9392,
  "Ġmember": 9393,
  "ĠOxygen": 9394,
  "Ġaston": 9395,
  "ĠRing": 9396,
  "ĠRavi": 9397,
  "lt": 9398,
  "ĠBun": 9399,
  "Cra": 9400,
  "Want": 9401,
  "Ġwhine": 9402,
  "free": 9403,
  "Ġsoftened": 9404,
  "Ġdisappearing": 9405,
  "ĠHelen": 9406,
  "Ġdoorstep": 9407,
  "ĠPeggy": 9408,
  "Ġrebu": 9409,
  "ĠChip": 9410,
  "Ġquacks": 9411,
  "Ġnatur": 9412,
  "ĠToo": 9413,
  "Ġlistener": 9414,
  "ĠFix": 9415,
  "scar": 9416,
  "Ġwriter": 9417,
  "Ġpriv": 9418,
  "ĠSpicy": 9419,
  "Ġblushed": 9420,
  "venir": 9421,
  "Ġpalms": 9422,
  "Ġnoticing": 9423,
  "ĠPast": 9424,
  "upt": 9425,
  "peat": 9426,
  "poison": 9427,
  "Ġsouvenir": 9428,
  "entr": 9429,
  "ĠTra": 9430,
  "ĠRes": 9431,
  "Ġlaws": 9432,
  "Ġdisaster": 9433,
  "ĠGabby": 9434,
  "repeat": 9435,
  "reg": 9436,
  "str": 9437,
  "endant": 9438,
  "Ġphones": 9439,
  "Robby": 9440,
  "ĠLi": 9441,
  "ala": 9442,
  "ĠCut": 9443,
  "ĠBert": 9444,
  "ĠCoal": 9445,
  "Ava": 9446,
  "Ġconfidence": 9447,
  "Ġstirs": 9448,
  "Ġtimid": 9449,
  "Ġoverwhelmed": 9450,
  "ingly": 9451,
  "Ġflick": 9452,
  "Being": 9453,
  "Ġmayor": 9454,
  "Che": 9455,
  "guess": 9456,
  "ĠMole": 9457,
  "ĠPretty": 9458,
  "Ġtugging": 9459,
  "asmine": 9460,
  "lor": 9461,
  "Ġowls": 9462,
  "Ġmailing": 9463,
  "Ġsatisfa": 9464,
  "Ġuntangle": 9465,
  "Ġinjured": 9466,
  "ĠWhite": 9467,
  "Whose": 9468,
  "ĠImmediately": 9469,
  "ĠBooks": 9470,
  "Ġconcentr": 9471,
  "Ġsatisfaction": 9472,
  "Fly": 9473,
  "ĠMarch": 9474,
  "ĠAnimals": 9475,
  "Sc": 9476,
  "Ġlim": 9477,
  "mers": 9478,
  "ĠEat": 9479,
  "Mittens": 9480,
  "Ġprank": 9481,
  "this": 9482,
  "ĠNora": 9483,
  "Mabel": 9484,
  "ĠWonder": 9485,
  "ĠBonnie": 9486,
  "ĠKn": 9487,
  "ĠPot": 9488,
  "ĠRun": 9489,
  "Wiggly": 9490,
  "Ġhooves": 9491,
  "ĠTriangle": 9492,
  "ĠMelissa": 9493,
  "ĠSir": 9494,
  "well": 9495,
  "Ġfixer": 9496,
  "ĠClose": 9497,
  "ĠStartled": 9498,
  "ĠClean": 9499,
  "Jeff": 9500,
  "Ġclut": 9501,
  "Ġsnar": 9502,
  "icate": 9503,
  "lish": 9504,
  "Ġskies": 9505,
  "bling": 9506,
  "ĠTrucky": 9507,
  "Ġinstrument": 9508,
  "Excited": 9509,
  "Ġcapt": 9510,
  "ĠMatilda": 9511,
  "ĠFaye": 9512,
  "ĠHorsie": 9513,
  "adually": 9514,
  "Ġdisagre": 9515,
  "Ġcreak": 9516,
  "Ġpecks": 9517,
  "iky": 9518,
  "Ġstains": 9519,
  "ĠSleepy": 9520,
  "Ġwriggled": 9521,
  "Ġrinse": 9522,
  "Susan": 9523,
  "ĠSing": 9524,
  "Ġshave": 9525,
  "ĠIcy": 9526,
  "Ġbumping": 9527,
  "ĠHeli": 9528,
  "ĠCrabby": 9529,
  "ulf": 9530,
  "Ġruff": 9531,
  "Ġbending": 9532,
  "Ġswirl": 9533,
  "cessary": 9534,
  "Ġexploration": 9535,
  "Close": 9536,
  "ĠScissors": 9537,
  "Ġchatted": 9538,
  "Playing": 9539,
  "Ġsandpit": 9540,
  "Make": 9541,
  "Ġlever": 9542,
  "Ġrods": 9543,
  "Ġfacts": 9544,
  "Sm": 9545,
  "ĠCandy": 9546,
  "Ġattaching": 9547,
  "ĠBro": 9548,
  "Ġfooled": 9549,
  "Ġburger": 9550,
  "Ġglows": 9551,
  "Ġclearly": 9552,
  "Ġconcerned": 9553,
  "Ġcompan": 9554,
  "Ġsalon": 9555,
  "Ġlava": 9556,
  "Ġreversing": 9557,
  "Maya": 9558,
  "Ġcertainly": 9559,
  "els": 9560,
  "Ġsmelt": 9561,
  "Wally": 9562,
  "Ġcirc": 9563,
  "Ġfetched": 9564,
  "Ġmotorcycles": 9565,
  "Ġsometime": 9566,
  "Ġoldest": 9567,
  "Ġprod": 9568,
  "Ġfireflies": 9569,
  "Ġtunes": 9570,
  "Ġtroll": 9571,
  "Ring": 9572,
  "Ġkissing": 9573,
  "Ġchallenges": 9574,
  "Ġblonde": 9575,
  "Ġwarmed": 9576,
  "ĠBobbie": 9577,
  "Kayla": 9578,
  "Ġbound": 9579,
  "Ġdifferently": 9580,
  "Ġunlocking": 9581,
  "ĠLots": 9582,
  "Ġnatural": 9583,
  "sa": 9584,
  "erg": 9585,
  "urple": 9586,
  "Tara": 9587,
  "Ġcutter": 9588,
  "Ġrubb": 9589,
  "Dino": 9590,
  "Ġdetect": 9591,
  "Ġcupcake": 9592,
  "Ġconquered": 9593,
  "Abracadabra": 9594,
  "Ġriverbank": 9595,
  "Ġhates": 9596,
  "Ġalley": 9597,
  "ĠFlap": 9598,
  "Ġrealise": 9599,
  "sorry": 9600,
  "Ġsends": 9601,
  "ĠOpen": 9602,
  "Ġswirls": 9603,
  "ĠFlopsy": 9604,
  "Isn": 9605,
  "Ġwiggling": 9606,
  "Ġbanging": 9607,
  "ĠCammy": 9608,
  "Julia": 9609,
  "Ġmunched": 9610,
  "Ġsensation": 9611,
  "Ġfist": 9612,
  "Ġhippos": 9613,
  "Ġclips": 9614,
  "ĠReliable": 9615,
  "Ġtoppings": 9616,
  "Ġstings": 9617,
  "Ġrobe": 9618,
  "Doctor": 9619,
  "Ġhalves": 9620,
  "Ġbrakes": 9621,
  "ĠGreeny": 9622,
  "Ġswayed": 9623,
  "Ġmiracle": 9624,
  "Fish": 9625,
  "ĠPink": 9626,
  "Hope": 9627,
  "Ġostriches": 9628,
  "ĠClimb": 9629,
  "Ġsurvive": 9630,
  "ula": 9631,
  "bert": 9632,
  "Ġbubbling": 9633,
  "Ġembra": 9634,
  "Ġcrushed": 9635,
  "keepers": 9636,
  "Michael": 9637,
  "Ġotherwise": 9638,
  "Ġtorto": 9639,
  "Ġtents": 9640,
  "ĠLooking": 9641,
  "ani": 9642,
  "ĠOf": 9643,
  "Ġrepairing": 9644,
  "Ġlizards": 9645,
  "Ġstretchy": 9646,
  "ĠFlicker": 9647,
  "ĠWorking": 9648,
  "Ġvinegar": 9649,
  "Ġrubbish": 9650,
  "ĠEd": 9651,
  "Ġpassenger": 9652,
  "aste": 9653,
  "ĠWhich": 9654,
  "Many": 9655,
  "Ġpounced": 9656,
  "Ġvibrant": 9657,
  "Ġtortoise": 9658,
  "ĠRh": 9659,
  "ĠGrump": 9660,
  "Suzie": 9661,
  "Ġscene": 9662,
  "gr": 9663,
  "Ġbas": 9664,
  "Ġglided": 9665,
  "Ġmooed": 9666,
  "Ġdesperately": 9667,
  "Ġsnip": 9668,
  "Ġpoop": 9669,
  "Ġcalmer": 9670,
  "Ġcopied": 9671,
  "ĠSundays": 9672,
  "Ġintently": 9673,
  "ĠLightning": 9674,
  "Ġmajest": 9675,
  "net": 9676,
  "rap": 9677,
  "Ġjing": 9678,
  "Ġtwel": 9679,
  "ĠPer": 9680,
  "Ġwoken": 9681,
  "Ġjoyfully": 9682,
  "Ġrags": 9683,
  "Ġjudges": 9684,
  "Ġcoolest": 9685,
  "Ġglob": 9686,
  "ĠJody": 9687,
  "Ġlectures": 9688,
  "smelling": 9689,
  "lyn": 9690,
  "isible": 9691,
  "Ġhips": 9692,
  "Ġcousins": 9693,
  "Ġastonished": 9694,
  "ĠLu": 9695,
  "Ġcapes": 9696,
  "ĠOutside": 9697,
  "uno": 9698,
  "Ġarrives": 9699,
  "Ġsuccessfully": 9700,
  "Ġspeaker": 9701,
  "Eww": 9702,
  "Ġgooey": 9703,
  "Ġreunited": 9704,
  "Ġguesses": 9705,
  "Ġinvisible": 9706,
  "Ġbats": 9707,
  "why": 9708,
  "Ġtwelve": 9709,
  "urity": 9710,
  "Ġgoodness": 9711,
  "Ġcomputers": 9712,
  "ĠCarla": 9713,
  "Mikey": 9714,
  "Ġchatting": 9715,
  "nded": 9716,
  "mie": 9717,
  "Ġstacking": 9718,
  "Ġsnowflake": 9719,
  "Ġparks": 9720,
  "istory": 9721,
  "Ġracer": 9722,
  "Ġcommun": 9723,
  "Ġpounds": 9724,
  "Ġdesperate": 9725,
  "Ġreappeared": 9726,
  "Ġcompanion": 9727,
  "Ol": 9728,
  "bed": 9729,
  "Ġdou": 9730,
  "Ġank": 9731,
  "Ġlevel": 9732,
  "Zigzag": 9733,
  "Ġluckiest": 9734,
  "Ġgall": 9735,
  "Ġtale": 9736,
  "Ġdumb": 9737,
  "Ġsells": 9738,
  "Ġcrickets": 9739,
  "Ġstomachs": 9740,
  "ĠSugar": 9741,
  "Nick": 9742,
  "Ġsus": 9743,
  "Ġwinds": 9744,
  "iggles": 9745,
  "Ġgates": 9746,
  "ĠSteven": 9747,
  "Ġdisobeyed": 9748,
  "Ġdisagreement": 9749,
  "More": 9750,
  "hile": 9751,
  "Ġhoses": 9752,
  "Ġcrisp": 9753,
  "Ġpearls": 9754,
  "ĠWhee": 9755,
  "Ġawhile": 9756,
  "Lou": 9757,
  "ites": 9758,
  "Ġloyalty": 9759,
  "ĠOrange": 9760,
  "Ġpopsic": 9761,
  "Ġsoda": 9762,
  "ĠRosa": 9763,
  "Ġtongues": 9764,
  "Linda": 9765,
  "rent": 9766,
  "ĠCD": 9767,
  "usion": 9768,
  "Ġrider": 9769,
  "ĠBlack": 9770,
  "Ooh": 9771,
  "pan": 9772,
  "Ġabo": 9773,
  "Ġsurely": 9774,
  "ĠLaw": 9775,
  "ĠAnnabelle": 9776,
  "des": 9777,
  "Ġbund": 9778,
  "colored": 9779,
  "Ġoccasion": 9780,
  "Ġstun": 9781,
  "rum": 9782,
  "dog": 9783,
  "!âĢĻ": 9784,
  "Ġchicks": 9785,
  "izza": 9786,
  "Ġguitars": 9787,
  "chief": 9788,
  "Ġintelligence": 9789,
  "Ġalligators": 9790,
  "Ġseparating": 9791,
  "ĠIron": 9792,
  "Ġseashe": 9793,
  "ĠRaven": 9794,
  "ĠApril": 9795,
  "Ġrebuild": 9796,
  "Ġaboard": 9797,
  "Found": 9798,
  "Ġcreep": 9799,
  "Ġcroak": 9800,
  "ĠWinky": 9801,
  "ĠViolet": 9802,
  "Ġcuc": 9803,
  "Ġlearner": 9804,
  "ĠCare": 9805,
  "ĠOld": 9806,
  "Catch": 9807,
  "aids": 9808,
  "Something": 9809,
  "Ġcaution": 9810,
  "Ġrins": 9811,
  "Ġwhines": 9812,
  "ĠUni": 9813,
  "Ġrevealing": 9814,
  "solut": 9815,
  "Ġspiky": 9816,
  "Ġtickling": 9817,
  "Ġescap": 9818,
  "working": 9819,
  "ĠSettle": 9820,
  "ĠBa": 9821,
  "ĠCoby": 9822,
  "ĠRoar": 9823,
  "Ġunderwater": 9824,
  "Ġcrouched": 9825,
  "Ġglobe": 9826,
  "Ġprog": 9827,
  "everse": 9828,
  "udge": 9829,
  "Ġblooms": 9830,
  "Ġ''": 9831,
  "Ġappearance": 9832,
  "!'.": 9833,
  "Jan": 9834,
  "stop": 9835,
  "ifer": 9836,
  "Ġleaking": 9837,
  "Ġhatched": 9838,
  "seph": 9839,
  "Ġguardian": 9840,
  "urricane": 9841,
  "fived": 9842,
  "ĠSocky": 9843,
  "Ġstrokes": 9844,
  "arning": 9845,
  "Ġtant": 9846,
  "Ġdoves": 9847,
  "Ġpersistence": 9848,
  "ealing": 9849,
  "Ġroutine": 9850,
  "Ġzookeepers": 9851,
  "Ġblame": 9852,
  "Ġpainful": 9853,
  "Sleep": 9854,
  "Ġlighting": 9855,
  "Ġadmit": 9856,
  "Ġquilt": 9857,
  "Ġtaps": 9858,
  "Chicky": 9859,
  "Snap": 9860,
  "Ġsquashes": 9861,
  "Ġmold": 9862,
  "ĠPuff": 9863,
  "Ġripp": 9864,
  "Ġdeeply": 9865,
  "Toys": 9866,
  "Ahh": 9867,
  "Ġshattered": 9868,
  "Ġtempting": 9869,
  "Three": 9870,
  "Ġthrone": 9871,
  "ggles": 9872,
  "ĠSpin": 9873,
  "Ġpeeks": 9874,
  "Ġburgers": 9875,
  "Ġcentre": 9876,
  "Ralph": 9877,
  "Matt": 9878,
  "Ġsquirted": 9879,
  "Ġelectricity": 9880,
  "Ġsecurity": 9881,
  "con": 9882,
  "emon": 9883,
  "Ġcooks": 9884,
  "Ġallowing": 9885,
  "Ġrealizing": 9886,
  "ĠLiam": 9887,
  "Ġlar": 9888,
  "cker": 9889,
  "oss": 9890,
  "orth": 9891,
  "ushes": 9892,
  "Ġchopping": 9893,
  "Jessica": 9894,
  "Ġexchange": 9895,
  "ĠAlf": 9896,
  "ĠRace": 9897,
  "Ġsweetly": 9898,
  "Share": 9899,
  "ĠQuickly": 9900,
  "Sophia": 9901,
  "vering": 9902,
  "Ġsweeter": 9903,
  "Ġglittered": 9904,
  "Ġrinsed": 9905,
  "isapp": 9906,
  "Sw": 9907,
  "ĠInch": 9908,
  "Ġbuilders": 9909,
  "Ġmelts": 9910,
  "Zero": 9911,
  "Ġmelody": 9912,
  "Ġfurious": 9913,
  "Ġdefeated": 9914,
  "Ġenergetic": 9915,
  "Ġgoggles": 9916,
  "asy": 9917,
  "ĠComet": 9918,
  "ĠCats": 9919,
  "Ġsniffled": 9920,
  "Ġwaded": 9921,
  "Ġchooses": 9922,
  "ĠOtherwise": 9923,
  "Ġtantrum": 9924,
  "ĠGiant": 9925,
  "Ġcompeting": 9926,
  "Ġcontainer": 9927,
  "ĠMila": 9928,
  "bang": 9929,
  "eremy": 9930,
  "ĠSharp": 9931,
  "arted": 9932,
  "Ġhudd": 9933,
  "Ġlull": 9934,
  "ĠPark": 9935,
  "ĠRara": 9936,
  "Ġprotection": 9937,
  "Ġseriously": 9938,
  "ĠDuke": 9939,
  "Ġundone": 9940,
  "Ġattempts": 9941,
  "Ġlarger": 9942,
  "Ġcluck": 9943,
  "ĠCher": 9944,
  "ĠWhale": 9945,
  "Ġbuckles": 9946,
  "Ġhelicopters": 9947,
  "Ġcooed": 9948,
  "Shoo": 9949,
  "Ġtossing": 9950,
  "Lizzie": 9951,
  "ĠPinchy": 9952,
  "ĠOver": 9953,
  "Sweet": 9954,
  "ĠSmo": 9955,
  "ĠTears": 9956,
  "ĠHor": 9957,
  "ĠMa": 9958,
  "ĠDin": 9959,
  "Still": 9960,
  "Ġhummed": 9961,
  "Ġcourageous": 9962,
  "Squeaky": 9963,
  "Ġdedic": 9964,
  "solutely": 9965,
  "Ġgod": 9966,
  "Ġaloud": 9967,
  "Ġmuster": 9968,
  "Ġpatients": 9969,
  "Everything": 9970,
  "Ġracers": 9971,
  "Ġdeserves": 9972,
  "Curious": 9973,
  "Maddy": 9974,
  "ĠThings": 9975,
  "Use": 9976,
  "aps": 9977,
  "ĠSquee": 9978,
  "ĠDragon": 9979,
  "ĠJet": 9980,
  "Ġmarvel": 9981,
  "Ġmeets": 9982,
  "Ġtours": 9983,
  "ĠLiza": 9984,
  "ĠRusty": 9985,
  "ĠReddy": 9986,
  "Ġwrapper": 9987,
  "ĠHops": 9988,
  "Froggy": 9989,
  "ĠCrusty": 9990,
  "Ġbooth": 9991,
  "Ġnicest": 9992,
  "Ġwhiskers": 9993,
  "Ġimproving": 9994,
  "ĠLand": 9995,
  "Ġbold": 9996,
  "Ġimaginary": 9997,
  "Ġmeadows": 9998,
  "ĠStarry": 9999,
  "Rocky": 10000,
  "Surrender": 10001,
  "Ġobst": 10002,
  "ĠPebby": 10003,
  "ĠSummer": 10004,
  "!'\"": 10005,
  "Twinkle": 10006,
  "Ġblades": 10007,
  "\"!": 10008,
  "ware": 10009,
  "Ġopt": 10010,
  "Ġpairs": 10011,
  "Ġrisky": 10012,
  "Ġstrolled": 10013,
  "Ġcruel": 10014,
  "Ġpeels": 10015,
  "ssssssss": 10016,
  "she": 10017,
  "ĠKind": 10018,
  "Mina": 10019,
  "June": 10020,
  "ĠJoanna": 10021,
  "Ġwinks": 10022,
  "ĠBrain": 10023,
  "Ġincredibly": 10024,
  "OP": 10025,
  "Say": 10026,
  "ically": 10027,
  "meal": 10028,
  "Ġtanks": 10029,
  "Ġnearer": 10030,
  "Ġsquawk": 10031,
  "ĠExcitedly": 10032,
  "Ġtot": 10033,
  "raw": 10034,
  "Care": 10035,
  "Ġarmy": 10036,
  "los": 10037,
  "Ġmessier": 10038,
  "Ġlamps": 10039,
  "Ġpedaling": 10040,
  "Ġtransformed": 10041,
  "Ice": 10042,
  "Ġstur": 10043,
  "Ġfail": 10044,
  "eading": 10045,
  "Davey": 10046,
  "ĠRiley": 10047,
  "Ġinju": 10048,
  "can": 10049,
  "kind": 10050,
  "illas": 10051,
  "Ġpeak": 10052,
  "Ġrect": 10053,
  "Jackie": 10054,
  "Ġfuss": 10055,
  "shrink": 10056,
  "Ġmunching": 10057,
  "Ġhorrible": 10058,
  "Aw": 10059,
  "Ġtreas": 10060,
  "guard": 10061,
  "Ġoverhead": 10062,
  "Ġholidays": 10063,
  "Ġnarrow": 10064,
  "Ġunwrap": 10065,
  "ĠSwimmy": 10066,
  "ĠKyle": 10067,
  "Ġdryer": 10068,
  "Ġboiling": 10069,
  "ĠPatient": 10070,
  "Pippa": 10071,
  "Ġpuffed": 10072,
  "Ġpanicking": 10073,
  "oned": 10074,
  "Ġhost": 10075,
  "ĠPass": 10076,
  "Ġdives": 10077,
  "Ġpossib": 10078,
  "ighty": 10079,
  "Ġoffers": 10080,
  "Ġsoftest": 10081,
  "ĠBreezy": 10082,
  "cloth": 10083,
  "Ġconfusion": 10084,
  "ka": 10085,
  "Ġmustn": 10086,
  "Jenna": 10087,
  "Marth": 10088,
  "ĠJennie": 10089,
  "Ġuncovered": 10090,
  "Ġmarveled": 10091,
  "Ġallerg": 10092,
  "Martha": 10093,
  "aly": 10094,
  "ĠBell": 10095,
  "Ġcooled": 10096,
  "Ġelders": 10097,
  "uction": 10098,
  "mo": 10099,
  "Ġroo": 10100,
  "Ġscre": 10101,
  "ĠGu": 10102,
  "iciest": 10103,
  "ĠVery": 10104,
  "ĠDogs": 10105,
  "Ġdips": 10106,
  "Janie": 10107,
  "Ġcurrent": 10108,
  "Ġmustered": 10109,
  "Ġgratefully": 10110,
  "Ġcherish": 10111,
  "Ġchains": 10112,
  "Ġrotted": 10113,
  "ĠSunshine": 10114,
  "Ġcoughing": 10115,
  "ĠWinter": 10116,
  "Ġheights": 10117,
  "Ġglanced": 10118,
  "Ġankle": 10119,
  "Ġtreasured": 10120,
  "idi": 10121,
  "Ġ--": 10122,
  "parable": 10123,
  "Maddie": 10124,
  "'?\"": 10125,
  "ĠBruce": 10126,
  "Ġshaky": 10127,
  "Ġsinking": 10128,
  "Ġheavily": 10129,
  "Ġcupboards": 10130,
  "ĠOscar": 10131,
  "Ġenclos": 10132,
  "Ġenclosure": 10133,
  "rice": 10134,
  "Ġspare": 10135,
  "Ġmac": 10136,
  "Ġsleigh": 10137,
  "Sky": 10138,
  "ĠCrocodile": 10139,
  "ĠMartin": 10140,
  "Ġgallop": 10141,
  "Ġinseparable": 10142,
  "ĠBrad": 10143,
  "ĠClay": 10144,
  "ĠSpinny": 10145,
  "Ġoatmeal": 10146,
  "iring": 10147,
  "Ġcanv": 10148,
  "Ġhob": 10149,
  "ĠFa": 10150,
  "oured": 10151,
  "ippers": 10152,
  "Ġlush": 10153,
  "Move": 10154,
  "Ġriddle": 10155,
  "Ġclubs": 10156,
  "Ġsection": 10157,
  "Enjoy": 10158,
  "Ġdashed": 10159,
  "Ġnecessary": 10160,
  "afe": 10161,
  "Ġconv": 10162,
  "people": 10163,
  "Prin": 10164,
  "stantly": 10165,
  "ĠSquare": 10166,
  "ĠMona": 10167,
  "ĠPurple": 10168,
  "Mel": 10169,
  "Ġunst": 10170,
  "iraffe": 10171,
  "Ġsax": 10172,
  "Ant": 10173,
  "Ġordering": 10174,
  "Ġpraise": 10175,
  "ĠDidi": 10176,
  "Ġglittery": 10177,
  "Ġdevast": 10178,
  "Dare": 10179,
  "Ġzippers": 10180,
  "ĠRobin": 10181,
  "Ġraincoats": 10182,
  "Ġhundreds": 10183,
  "Ġscenery": 10184,
  "ĠFriendship": 10185,
  "Ġallergic": 10186,
  "ĠBar": 10187,
  "ĠDilly": 10188,
  "ggie": 10189,
  "antern": 10190,
  "Ġsuggests": 10191,
  "ĠVal": 10192,
  "Ġrowing": 10193,
  "Ġcompleting": 10194,
  "ĠJanet": 10195,
  "Turn": 10196,
  "Ġarom": 10197,
  "ĠCarly": 10198,
  "Ġconvince": 10199,
  "Ne": 10200,
  "Ġfloppy": 10201,
  "Ġmushy": 10202,
  "Ġnations": 10203,
  "ĠBelle": 10204,
  "Ġcharacter": 10205,
  "Ġcondition": 10206,
  "atest": 10207,
  "Ġpractised": 10208,
  "Ġmusicians": 10209,
  "Ġrecommendation": 10210,
  "otch": 10211,
  "Boom": 10212,
  "Ġseated": 10213,
  "Ġchatter": 10214,
  "Promise": 10215,
  "isbee": 10216,
  "ĠTidy": 10217,
  "ĠWhe": 10218,
  "Ġskips": 10219,
  "ĠPotato": 10220,
  "alled": 10221,
  "Ġslot": 10222,
  "shop": 10223,
  "Ġdrill": 10224,
  "ildren": 10225,
  "Ġborrowing": 10226,
  "ĠLeah": 10227,
  "Ġhuddled": 10228,
  "Ġcanvas": 10229,
  "enn": 10230,
  "ĠHa": 10231,
  "ĠCould": 10232,
  "hand": 10233,
  "ĠPee": 10234,
  "aisie": 10235,
  "Startled": 10236,
  "Ġexperiment": 10237,
  "Ġsoothing": 10238,
  "Ġhovering": 10239,
  "Ġlullaby": 10240,
  "Ġdevastated": 10241,
  "irty": 10242,
  "Ġremo": 10243,
  "Ġenjoys": 10244,
  "ĠOak": 10245,
  "apple": 10246,
  "Ġglisten": 10247,
  "clock": 10248,
  "ĠCrane": 10249,
  "ĠPatrick": 10250,
  "El": 10251,
  "Ġreck": 10252,
  "Ġchili": 10253,
  "Ġpleasant": 10254,
  "epeat": 10255,
  "aming": 10256,
  "Right": 10257,
  "ift": 10258,
  "Ġhoot": 10259,
  "Ġrocky": 10260,
  "ĠCell": 10261,
  "mate": 10262,
  "ĠNumber": 10263,
  "ĠBrush": 10264,
  "ĠFluff": 10265,
  "Ġsparrow": 10266,
  "Samantha": 10267,
  "ĠRespect": 10268,
  "Ġfulf": 10269,
  "ĠMs": 10270,
  "Ġshowers": 10271,
  "ĠSkeleton": 10272,
  "Ġvalues": 10273,
  "Ġairplanes": 10274,
  "Frankie": 10275,
  "Ġcompromise": 10276,
  "Ġtemptation": 10277,
  "ĠAgain": 10278,
  "Ġhairs": 10279,
  "Ġroyal": 10280,
  "Ġchalks": 10281,
  "Ġconduct": 10282,
  "Ġsusp": 10283,
  "Ġplat": 10284,
  "Ġfolders": 10285,
  "robes": 10286,
  "immered": 10287,
  "Ġdistracted": 10288,
  "ĠHurricane": 10289,
  "ĠMop": 10290,
  "ĠClub": 10291,
  "ĠPaula": 10292,
  "Ġunfold": 10293,
  "Ġcompliment": 10294,
  "Fortunately": 10295,
  "Ġreckless": 10296,
  "Ġrecess": 10297,
  "Jacky": 10298,
  "Ġheadache": 10299,
  "Ġmustaches": 10300,
  "Simon": 10301,
  "Ġactors": 10302,
  "ĠLibby": 10303,
  "Ġabsolutely": 10304,
  "Ġgorillas": 10305,
  "Ġplatform": 10306,
  "aily": 10307,
  "ico": 10308,
  "Ġpiled": 10309,
  "Ġcords": 10310,
  "ĠYum": 10311,
  "Chris": 10312,
  "Ġconsiderate": 10313,
  "Ġtownspeople": 10314,
  "wen": 10315,
  "Pam": 10316,
  "ĠFun": 10317,
  "even": 10318,
  "like": 10319,
  "Ġsmoking": 10320,
  "ĠAlarm": 10321,
  "ĠCarrot": 10322,
  "acey": 10323,
  "Ġcombs": 10324,
  "Ġcharged": 10325,
  "Ġlasers": 10326,
  "HE": 10327,
  "rings": 10328,
  "Ġpantry": 10329,
  "ĠEating": 10330,
  "Ġshields": 10331,
  "ĠCarrie": 10332,
  "Ġsturdy": 10333,
  "Ġaroma": 10334,
  "gn": 10335,
  "ders": 10336,
  "Sof": 10337,
  "scotch": 10338,
  "Ġpea": 10339,
  "Ġwanna": 10340,
  "ĠPar": 10341,
  "Ġhorror": 10342,
  "Ġwax": 10343,
  "Ġashes": 10344,
  "Ġbeeping": 10345,
  "Ġdisappears": 10346,
  "ĠErnie": 10347,
  "Ġcommunicate": 10348,
  "Ġconductor": 10349,
  "Ġbuys": 10350,
  "Ġpetal": 10351,
  "Ġfences": 10352,
  "ĠLeaf": 10353,
  "ĠAlan": 10354,
  "Ġladybugs": 10355,
  "Ġsilently": 10356,
  "Ġspades": 10357,
  "Poor": 10358,
  "Ġlun": 10359,
  "Ġaback": 10360,
  "ĠStand": 10361,
  "Ġwobbles": 10362,
  "Ġlen": 10363,
  "ĠWake": 10364,
  "Ġyuck": 10365,
  "Ġsilk": 10366,
  "Larry": 10367,
  "Ġmagnific": 10368,
  "Win": 10369,
  "Ġhollow": 10370,
  "Ġwarmest": 10371,
  "Ġhamster": 10372,
  "Although": 10373,
  "ĠBroccoli": 10374,
  "Sk": 10375,
  "ĠHank": 10376,
  "Ġpail": 10377,
  "Ġcaves": 10378,
  "Ġmotions": 10379,
  "Ġmovement": 10380,
  "Ġloads": 10381,
  "Ġlifeguard": 10382,
  "Ġwhir": 10383,
  "Ġsly": 10384,
  "Ġembarrassing": 10385,
  "Ġagreeing": 10386,
  "Ġsnoring": 10387,
  "Hoor": 10388,
  "ĠThrough": 10389,
  "Ġearrings": 10390,
  "Hooray": 10391,
  "Ġclim": 10392,
  "Ġblade": 10393,
  "ateful": 10394,
  "ĠFizzy": 10395,
  "ĠSpoon": 10396,
  "ĠHorsy": 10397,
  "ĠSoar": 10398,
  "Mix": 10399,
  "Ġcables": 10400,
  "ĠMarley": 10401,
  "Ġaisles": 10402,
  "Ġpayoff": 10403,
  "Ġscowled": 10404,
  "ĠJasmine": 10405,
  "Ġhare": 10406,
  "mark": 10407,
  "Ġslight": 10408,
  "Ġalongside": 10409,
  "Ġpossibilities": 10410,
  "Ġlil": 10411,
  "ĠCake": 10412,
  "Ġsignal": 10413,
  "Ġscratchy": 10414,
  "ĠGraceful": 10415,
  "ĠStanley": 10416,
  "Ġantlers": 10417,
  "Sir": 10418,
  "Ġwheelb": 10419,
  "ĠUgly": 10420,
  "Ġpads": 10421,
  "Nana": 10422,
  "Imagine": 10423,
  "Ġdedication": 10424,
  "Ġwheelbarrow": 10425,
  "rem": 10426,
  "Con": 10427,
  "ooh": 10428,
  "Duck": 10429,
  "Ġlookout": 10430,
  "ĠSoap": 10431,
  "Ġroast": 10432,
  "Ġhuff": 10433,
  "laus": 10434,
  "ĠTuesdays": 10435,
  "Wisdom": 10436,
  "Ġconfidently": 10437,
  "Chew": 10438,
  "Ġdumped": 10439,
  "ĠBark": 10440,
  "Ġplank": 10441,
  "Ġwoodpe": 10442,
  "ĠSis": 10443,
  "ibo": 10444,
  "ĠFork": 10445,
  "Ġkeen": 10446,
  "Ġhurtful": 10447,
  "Ġhandles": 10448,
  "ĠRad": 10449,
  "Ġcherished": 10450,
  "ĠPanda": 10451,
  "reya": 10452,
  "ĠLucas": 10453,
  "Ġworkshop": 10454,
  "NG": 10455,
  "okay": 10456,
  "Ġcollars": 10457,
  "Catty": 10458,
  "Pretty": 10459,
  "Ġcocon": 10460,
  "Ġcoconut": 10461,
  "Ġflyer": 10462,
  "ĠAllie": 10463,
  "ĠGert": 10464,
  "Ġharmony": 10465,
  "ĠReading": 10466,
  "umed": 10467,
  "Ġcarton": 10468,
  "Ġcode": 10469,
  "iana": 10470,
  "Ġharvest": 10471,
  "Ġmesmerised": 10472,
  "Ġsquawked": 10473,
  "Ġdefeat": 10474,
  "Ġunkind": 10475,
  "Ġgreatest": 10476,
  "Ġmagnificent": 10477,
  "ics": 10478,
  "Bop": 10479,
  "ĠEver": 10480,
  "Ġraises": 10481,
  "ĠBebe": 10482,
  "Ġprocess": 10483,
  "Ġpistols": 10484,
  "Ph": 10485,
  "owing": 10486,
  "ĠâĢĿ": 10487,
  ".âĢĻ": 10488,
  "Ġdroop": 10489,
  "Ġcrosses": 10490,
  "ĠAf": 10491,
  "Ġgul": 10492,
  "ĠColin": 10493,
  "horse": 10494,
  "ĠMusic": 10495,
  "ĠBruno": 10496,
  "Ġprogress": 10497,
  "Ġgulped": 10498,
  "ĠĠ": 10499,
  "stal": 10500,
  "ĠJam": 10501,
  "Hippy": 10502,
  "Ġmixes": 10503,
  "ĠSchool": 10504,
  "Ġwhipped": 10505,
  "Ġwhether": 10506,
  "goodbye": 10507,
  "Ġfunniest": 10508,
  "ĠMagnet": 10509,
  "Ġsaxophone": 10510,
  "ĠClaus": 10511,
  "Ġdeciding": 10512,
  "Ġcapture": 10513,
  "Ġcuddling": 10514,
  "Ġinform": 10515,
  "Ġpollen": 10516,
  "cra": 10517,
  "ĠWr": 10518,
  "ĠTick": 10519,
  "Free": 10520,
  "Olly": 10521,
  "Ġhoof": 10522,
  "Ġbegs": 10523,
  "Ġguided": 10524,
  "Ġtentacles": 10525,
  "Te": 10526,
  "King": 10527,
  "Ġmagically": 10528,
  "inct": 10529,
  "Ġstinky": 10530,
  "Ġyawns": 10531,
  "ĠApple": 10532,
  "Ġglistening": 10533,
  "Ġgrump": 10534,
  "ĠKen": 10535,
  "ĠAmi": 10536,
  "lings": 10537,
  "imbo": 10538,
  "Ġgruff": 10539,
  "Star": 10540,
  "Ġparrots": 10541,
  "ĠCoffee": 10542,
  "Ġsleeve": 10543,
  "Abbie": 10544,
  "Ġclothesline": 10545,
  "ĠComp": 10546,
  "Ġclimber": 10547,
  "Ġwoodpecker": 10548,
  "ki": 10549,
  "ĠHat": 10550,
  "Ġfluff": 10551,
  "ĠOink": 10552,
  "Ġsplitting": 10553,
  "Ġdizz": 10554,
  "Ġhalfway": 10555,
  "ĠRobot": 10556,
  "Ġhint": 10557,
  "Ġlilies": 10558,
  "ĠBea": 10559,
  "ĠDuring": 10560,
  "Show": 10561,
  "Ġrespecting": 10562,
  "Ġcrafts": 10563,
  "Ġsleepover": 10564,
  "ĠSandra": 10565,
  "ami": 10566,
  "Ġslurp": 10567,
  "Ġsteered": 10568,
  "Robert": 10569,
  "ongratulations": 10570,
  "ĠCookies": 10571,
  "thur": 10572,
  "rays": 10573,
  "Ġwidely": 10574,
  "Ġcontinuing": 10575,
  "Ġnudged": 10576,
  "Ġdepths": 10577,
  "Ġdustpan": 10578,
  "ĠHook": 10579,
  "Ġrunny": 10580,
  "Cara": 10581,
  "Whoa": 10582,
  "Ġtastiest": 10583,
  "ĠRoxy": 10584,
  "Ġachievement": 10585,
  "Ġamongst": 10586,
  "surrender": 10587,
  "Ġjigg": 10588,
  "Ġmotors": 10589,
  "Ġshots": 10590,
  "ĠGemma": 10591,
  "rystal": 10592,
  "'!\"": 10593,
  "Butter": 10594,
  "ĠOuch": 10595,
  "Ġlonel": 10596,
  "Ġbands": 10597,
  "ĠNature": 10598,
  "Ġcalf": 10599,
  "Granny": 10600,
  "ĠMamma": 10601,
  "Anytime": 10602,
  "Squirrel": 10603,
  "Ġcircled": 10604,
  "Ġfarms": 10605,
  "Ġgladly": 10606,
  "shirt": 10607,
  "Ġstalk": 10608,
  "Ġtrailer": 10609,
  "Ġbleeds": 10610,
  "Spring": 10611,
  "ĠJonathan": 10612,
  "ĠGinger": 10613,
  "Ġtheat": 10614,
  "Ġmur": 10615,
  "ĠCream": 10616,
  "ĠMail": 10617,
  "Ġhideout": 10618,
  "ĠOp": 10619,
  "Ġbendy": 10620,
  "Ġsoul": 10621,
  "Ġbathrobes": 10622,
  "Ġscience": 10623,
  "Ana": 10624,
  "Ġventure": 10625,
  "Ġdodging": 10626,
  "Ġfrightening": 10627,
  "ĠCherry": 10628,
  "Ġplo": 10629,
  "ĠLast": 10630,
  "ĠToy": 10631,
  "colate": 10632,
  "ĠNelly": 10633,
  "ĠNate": 10634,
  "Stella": 10635,
  "Ġtrunks": 10636,
  "Ġwarns": 10637,
  "Jonny": 10638,
  "Ġ9": 10639,
  "ndy": 10640,
  "Sit": 10641,
  "kest": 10642,
  "book": 10643,
  "Ġskate": 10644,
  "Ġcompared": 10645,
  "oors": 10646,
  "Ġticking": 10647,
  "Ġfloaty": 10648,
  "Sadie": 10649,
  "Ġpancake": 10650,
  "Ġindoors": 10651,
  "cell": 10652,
  "usy": 10653,
  "ĠDel": 10654,
  "ĠChoo": 10655,
  "Ġblush": 10656,
  "enna": 10657,
  "Ġentering": 10658,
  "ĠPromise": 10659,
  "Ġsnarled": 10660,
  "Ġfrisbee": 10661,
  "Cow": 10662,
  "Ġtill": 10663,
  "Ġsetup": 10664,
  "Ġgiants": 10665,
  "Ġstrap": 10666,
  "Ġspirits": 10667,
  "boos": 10668,
  "ĠJuice": 10669,
  "Ġintroducing": 10670,
  "Ġavoided": 10671,
  "ĠSpider": 10672,
  "ĠJosie": 10673,
  "Ġdaily": 10674,
  "ĠBibo": 10675,
  "ĠAfric": 10676,
  "ĠWas": 10677,
  "ĠPir": 10678,
  "Seeing": 10679,
  "ĠCocoa": 10680,
  "Foxy": 10681,
  "Ġsolutions": 10682,
  "Ġexplode": 10683,
  "ĠFeather": 10684,
  "Ġleng": 10685,
  "Ġdining": 10686,
  "ĠStri": 10687,
  "Ġunzip": 10688,
  "Ġpace": 10689,
  "hnn": 10690,
  "Ġscree": 10691,
  "Ġenthusiastically": 10692,
  "ĠThermometer": 10693,
  "Ġwiggles": 10694,
  "Ġsupplying": 10695,
  "Ġpurring": 10696,
  "uttered": 10697,
  "Gogo": 10698,
  "Ġtone": 10699,
  "Ġrestoring": 10700,
  "Ġlimped": 10701,
  "Ġhammers": 10702,
  "RA": 10703,
  "uise": 10704,
  "Four": 10705,
  "tled": 10706,
  "ĠChar": 10707,
  "Ġpreschool": 10708,
  "Ġproved": 10709,
  "Ġcontained": 10710,
  "Laura": 10711,
  "Ġsuspicious": 10712,
  "ĠSisi": 10713,
  "ĠMac": 10714,
  "Tomorrow": 10715,
  "Ġislands": 10716,
  "Without": 10717,
  "ĠCarol": 10718,
  "aylor": 10719,
  "Ġtheatre": 10720,
  "esy": 10721,
  "ĠTuck": 10722,
  "ĠSurpr": 10723,
  "Ġwetter": 10724,
  "Ġwicked": 10725,
  "Ġleopards": 10726,
  "Ġpurch": 10727,
  "ĠDancing": 10728,
  "Ġlimits": 10729,
  "Ġinn": 10730,
  "Ġowning": 10731,
  "Ġroller": 10732,
  "Ġaccess": 10733,
  "ĠShake": 10734,
  "Ġhopscotch": 10735,
  "hnnie": 10736,
  "itam": 10737,
  "aret": 10738,
  "ĠTeach": 10739,
  "ĠTrees": 10740,
  "Ġflippers": 10741,
  "gra": 10742,
  "Ġslime": 10743,
  "enses": 10744,
  "Ġlasted": 10745,
  "Ġjaws": 10746,
  "Ġthunderstorm": 10747,
  "garet": 10748,
  "Tell": 10749,
  "ĠPep": 10750,
  "aries": 10751,
  "Boun": 10752,
  "osp": 10753,
  "ustrated": 10754,
  "Ġauntie": 10755,
  "Ġnanny": 10756,
  "ĠStealing": 10757,
  "just": 10758,
  "Ġobediently": 10759,
  "Ġgradually": 10760,
  "Ġinnoc": 10761,
  "Ġpoles": 10762,
  "sitter": 10763,
  "Ġrustle": 10764,
  "Ġbundle": 10765,
  "ĠJennifer": 10766,
  "che": 10767,
  "Over": 10768,
  "Ġweed": 10769,
  "ĠJes": 10770,
  "ĠGret": 10771,
  "Ġdries": 10772,
  "Ġcurve": 10773,
  "Ġthreatened": 10774,
  "ydia": 10775,
  "ĠNibbles": 10776,
  "Ġscaly": 10777,
  "ann": 10778,
  "Ġrises": 10779,
  "azors": 10780,
  "Ġneighed": 10781,
  "Along": 10782,
  "Ġtwirls": 10783,
  "Reverse": 10784,
  "Ġrooster": 10785,
  "ocolate": 10786,
  "Ġvitam": 10787,
  "Friend": 10788,
  "Ġblur": 10789,
  "Ġaband": 10790,
  "ĠSilly": 10791,
  "Ġvillain": 10792,
  "Ġcalming": 10793,
  "Ġrepairman": 10794,
  "Ġstained": 10795,
  "ĠJoanne": 10796,
  "Ġmend": 10797,
  "eller": 10798,
  "Ġages": 10799,
  "Ġbirdie": 10800,
  "Ġplus": 10801,
  "Ġgrain": 10802,
  "ĠFunny": 10803,
  "Push": 10804,
  "Ġgrunt": 10805,
  "ĠBees": 10806,
  "Ġpanting": 10807,
  "Ġtucks": 10808,
  "Ġtingling": 10809,
  "Ġmajestic": 10810,
  "Ar": 10811,
  "aron": 10812,
  "Ġshame": 10813,
  "ĠDull": 10814,
  "Toto": 10815,
  "Ġurging": 10816,
  "ĠChee": 10817,
  "Ġsmoky": 10818,
  "ĠPrune": 10819,
  "Ġrecipes": 10820,
  "ĠWow": 10821,
  "Wee": 10822,
  "Ġhunger": 10823,
  "Ġchirps": 10824,
  "Ġexercising": 10825,
  "ĠCleaning": 10826,
  "Ġescaping": 10827,
  "Ġfourth": 10828,
  "Ġnotebooks": 10829,
  "Ġchallenged": 10830,
  "ĠJodie": 10831,
  "Ġtwitched": 10832,
  "print": 10833,
  "Ġ20": 10834,
  "ylan": 10835,
  "ĠFeeling": 10836,
  "Ġflowed": 10837,
  "oyal": 10838,
  "acher": 10839,
  "Ġframes": 10840,
  "gging": 10841,
  "Ġsmoother": 10842,
  "Ġmissiles": 10843,
  "teen": 10844,
  "Ġpoisonous": 10845,
  "Ġpecking": 10846,
  "Ġstroller": 10847,
  "Ġrectangle": 10848,
  "Ġblob": 10849,
  "ĠTurn": 10850,
  "ĠShould": 10851,
  "ĠPatches": 10852,
  "Ġdodges": 10853,
  "ĠSinging": 10854,
  "?!": 10855,
  "issy": 10856,
  "ĠButton": 10857,
  "ĠWorm": 10858,
  "ierce": 10859,
  "ĠThankfully": 10860,
  "Els": 10861,
  "udrey": 10862,
  "elsey": 10863,
  "Ten": 10864,
  "Bet": 10865,
  "Ġbled": 10866,
  "Ġtrim": 10867,
  "ĠSitting": 10868,
  "Ġleaped": 10869,
  "Ġpossessions": 10870,
  "ossom": 10871,
  "Ġlightly": 10872,
  "Ġinvol": 10873,
  "ality": 10874,
  "Ġhandleb": 10875,
  "Ġnotices": 10876,
  "Ġkneels": 10877,
  "Ġflooded": 10878,
  "Ġcommand": 10879,
  "Ġtiptoes": 10880,
  "Ġdetective": 10881,
  "ĠGiraffe": 10882,
  "Ġlantern": 10883,
  "cellent": 10884,
  "onk": 10885,
  "isher": 10886,
  "Ġloos": 10887,
  "Ġscut": 10888,
  "Pop": 10889,
  "anga": 10890,
  "Ġsmoothly": 10891,
  "ĠTube": 10892,
  "ĠTwisty": 10893,
  "Ġcrispy": 10894,
  "Ġcheesy": 10895,
  "Wo": 10896,
  "ilar": 10897,
  "bur": 10898,
  "ical": 10899,
  "Pick": 10900,
  "Ġmillion": 10901,
  "ĠAfterwards": 10902,
  "Ġjuggle": 10903,
  "ĠAfrica": 10904,
  "bs": 10905,
  "reet": 10906,
  "ĠDoug": 10907,
  "Ġdevice": 10908,
  "Ġflavour": 10909,
  "ential": 10910,
  "Ġprotects": 10911,
  "Ġrecords": 10912,
  "ĠRumble": 10913,
  "Rover": 10914,
  "Ġplopped": 10915,
  "Ġbabysitter": 10916,
  "Fe": 10917,
  "ĠTop": 10918,
  "Ġswat": 10919,
  "ĠEve": 10920,
  "Ġbrightened": 10921,
  "Ally": 10922,
  "Ġchewy": 10923,
  "Ġflashlights": 10924,
  "Ġtoothp": 10925,
  "Ġdusted": 10926,
  "Ġstrikes": 10927,
  "Ġpounding": 10928,
  "Ġroute": 10929,
  "THE": 10930,
  "Ġinstinct": 10931,
  "Ġmitt": 10932,
  "ĠDi": 10933,
  "ĠLady": 10934,
  "ĠPa": 10935,
  "Ġperse": 10936,
  "Ġstiff": 10937,
  "ĠClare": 10938,
  "ĠCact": 10939,
  "Ġstares": 10940,
  "Ġ12": 10941,
  "Fido": 10942,
  "ĠRonny": 10943,
  "Ġmischief": 10944,
  "Ġremoving": 10945,
  "ĠSly": 10946,
  "ĠHero": 10947,
  "abella": 10948,
  "Ġoars": 10949,
  "Ġstomping": 10950,
  "Years": 10951,
  "Ġnightstand": 10952,
  "Ġtend": 10953,
  "icated": 10954,
  "Ġcontented": 10955,
  "ĠGirl": 10956,
  "ĠOfficer": 10957,
  "icia": 10958,
  "Ġvol": 10959,
  "yield": 10960,
  "Ġdistract": 10961,
  "Ġpriest": 10962,
  "Ġturkeys": 10963,
  "ĠFlash": 10964,
  "ĠDrink": 10965,
  "Ġbruise": 10966,
  "Ġreappear": 10967,
  "Careful": 10968,
  "Bouncy": 10969,
  "vo": 10970,
  "Ġaid": 10971,
  "Ding": 10972,
  "Ġcig": 10973,
  "Woo": 10974,
  "ĠAvery": 10975,
  "ĠMill": 10976,
  "Ġbraid": 10977,
  "Ġdeck": 10978,
  "Jilly": 10979,
  "orious": 10980,
  "Pass": 10981,
  "Ġpersu": 10982,
  "Ġperformers": 10983,
  "Ġrefusing": 10984,
  "Ġundo": 10985,
  "Ġbolt": 10986,
  "ĠJoseph": 10987,
  "ĠJeremy": 10988,
  "Ġthirty": 10989,
  "Ġseahorse": 10990,
  "ĠCheese": 10991,
  "Betsy": 10992,
  "ya": 10993,
  "Jay": 10994,
  "Ġatop": 10995,
  "Ġeyesh": 10996,
  "Ġquicker": 10997,
  "Ġwagons": 10998,
  "Ġrais": 10999,
  "Ġorganised": 11000,
  "iments": 11001,
  "Fiona": 11002,
  "ĠGuard": 11003,
  "Confused": 11004,
  "Ġeyeshadow": 11005,
  "ĠPear": 11006,
  "Ġrightful": 11007,
  "ĠNed": 11008,
  "ĠZoomie": 11009,
  "Ġdisplaying": 11010,
  "ĠCozy": 11011,
  "ernie": 11012,
  "Ġraindrop": 11013,
  "Nobody": 11014,
  "Ġcharity": 11015,
  "Ġunload": 11016,
  "Ġdisguise": 11017,
  "wo": 11018,
  "ige": 11019,
  "ĠMild": 11020,
  "Ang": 11021,
  "Ġshrimps": 11022,
  "Ġprison": 11023,
  "Ġstudies": 11024,
  "Ġarrested": 11025,
  "Ġtablecloth": 11026,
  "Bra": 11027,
  "umn": 11028,
  "Ġunc": 11029,
  "ĠDream": 11030,
  "lock": 11031,
  "Ġloser": 11032,
  "Ġviol": 11033,
  "Ġoccasions": 11034,
  "ĠFortunately": 11035,
  "Ġjuiciest": 11036,
  "Ġslightly": 11037,
  "Ġmound": 11038,
  "Ġlur": 11039,
  "ĠSoft": 11040,
  "Ġtripping": 11041,
  "abeth": 11042,
  "Ġlowers": 11043,
  "arett": 11044,
  "ĠFlame": 11045,
  "Ġladybird": 11046,
  "Ġscrunched": 11047,
  "ĠBelieve": 11048,
  "Ġfifty": 11049,
  "Johny": 11050,
  "Ġlength": 11051,
  "ously": 11052,
  "Ġstormy": 11053,
  "chanted": 11054,
  "Fox": 11055,
  "Whistle": 11056,
  "ĠMatthew": 11057,
  "Brown": 11058,
  "Ġdialed": 11059,
  "woo": 11060,
  "friend": 11061,
  "Ġhike": 11062,
  "Ġlaunch": 11063,
  "Ġbirthdays": 11064,
  "Ġfiercely": 11065,
  "ĠOstri": 11066,
  "Ġsoggy": 11067,
  "Ġcommunity": 11068,
  "stupid": 11069,
  "ĠFreya": 11070,
  "Ġloneliness": 11071,
  "Up": 11072,
  "Cle": 11073,
  "ĠLa": 11074,
  "ource": 11075,
  "exit": 11076,
  "Ġsnowing": 11077,
  "Ġknitting": 11078,
  "Ġhopeless": 11079,
  "ĠHonest": 11080,
  "Ġdozed": 11081,
  "Ġinformation": 11082,
  "ett": 11083,
  "rease": 11084,
  "ĠGia": 11085,
  "ĠDoll": 11086,
  "Ġrumbled": 11087,
  "Ġteaspoons": 11088,
  "ĠDusty": 11089,
  "ĠBessy": 11090,
  "Ġtiring": 11091,
  "Ġcigarett": 11092,
  "Ġboiled": 11093,
  "ĠGor": 11094,
  "ĠDoing": 11095,
  "Ġroamed": 11096,
  "Ġforced": 11097,
  "Ġsumm": 11098,
  "ĠMighty": 11099,
  "Ġresource": 11100,
  "ppa": 11101,
  "Hel": 11102,
  "Ġdiv": 11103,
  "asper": 11104,
  "Ġboarded": 11105,
  "Ġtrumpets": 11106,
  "Ġuntangled": 11107,
  "rupted": 11108,
  "Ġforeshadowed": 11109,
  "Ġenchanted": 11110,
  "Ġgle": 11111,
  "Ġcutest": 11112,
  "ornado": 11113,
  "Ġhoneycom": 11114,
  "ĠFran": 11115,
  "Ġanybody": 11116,
  "ĠRani": 11117,
  "ĠCarefully": 11118,
  "atic": 11119,
  "Ġfixes": 11120,
  "Ġoceans": 11121,
  "Ġguarded": 11122,
  "ĠSmall": 11123,
  "Ġscrubbing": 11124,
  "Ġwrists": 11125,
  "Drink": 11126,
  "ĠDeaf": 11127,
  "ĠGreg": 11128,
  "od": 11129,
  "!âĢĿ,": 11130,
  "rina": 11131,
  "ĠNicky": 11132,
  "ĠMeow": 11133,
  "Marie": 11134,
  "poke": 11135,
  "ĠHairy": 11136,
  "phew": 11137,
  "Ġducklings": 11138,
  "Ġsim": 11139,
  "Mind": 11140,
  "ĠBoy": 11141,
  "Ġdrags": 11142,
  "Dizzy": 11143,
  "Ġcombing": 11144,
  "Ġroofs": 11145,
  "ika": 11146,
  "Ġaccepting": 11147,
  "Ġevents": 11148,
  "Ġstretcher": 11149,
  "Ġwitches": 11150,
  "Ġnephew": 11151,
  "BC": 11152,
  "ior": 11153,
  "inting": 11154,
  "cover": 11155,
  "olph": 11156,
  "Ġscolding": 11157,
  "ĠFanny": 11158,
  "jamin": 11159,
  "ĠFaith": 11160,
  "Ġpineapple": 11161,
  "Ġantenna": 11162,
  "Ġatm": 11163,
  "Ġtul": 11164,
  "belt": 11165,
  "ĠMelt": 11166,
  "anky": 11167,
  "andel": 11168,
  "Ġchamp": 11169,
  "Ġlakes": 11170,
  "ĠBrother": 11171,
  "Ġproceed": 11172,
  "Ġruled": 11173,
  "Ġpounce": 11174,
  "ĠSean": 11175,
  "Ġerupt": 11176,
  "ĠKindness": 11177,
  "osphere": 11178,
  "Ġatmosphere": 11179,
  "ada": 11180,
  "Five": 11181,
  "flies": 11182,
  "Ġcreepy": 11183,
  "Ġabandoned": 11184,
  "Pr": 11185,
  "gre": 11186,
  "Ġray": 11187,
  "ĠShell": 11188,
  "cies": 11189,
  "Ġpinches": 11190,
  "talk": 11191,
  "Ġsalads": 11192,
  "Ġdesigner": 11193,
  "Ġprops": 11194,
  "ĠABC": 11195,
  "Ġparking": 11196,
  "nings": 11197,
[...]
